<pad> 100
<eos> 100
<unk> 100
的 100
， 100
。 100
和 100
在 100
. 100
、 100
了 100
是 100
年 100
) 100
( 100
/ 100
对 100
, 100
委员会 100
月 100
与 100
第 100
中 100
并 100
我 100
为 100
问题 100
将 100
国家 100
》 100
《 100
- 100
有 100
； 100
会议 100
他 100
： 100
" 100
日 100
一个 100
联合国 100
我们 100
不 100
或 100
发展 100
报告 100
其 100
国际 100
你 100
提供 100
人 100
到 100
上 100
工作 100
（ 100
） 100
以 100
组织 100
关于 100
1 100
进行 100
也 100
就 100
以及 100
这些 100
所 100
包括 100
这 100
通过 100
该 100
社会 100
方案 100
情况 100
其他 100
而 100
有关 100
政府 100
还 100
向 100
特别 100
方面 100
执行 100
地 100
都 100
机构 100
他们 100
2 100
被 100
决议 100
活动 100
号 100
及 100
3 100
没有 100
建议 100
所有 100
可 100
妇女 100
时 100
安全 100
行动 100
但 100
经济 100
会 100
项目 100
说 100
下 100
人权 100
公约 100
于 100
应 100
可以 100
需要 100
大会 100
根据 100
规定 100
区域 100
4 100
5 100
理事会 100
她 100
它 100
合作 100
提出 100
从 100
可能 100
个 100
决定 100
儿童 100
6 100
使 100
新 100
必须 100
代表 100
“ 100
支持 100
技术 100
10 100
已 100
来 100
由 100
A 100
12 100
影响 100
法律 100
权利 100
认为 100
各 100
” 100
政策 100
要 100
更 100
要求 100
7 100
一些 100
继续 100
促进 100
秘书长 100
系统 100
管理 100
目标 100
加强 100
采取 100
者 100
和平 100
措施 100
保护 100
条 100
本 100
服务 100
能力 100
使用 100
后 100
提交 100
确保 100
: 100
主要 100
内 100
% 100
计划 100
研究 100
把 100
缔约国 100
9 100
这种 100
作为 100
任何 100
重要 100
？ 100
努力 100
给 100
建立 100
注意 100
这个 100
已经 100
主席 100
等 100
如果 100
11 100
因此 100
段 100
多 100
8 100
请 100
资源 100
人员 100
草案 100
能 100
先生 100
性 100
审议 100
教育 100
文件 100
举行 100
一 100
实现 100
期间 100
这一 100
着 100
之间 100
· 100
信息 100
很 100
各国 100
因为 100
行为 100
最 100
地区 100
环境 100
成员 100
审查 100
基金 100
得到 100
实施 100
世界 100
领域 100
全球 100
援助 100
开展 100
增加 100
考虑 100
表示 100
中国 100
相关 100
自己 100
持续 100
获得 100
参与 100
战略 100
a 100
其中 100
一项 100
议程 100
代表团 100
有效 100
支助 100
协调 100
但是 100
公司 100
方法 100
作出 100
讨论 100
作用 100
程序 100
小组 100
及其 100
预算 100
正在 100
让 100
能够 100
处理 100
至 100
由于 100
国 100
一@@ 100
美国 100
里 100
政治 100
指出 100
工作人员 100
一种 100
资料 100
人民 100
用 100
中心 100
目前 100
许多 100
不@@ 100
开始 100
方式 100
它们 100
解决 100
提高 100
特派团 100
次 100
做 100
进一步 100
机制 100
前 100
任务 100
去 100
意见 100
事务 100
说明 100
秘书处 100
15 100
非洲 100
名 100
调查 100
培训 100
条约 100
参加 100
法 100
取得 100
减少 100
制定 100
评估 100
时间 100
确定 100
人口 100
发展中国家 100
原则 100
框架 100
又 100
30 100
同时 100
部门 100
b 100
进程 100
具有 100
间 100
各种 100
生活 100
好 100
而且 100
目的 100
希望 100
费用 100
同 100
这样 100
不是 100
部分 100
美元 100
关系 100
标准 100
强调 100
20 100
不同 100
工作组 100
文化 100
现在 100
利用 100
成为 100
以便 100
平等 100
分析 100
发言 100
应当 100
发生 100
制度 100
此外 100
应该 100
— 100
为了 100
2005 100
; 100
2008 100
C 100
适当 100
数据 100
存在 100
是否 100
地方 100
缔约方 100
对于 100
维持 100
接受 100
必要 100
基础 100
出 100
按照 100
2006 100
大 100
大@@ 100
会员国 100
造成 100
什么 100
得 100
想 100
设立 100
* 100
行政 100
产生 100
2010 100
? 100
最后 100
结果 100
投资 100
范围 100
机会 100
14 100
13 100
专家 100
全面 100
2009 100
那 100
进展 100
办事处 100
办法 100
款 100
过 100
消除 100
2007 100
受 100
不能 100
建设 100
如 100
家庭 100
责任 100
期 100
具体 100
受到 100
2004 100
司法 100
一次 100
帮助 100
承诺 100
负责 100
各项 100
18 100
就是 100
法院 100
协助 100
鼓励 100
16 100
并且 100
知道 100
即 100
条件 100
做法 100
资金 100
非 100
吗 100
安排 100
充分 100
区 100
共同 100
两个 100
用于 100
严重 100
如何 100
2011 100
性别 100
过程 100
市场 100
需 100
贸易 100
监测 100
这方面 100
咨询 100
涉及 100
人们 100
义务 100
事项 100
一切 100
尤其 100
议定书 100
则 100
形式 100
欢迎 100
企业 100
非政府 100
完成 100
部队 100
歧视 100
2000 100
2003 100
改革 100
犯罪 100
业务 100
基本 100
日至 100
21 100
见 100
17 100
冲突 100
以色列 100
们 100
办公室 100
比 100
那些 100
批准 100
挑战 100
之 100
2002 100
例如 100
当 100
中@@ 100
部 100
c 100
认识 100
出现 100
尽管 100
之后 100
适用 100
个人 100
自由 100
选举 100
2012 100
19 100
国内 100
31 100
作 100
控制 100
介绍 100
子 100
25 100
采用 100
无@@ 100
未 100
关切 100
武器 100
附件 100
难民 100
仍然 100
成果 100
以下 100
协定 100
2001 100
利益 100
或者 100
000 100
因 100
两年 100
关注 100
改善 100
生产 100
22 100
优先 100
仍 100
临时 100
． 100
化 100
[ 100
人道主义 100
直接 100
案件 100
时候 100
表明 100
评价 100
健康 100
非常 100
权 100
之前 100
社区 100
这项 100
以来 100
当局 100
一般 100
报告员 100
自 100
起 100
24 100
原因 100
增长 100
高 100
无法 100
23 100
虽然 100
然而 100
点 100
联合 100
稳定 100
立法 100
最近 100
暴力 100
独立 100
过去 100
现有 100
经 100
内容 100
不会 100
按 100
禁止 100
] 100
一直 100
履行 100
重申 100
防止 100
积极 100
B 100
经费 100
限制 100
分 100
1999 100
结构 100
2013 100
了解 100
安理会 100
状况 100
需求 100
恐怖主义 100
L 100
这是 100
因素 100
处 100
方 100
巴勒斯坦 100
发现 100
小@@ 100
导致 100
外 100
！ 100
风险 100
同意 100
一份 100
厅 100
监督 100
收到 100
水 100
综合 100
某些 100
另 100
材料 100
地位 100
打击 100
人类 100
土著 100
针对 100
产品 100
广泛 100
请求 100
上@@ 100
26 100
27 100
呼吁 100
斯 100
1998 100
E 100
结束 100
收入 100
审计 100
多@@ 100
选择 100
承认 100
小 100
您 100
高@@ 100
集团 100
论坛 100
领土 100
推动 100
纳入 100
实际 100
项 100
28 100
协商 100
全国 100
人@@ 100
规则 100
制订 100
面临 100
谈判 100
设计 100
表 100
警察 100
对话 100
扩大 100
指导 100
岁 100
保障 100
保证 100
事 100
联系 100
定期 100
军事 100
只有 100
类 100
条款 100
网络 100
欧洲 100
约 100
却 100
事件 100
规划 100
该国 100
总统 100
只 100
完全 100
来自 100
发达国家 100
宣言 100
再 100
违反 100
发挥 100
水@@ 100
有@@ 100
整个 100
学校 100
重点 100
法庭 100
财政 100
上述 100
遵守 100
此 100
协议 100
成功 100
较 100
威胁 100
占 100
长期 100
二 100
从而 100
记录 100
伊拉克 100
我国 100
一样 100
你们 100
29 100
加入 100
S 100
非法 100
预防 100
均 100
侵犯 100
正式 100
像 100
重新 100
之一 100
程度 100
明确 100
设备 100
员额 100
更加 100
经验 100
城市 100
大学 100
不断 100
d 100
还是 100
伙伴关系 100
当地 100
经常 100
土地 100
准备 100
成员国 100
家 100
符合 100
科学 100
改进 100
同样 100
确认 100
每个 100
拥有 100
合同 100
50 100
公民 100
应对 100
还有 100
水平 100
学生 100
保持 100
变化 100
千年 100
下列 100
人数 100
有助于 100
未来 100
量 100
达到 100
结论 100
感到 100
内部 100
才 100
普遍 100
一起 100
基于 100
银行 100
不过 100
旨在 100
一名 100
宪法 100
开发 100
做出 100
自@@ 100
恢复 100
法官 100
每 100
就业 100
运动 100
给予 100
空间 100
设施 100
带来 100
拉@@ 100
％ 100
5@@ 100
之@@ 100
很多 100
准则 100
尔 100
显示 100
民主 100
申请 100
群体 100
副 100
所述 100
分@@ 100
60 100
新@@ 100
解释 100
年度 100
编写 100
专业 100
倡议 100
知识 100
保健 100
阶段 100
本国 100
进入 100
女士 100
正 100
现象 100
改变 100
40 100
孩子 100
地@@ 100
日本 100
价值 100
指标 100
刑事 100
头 100
可@@ 100
工具 100
境内 100
落实 100
特 100
看 100
重大 100
保留 100
贩运 100
局势 100
资产 100
公共 100
应用 100
受害者 100
支付 100
两@@ 100
起来 100
缺乏 100
反映 100
官员 100
有些 100
举办 100
管制 100
看到 100
条例 100
危机 100
阿@@ 100
列入 100
德 100
率 100
实体 100
允许 100
回顾 100
下@@ 100
发@@ 100
宣传 100
艾滋病 100
马@@ 100
手段 100
拘留 100
7@@ 100
那么 100
国际法 100
称 100
下午 100
构成 100
这@@ 100
证明 100
宗教 100
反对 100
超过 100
大量 100
传统 100
数量 100
提到 100
贫穷 100
最大 100
力 100
1996 100
通知 100
享有 100
女性 100
式 100
1997 100
成立 100
危险 100
组成 100
以上 100
今天 100
农业 100
宣布 100
提议 100
满足 100
走 100
民间 100
加@@ 100
呢 100
尊重 100
调整 100
实行 100
一点 100
伙伴 100
达成 100
器 100
行动计划 100
核武器 100
后续 100
2014 100
机 100
文书 100
然后 100
统计 100
访问 100
酷刑 100
质量 100
基金会 100
只是 100
理由 100
信 100
补充 100
组 100
手 100
外@@ 100
一部分 100
协会 100
非正式 100
裁军 100
英语 100
所以 100
1994 100
万美元 100
困难 100
来说 100
关键 100
P 100
三 100
签署 100
无 100
登记 100
拉 100
授权 100
艾滋病毒 100
亿美元 100
意义 100
体 100
道 100
e 100
声明 100
支出 100
署 100
除 100
6@@ 100
单位 100
扩散 100
出口 100
吧 100
为此 100
特@@ 100
采购 100
通常 100
若干 100
克 100
财务 100
残疾人 100
三个 100
住 100
贡献 100
8@@ 100
领导 100
团 100
总 100
职能 100
权力 100
主任 100
编制 100
治疗 100
另外 100
出@@ 100
一定 100
长 100
各方 100
学习 100
1995 100
总部 100
曾 100
分配 100
地点 100
拟议 100
三@@ 100
森林 100
在内 100
今后 100
科 100
重@@ 100
低 100
模式 100
本@@ 100
重要性 100
属于 100
大多数 100
每年 100
印度 100
提案 100
第五 100
证据 100
如下 100
收集 100
更好 100
修订 100
节 100
心@@ 100
车 100
4@@ 100
亚洲 100
员 100
喜欢 100
学 100
尚未 100
度 100
观察员 100
成 100
价格 100
答复 100
一位 100
外国 100
青年 100
增强 100
西@@ 100
联盟 100
共和国 100
告诉 100
题为 100
移民 100
财产 100
拟订 100
生物 100
课程 100
从事 100
－ 100
有人 100
级 100
气候变化 100
首脑会议 100
议会 100
发 100
担任 100
苏丹 100
不要 100
局 100
阿富汗 100
天 100
海@@ 100
司 100
100 100
而言 100
再次 100
9@@ 100
毒品 100
创造 100
鉴于 100
交流 100
D 100
带 100
一致 100
Add 100
1993 100
工业 100
以前 100
其它 100
农村 100
估计 100
型 100
多边 100
如此 100
能源 100
时@@ 100
罪行 100
步骤 100
一级 100
专门 100
心 100
移徙 100
避免 100
基础设施 100
自愿 100
的话 100
战争 100
供 100
第二 100
寻求 100
加以 100
运输 100
比较 100
35 100
常驻 100
十@@ 100
特殊 100
宪章 100
加拿大 100
通信 100
据 100
欧洲联盟 100
至少 100
团体 100
体制 100
打@@ 100
甚至 100
同@@ 100
法国 100
相信 100
维护 100
她们 100
核心 100
损失 100
数 100
黎巴嫩 100
比例 100
斯@@ 100
公众 100
达 100
成本 100
行 100
债务 100
引起 100
前@@ 100
统一 100
内@@ 100
敦促 100
纲领 100
发表 100
迅速 100
最终 100
越来越 100
载 100
精神 100
45 100
语言 100
十分 100
一年 100
来源 100
线 100
公开 100
主题 100
第六 100
不仅 100
运作 100
观点 100
利 100
似乎 100
55 100
依照 100
公平 100
概念 100
纽约 100
00 100
57 100
商定 100
高级专员 100
才能 100
流离失所 100
最佳 100
几个 100
州 100
历史 100
理解 100
赔偿 100
那@@ 100
新闻 100
核准 100
爱 100
交易 100
第一 100
有权 100
33 100
召开 100
生 100
任命 100
公@@ 100
此类 100
真正 100
65 100
预期 100
32 100
不得 100
相@@ 100
开@@ 100
核 100
卡@@ 100
对@@ 100
承担 100
首先 100
58 100
定义 100
贸发 100
医疗 100
良好 100
性质 100
34 100
部署 100
计算 100
电@@ 100
东西 100
转@@ 100
罪 100
高级 100
检查 100
双方 100
日内瓦 100
粮食 100
预计 100
予以 100
除了 100
金融 100
i 100
传播 100
感谢 100
趋势 100
安@@ 100
表现 100
愿意 100
媒体 100
卫生 100
书 100
站 100
巴@@ 100
36 100
59 100
举措 100
指控 100
遭受 100
磋商 100
省 100
文 100
朋友 100
届 100
48 100
日期 100
费 100
62 100
所@@ 100
死亡 100
背景 100
这里 100
训练 100
分别 100
场 100
工人 100
十年 100
民族 100
商业 100
依据 100
网站 100
利@@ 100
索赔 100
职位 100
体系 100
天@@ 100
那个 100
61 100
事实 100
降低 100
位 100
随着 100
贫困 100
下降 100
64 100
长@@ 100
邀请 100
事情 100
平民 100
部长 100
办 100
香港 100
几乎 100
采取行动 100
职业 100
类似 100
全@@ 100
’ 100
辩论 100
37 100
实质性 100
面 100
案 100
国@@ 100
形成 100
53 100
很大 100
住房 100
开发署 100
两性 100
52 100
物质 100
入 100
法@@ 100
古巴 100
制 100
63 100
该@@ 100
德国 100
障碍 100
成@@ 100
当前 100
找到 100
详细 100
以@@ 100
探讨 100
钱 100
生效 100
发出 100
捐款 100
资助 100
54 100
指定 100
受@@ 100
疾病 100
列 100
行使 100
反 100
万@@ 100
日@@ 100
立即 100
主管 100
捐助 100
上诉 100
56 100
清单 100
损害 100
容易 100
尔@@ 100
派 100
决策 100
高级别 100
39 100
及时 100
那样 100
效率 100
公正 100
英国 100
明显 100
德@@ 100
66 100
与会者 100
应@@ 100
四@@ 100
讲习班 100
全部 100
最高 100
气 100
没 100
特定 100
四 100
这次 100
顾问 100
紧急 100
占领 100
身份 100
破坏 100
股 100
仅 100
不可 100
力量 100
律师 100
竞争 100
出席 100
一系列 100
海洋 100
起诉 100
门 100
年@@ 100
好@@ 100
少数 100
往往 100
各级 100
本身 100
队 100
私营部门 100
值 100
2015 100
足够 100
一般性 100
阿拉伯 100
电子 100
51 100
居民 100
致力于 100
图 100
上午 100
专家组 100
41 100
物 100
布@@ 100
出来 100
手@@ 100
语 100
反应 100
38 100
机关 100
名单 100
各@@ 100
专题 100
会议室 100
非@@ 100
比@@ 100
接触 100
美@@ 100
罗@@ 100
所作 100
至关重要 100
审判 100
份 100
47 100
拒绝 100
视为 100
49 100
适应 100
吃 100
光@@ 100
重视 100
而@@ 100
其@@ 100
修改 100
生@@ 100
且 100
赞赏 100
复杂 100
听 100
市 100
件 100
处于 100
药物 100
工程 100
领导人 100
经过 100
数字 100
夫 100
澳大利亚 100
联合王国 100
克@@ 100
平衡 100
42 100
那里 100
意味着 100
46 100
有限 100
生命 100
正@@ 100
以后 100
流@@ 100
加 100
大约 100
意识 100
人士 100
路 100
女孩 100
截至 100
国际公约 100
过@@ 100
索马里 100
44 100
世纪 100
小时 100
亚@@ 100
动 100
最新 100
离开 100
几@@ 100
67 100
南 100
二@@ 100
五@@ 100
此种 100
为什么 100
不足 100
人权委员会 100
金 100
文@@ 100
开发计划署 100
… 100
数目 100
地雷 100
总@@ 100
跟 100
科@@ 100
票 100
干事 100
任择 100
! 100
死 100
会@@ 100
开 100
1990 100
评论 100
南@@ 100
问 100
立场 100
监狱 100
外地 100
以外 100
一下 100
之外 100
巨大 100
如@@ 100
数额 100
即使 100
43 100
主@@ 100
用@@ 100
哈@@ 100
今年 100
待遇 100
觉得 100
电话 100
飞机 100
筹资 100
所涉 100
大规模 100
侵害 100
令 100
第一次 100
筹备 100
联邦 100
须 100
研究所 100
A@@ 100
委会 100
言 100
研讨会 100
我@@ 100
层 100
相互 100
停止 100
金@@ 100
68 100
专员 100
卢旺达 100
工作队 100
合理 100
救济 100
指 100
室 100
制裁 100
贷款 100
表决 100
纳 100
界 100
S@@ 100
70 100
基@@ 100
信托 100
货物 100
花 100
商品 100
欧盟 100
也许 100
便 100
理论 100
最好 100
随后 100
业 100
压力 100
设 100
第三 100
卡 100
俄罗斯联邦 100
入@@ 100
职责 100
武装冲突 100
巴西 100
父母 100
增进 100
母亲 100
种 100
网 100
老@@ 100
尼 100
面@@ 100
大部分 100
食物 100
墨西哥 100
清楚 100
f 100
唯一 100
用户 100
日益 100
令人 100
谁 100
加勒比 100
科索沃 100
攸关 100
平均 100
各个 100
打算 100
热@@ 100
1992 100
各自 100
万 100
年龄 100
多样性 100
技能 100
全体会议 100
最@@ 100
过渡 100
治理 100
延长 100
创新 100
多年 100
单@@ 100
男子 100
在@@ 100
来文 100
主义 100
在于 100
申诉 100
联@@ 100
' 100
供应 100
进 100
500 100
得@@ 100
风@@ 100
格@@ 100
而是 100
巴基斯坦 100
品 100
明@@ 100
遭到 100
官方 100
五 100
资格 100
享受 100
便利 100
反@@ 100
0@@ 100
转让 100
供资 100
北京 100
途径 100
光 100
B@@ 100
后果 100
是因为 100
预测 100
交@@ 100
集中 100
实际上 100
效果 100
信任 100
写 100
销售 100
未能 100
武装 100
修正 100
账户 100
边 100
诉讼 100
未@@ 100
大家 100
CN 100
维也纳 100
获取 100
时期 100
不再 100
类型 100
科威特 100
行@@ 100
波@@ 100
重建 100
77 100
80 100
启动 100
拉丁美洲 100
将会 100
态度 100
每@@ 100
米 100
规范 100
分发 100
平@@ 100
福利 100
流动 100
土耳其 100
方@@ 100
检察官 100
太平洋 100
复@@ 100
总是 100
开放 100
攻击 100
当然 100
话 100
提及 100
掉 100
埃及 100
法治 100
里@@ 100
相同 100
更新 100
公布 100
花@@ 100
任 100
回@@ 100
起@@ 100
事实上 100
深@@ 100
方向 100
普@@ 100
K@@ 100
意 100
低@@ 100
气@@ 100
一天 100
太@@ 100
当时 100
为@@ 100
萨@@ 100
对此 100
放在 100
收@@ 100
南非 100
全 100
本文 100
用途 100
执行局 100
马 100
初步 100
变得 100
人力资源 100
协调员 100
安保 100
女 100
劳动 100
尼@@ 100
200 100
后@@ 100
一条 100
声 100
种族歧视 100
劳工 100
外部 100
当@@ 100
道路 100
叫 100
额 100
私人 100
虐待 100
刚果民主共和国 100
怎么 100
看法 100
查明 100
动@@ 100
报道 100
数据库 100
2@@ 100
90 100
包含 100
机@@ 100
西 100
提请 100
指南 100
G@@ 100
制造 100
判决 100
性@@ 100
既 100
状态 100
提@@ 100
3@@ 100
转移 100
正如 100
工发 100
专@@ 100
合 100
行业 100
起草 100
利比里亚 100
表达 100
助理 100
org 100
灾害 100
海地 100
国民 100
名@@ 100
价 100
来@@ 100
残疾 100
我要 100
每天 100
自然 100
不利 100
返回 100
投入 100
核查 100
学@@ 100
和@@ 100
期限 100
剂 100
采取措施 100
组成部分 100
特点 100
M@@ 100
头@@ 100
相当 100
近 100
69 100
观察 100
合@@ 100
回 100
主席团 100
简单 100
使得 100
军 100
意大利 100
管 100
总额 100
功能 100
额外 100
1991 100
模型 100
依然 100
袭击 100
病 100
化学品 100
达@@ 100
医生 100
沙@@ 100
伊@@ 100
这么 100
总体 100
放@@ 100
通报 100
心理 100
汽车 100
展开 100
之中 100
精@@ 100
候选人 100
只要 100
卫星 100
显然 100
全世界 100
西班牙 100
维@@ 100
重 100
太 100
核@@ 100
订正 100
驻 100
国家一级 100
体@@ 100
客户 100
双边 100
试图 100
旅行 100
上升 100
视 100
从@@ 100
差异 100
相对 100
可能性 100
结合 100
养 100
错误 100
词 100
附属 100
最低 100
o 100
难民署 100
子女 100
议事规则 100
国际@@ 100
白@@ 100
流 100
主 100
片 100
剥夺 100
种族 100
回答 100
哪些 100
医院 100
有时 100
酌情 100
维和 100
数@@ 100
T@@ 100
北@@ 100
纳@@ 100
调@@ 100
事务部 100
g 100
正常 100
瑞士 100
分享 100
主流 100
山@@ 100
父亲 100
指示 100
所有人 100
裁决 100
别 100
试验 100
语文 100
暴力行为 100
种族主义 100
球 100
亚 100
发布 100
妇女地位 100
美利坚合众国 100
全球化 100
俄罗斯 100
经营 100
岛 100
达尔富尔 100
奥@@ 100
透明度 100
相应 100
中期 100
强迫 100
更为 100
作@@ 100
规模 100
多数 100
男女 100
摘要 100
载有 100
之下 100
保@@ 100
家@@ 100
争取 100
干预 100
快 100
污染 100
现金 100
差距 100
一家 100
I 100
美 100
接@@ 100
进步 100
中东 100
化@@ 100
有利于 100
雷@@ 100
秘书 100
表@@ 100
特设 100
防@@ 100
常设 100
山 100
坚持 100
正确 100
主持 100
进口 100
资本 100
解决办法 100
台 100
协作 100
集体 100
变@@ 100
原@@ 100
工程处 100
P@@ 100
现行 100
船 100
赞扬 100
证书 100
姆 100
逮捕 100
图@@ 100
多少 100
板 100
身@@ 100
雇员 100
章 100
面前 100
打 100
边界 100
女童 100
主权 100
感 100
食品 100
教师 100
大使 100
成就 100
中央 100
石油 100
更@@ 100
原子能 100
叙利亚 100
外交 100
啊 100
法令 100
决心 100
津贴 100
只能 100
少 100
基地 100
极@@ 100
次级 100
执法 100
颁布 100
感觉 100
工@@ 100
并非 100
剥削 100
气候 100
建筑 100
儿 100
高兴 100
经历 100
空@@ 100
通@@ 100
男性 100
测试 100
所载 100
容忍 100
科特迪瓦 100
身 100
D@@ 100
以期 100
明 100
车辆 100
定@@ 100
伊朗 100
六@@ 100
保险 100
民众 100
后勤 100
废物 100
法案 100
担保 100
风 100
补救 100
L@@ 100
地球 100
身体 100
瓦@@ 100
第四 100
取消 100
军队 100
系 100
格 100
担心 100
女@@ 100
失@@ 100
去年 100
分类 100
古@@ 100
拟定 100
世界银行 100
购买 100
若 100
现实 100
75 100
工 100
双@@ 100
开支 100
有所 100
货币 100
确实 100
预防犯罪 100
合法 100
相比 100
两 100
相 100
任期 100
尽可能 100
买 100
潜在 100
「 100
」 100
第二次 100
道德 100
先@@ 100
证 100
派遣 100
居住 100
N@@ 100
单 100
层面 100
共识 100
他@@ 100
人力 100
失踪 100
减轻 100
院 100
非洲联盟 100
肯定 100
定 100
投票 100
软件 100
处罚 100
东@@ 100
防治 100
阻碍 100
遇到 100
切实 100
速度 100
页 100
根本 100
色 100
单独 100
环境署 100
逐步 100
合并 100
上文 100
平台 100
多个 100
特征 100
干@@ 100
仲裁 100
弹药 100
除非 100
阁下 100
付款 100
用来 100
体现 100
挪威 100
经@@ 100
筹措 100
房 100
业绩 100
共 100
印度尼西亚 100
结@@ 100
赋予 100
布 100
严格 100
抗@@ 100
车@@ 100
H@@ 100
免费 100
推@@ 100
替代 100
制@@ 100
即将 100
证实 100
学院 100
青少年 100
条@@ 100
口@@ 100
高度 100
火@@ 100
密切 100
工资 100
案文 100
民@@ 100
装置 100
因而 100
四个 100
现代 100
库 100
诸如 100
出版物 100
商 100
找 100
比赛 100
满意 100
口 100
元 100
基 100
制止 100
透明 100
续 100
实践 100
巴 100
合作伙伴 100
面对 100
300 100
神 100
南部 100
un 100
干 100
得以 100
阿根廷 100
E@@ 100
罗 100
象 100
年代 100
动物 100
路@@ 100
爱@@ 100
争端 100
预@@ 100
期@@ 100
托@@ 100
思想 100
士 100
公务员 100
进@@ 100
国籍 100
F 100
家庭暴力 100
属 100
www 100
类别 100
申诉人 100
法规 100
年底 100
适合 100
第一个 100
h 100
伤害 100
惩罚 100
清@@ 100
荷兰 100
第一@@ 100
燃料 100
储存 100
再@@ 100
病@@ 100
第十@@ 100
波斯尼亚 100
k@@ 100
税 100
人道主义法 100
门@@ 100
监管 100
具 100
向@@ 100
油 100
东帝汶 100
R@@ 100
别人 100
快速 100
调动 100
选 100
赞同 100
消费 100
要@@ 100
推广 100
看@@ 100
油@@ 100
六 100
代@@ 100
大楼 100
传@@ 100
高专 100
吁请 100
离@@ 100
刑法 100
近@@ 100
排放 100
难 100
推进 100
代理 100
塞拉利昂 100
对象 100
常常 100
无论 100
装@@ 100
自治 100
寻找 100
真@@ 100
效力 100
已@@ 100
一旦 100
议题 100
团结 100
出版 100
危害 100
报 100
送 100
后来 100
F@@ 100
取决于 100
自身 100
半@@ 100
命令 100
装备 100
塔@@ 100
乌克兰 100
以往 100
制作 100
实@@ 100
1@@ 100
不到 100
北 100
投@@ 100
微@@ 100
阐述 100
小岛屿 100
释放 100
军@@ 100
认可 100
位置 100
林 100
师 100
落 100
突出 100
融资 100
儿子 100
位于 100
讲 100
可靠 100
角度 100
共同体 100
跨国 100
估计数 100
促使 100
想要 100
成绩 100
附近 100
红@@ 100
分子 100
瑞典 100
谴责 100
反恐 100
时代 100
报@@ 100
永远 100
几年 100
强烈 100
曾经 100
证人 100
下来 100
男人 100
圣@@ 100
哥伦比亚 100
同一 100
咨 100
场所 100
神@@ 100
皮@@ 100
运行 100
该项 100
新西兰 100
教@@ 100
电 100
可是 100
说@@ 100
G 100
回应 100
情@@ 100
很@@ 100
并@@ 100
款项 100
埃塞俄比亚 100
例子 100
记者 100
塔 100
形 100
妨碍 100
更大 100
能@@ 100
例 100
巩固 100
米@@ 100
差 100
72 100
示范 100
未经 100
直到 100
海 100
热 100
失去 100
火 100
手册 100
贝@@ 100
鱼 100
星期 100
勒 100
犯 100
普通 100
自然资源 100
放弃 100
促请 100
审理 100
涵盖 100
连@@ 100
概述 100
混合 100
依赖 100
武装部队 100
女人 100
排@@ 100
布隆迪 100
城 100
还要 100
值得 100
子@@ 100
整体 100
先 100
吉@@ 100
融入 100
腐败 100
职务 100
党 100
首次 100
摩洛哥 100
力@@ 100
显著 100
负担 100
外层空间 100
确立 100
专门机构 100
加沙 100
斗争 100
信@@ 100
族裔 100
吸引 100
荒漠化 100
点@@ 100
参考 100
尼日利亚 100
架 100
捐助者 100
河 100
修正案 100
物品 100
婚姻 100
感染 100
一套 100
某 100
投资者 100
71 100
10@@ 100
总理 100
全体 100
标@@ 100
死亡率 100
质 100
事@@ 100
取 100
意愿 100
怎样 100
增@@ 100
无核武器 100
权@@ 100
一体化 100
真的 100
细则 100
黑@@ 100
调 100
声称 100
别@@ 100
书面 100
效益 100
受理 100
生殖 100
教 100
C@@ 100
拿 100
恶化 100
理@@ 100
事业 100
三年 100
些 100
联合会 100
持久 100
一道 100
旅游 100
往 100
18@@ 100
公共部门 100
庇护 100
希@@ 100
政治权利 100
联 100
包 100
变成 100
描述 100
洛@@ 100
塞@@ 100
菲律宾 100
劳动力 100
脆弱 100
产出 100
消费者 100
争议 100
信贷 100
远@@ 100
死刑 100
难以 100
首@@ 100
共计 100
员工 100
座 100
五年 100
切@@ 100
中有 100
分摊 100
直@@ 100
信息技术 100
源 100
具备 100
理 100
不得不 100
亦 100
期望 100
教授 100
衡量 100
细胞 100
改@@ 100
注重 100
七@@ 100
尽快 100
加快 100
终止 100
尽 100
受害人 100
管理局 100
族 100
南斯拉夫 100
痛苦 100
莫@@ 100
林@@ 100
迪@@ 100
泰国 100
交换 100
百@@ 100
期待 100
相反 100
社会@@ 100
利比亚 100
实验 100
血@@ 100
仅仅 100
通 100
电影 100
难@@ 100
行预 100
八@@ 100
第三@@ 100
获 100
转 100
产 100
73 100
74 100
准确 100
两种 100
英文 100
年轻 100
修@@ 100
会计 100
发起 100
兰@@ 100
伊 100
乌干达 100
澄清 100
讨论会 100
亲@@ 100
有着 100
过境 100
76 100
空缺 100
设法 100
自我 100
运用 100
并未 100
管辖权 100
很快 100
图书馆 100
列出 100
建造 100
埃@@ 100
取@@ 100
定于 100
阿 100
本次 100
整@@ 100
特性 100
清洁 100
征聘 100
情报 100
潜力 100
周期 100
博@@ 100
此@@ 100
监禁 100
老 100
轻@@ 100
留@@ 100
供应商 100
最初 100
核裁军 100
阿尔及利亚 100
供@@ 100
实地 100
部长级 100
正是 100
设想 100
界定 100
规划署 100
引渡 100
苏@@ 100
简要 100
强 100
装 100
声音 100
看见 100
很少 100
年度报告 100
艺术 100
1.@@ 100
解 100
和解 100
薪金 100
已有 100
雇主 100
怀疑 100
版 100
听到 100
机场 100
意思 100
经委会 100
木@@ 100
恤金 100
患者 100
低于 100
商@@ 100
宗旨 100
操作 100
格鲁吉亚 100
关心 100
与其 100
称为 100
变 100
就此 100
管辖 100
400 100
听取 100
妻子 100
重返 100
赞成 100
㈠ 100
想法 100
询问 100
减@@ 100
照顾 100
共@@ 100
教学 100
推迟 100
任意 100
越@@ 100
好处 100
飞@@ 100
月份 100
常@@ 100
情 100
伤 100
阻止 100
关@@ 100
编@@ 100
药 100
托 100
应急 100
海关 100
待 100
掌握 100
人居 100
一场 100
认真 100
老年人 100
远 100
看来 100
共有 100
被告 100
习惯 100
自动 100
两次 100
发言者 100
彻底 100
提供援助 100
管@@ 100
㈡ 100
克服 100
肯尼亚 100
第三次 100
连 100
角色 100
目 100
少数民族 100
黑塞哥维那 100
对待 100
拨款 100
谨 100
有利 100
前往 100
讲话 100
管理@@ 100
设置 100
注册 100
兴趣 100
读 100
满 100
观察团 100
家人 100
金融机构 100
驱逐 100
树 100
议员 100
交 100
或@@ 100
阿塞拜疆 100
消息 100
奇 100
十 100
85 100
气体 100
活@@ 100
飞行 100
许可 100
完善 100
愿 100
电脑 100
强@@ 100
指数 100
交通 100
重复 100
部@@ 100
然 100
第三十@@ 100
教科文组织 100
规约 100
财务报表 100
78 100
西非 100
豁免 100
职 100
丈夫 100
没@@ 100
组@@ 100
600 100
超@@ 100
优势 100
罗马 100
华@@ 100
一半 100
马来西亚 100
字 100
95 100
受益 100
刚果 100
程 100
因@@ 100
希腊 100
谈 100
服务@@ 100
与此同时 100
奥地利 100
塞浦路斯 100
谅解 100
伊斯兰 100
选@@ 100
应付 100
减贫 100
AC 100
所谓 100
行政@@ 100
波 100
电子@@ 100
观念 100
块 100
提名 100
欧元 100
原 100
厄立特里亚 100
裁军谈判 100
聚@@ 100
游@@ 100
销毁 100
通讯 100
百分比 100
79 100
口头 100
还@@ 100
创建 100
计算机 100
两名 100
81 100
丰富 100
委员 100
98 100
检测 100
讲@@ 100
主张 100
解@@ 100
梅@@ 100
句 100
北部 100
现@@ 100
许可证 100
倒 100
多种 100
护理 100
84 100
压@@ 100
或许 100
战@@ 100
总数 100
外勤 100
物@@ 100
新闻部 100
惯例 100
素 100
公民权利 100
要素 100
安装 100
大型 100
用品 100
兵 100
82 100
真 100
智利 100
建设性 100
指@@ 100
回到 100
案例 100
出于 100
逐渐 100
互动 100
安 100
世界各地 100
独@@ 100
第二@@ 100
画 100
将来 100
收益 100
森 100
敏感 100
96 100
补偿 100
83 100
伊朗伊斯兰共和国 100
五个 100
失败 100
走@@ 100
穿 100
索 100
经济@@ 100
书@@ 100
深入 100
故事 100
论 100
前景 100
千@@ 100
排除 100
削减 100
提醒 100
缅甸 100
密切合作 100
上帝 100
恩 100
作业 100
或是 100
事故 100
被@@ 100
套 100
运 100
联络 100
取代 100
我会 100
试@@ 100
东道国 100
本届 100
al 100
他人 100
加上 100
可行 100
翻译 100
随@@ 100
二十@@ 100
早 100
空 100
外国人 100
事先 100
冷@@ 100
M 100
停@@ 100
立@@ 100
巴黎 100
不够 100
诉 100
补贴 100
初级 100
带@@ 100
一只 100
发放 100
想@@ 100
士兵 100
班@@ 100
93 100
阿拉伯叙利亚共和国 100
告知 100
这位 100
备忘录 100
99 100
黄@@ 100
出生 100
这份 100
运@@ 100
伦敦 100
培养 100
名字 100
领@@ 100
探@@ 100
跑 100
技术@@ 100
当选 100
状 100
偏@@ 100
加速 100
会上 100
致@@ 100
遵循 100
查@@ 100
早期 100
经济体 100
方便 100
协商一致 100
88 100
尊严 100
警@@ 100
伯@@ 100
存 100
工会 100
名义 100
否则 100
亿 100
电视 100
性能 100
失业 100
农民 100
靠 100
备选 100
结婚 100
迪 100
音乐 100
科技 100
错 100
主动 100
J@@ 100
每月 100
看看 100
温@@ 100
情形 100
印发 100
望 100
厂 100
短@@ 100
列@@ 100
索@@ 100
感@@ 100
一件 100
比如 100
英@@ 100
出售 100
食 100
分布 100
节@@ 100
港 100
毛@@ 100
大韩民国 100
库@@ 100
导言 100
保存 100
完整 100
秩序 100
限度 100
陈述 100
星 100
由@@ 100
缺少 100
九@@ 100
政党 100
短期 100
丹麦 100
士@@ 100
92 100
近东 100
考试 100
粮农组织 100
营养 100
衣服 100
听@@ 100
雷 100
文章 100
加剧 100
渔业 100
王@@ 100
有用 100
兰 100
测量 100
病人 100
十一届 100
死@@ 100
年轻人 100
眼睛 100
班 100
端 100
囚犯 100
紧张 100
尽@@ 100
做@@ 100
O@@ 100
人人 100
轮 100
86 100
方针 100
就@@ 100
信心 100
不论 100
约旦 100
击 100
放 100
背@@ 100
酸 100
人格 100
张 100
料 100
97 100
生态系统 100
农@@ 100
发射 100
息 100
91 100
货@@ 100
分钟 100
19@@ 100
k 100
盘 100
萨 100
明白 100
卖淫 100
色@@ 100
见@@ 100
孟加拉国 100
及@@ 100
归@@ 100
于是 100
波兰 100
名额 100
假 100
各类 100
克罗地亚 100
於 100
赛 100
暂停 100
美国@@ 100
来看 100
警方 100
第四次 100
角 100
营 100
独特 100
男孩 100
国际法庭 100
楼 100
顿 100
最高法院 100
笑 100
费@@ 100
滥用 100
87 100
现 100
求@@ 100
转变 100
广告 100
积极参与 100
碳 100
绝对 100
照@@ 100
赛@@ 100
奖 100
概算 100
杀 100
白俄罗斯 100
安哥拉 100
内罗毕 100
诺@@ 100
离 100
理想 100
某种 100
常 100
l 100
算 100
为期 100
落@@ 100
设在 100
金属 100
产业 100
安置 100
名称 100
互联网 100
快乐 100
施@@ 100
莱@@ 100
策略 100
房间 100
各地 100
降@@ 100
化学 100
乌@@ 100
富@@ 100
目录 100
缔结 100
特遣队 100
驻地 100
芬兰 100
审 100
移交 100
考@@ 100
西亚 100
职等 100
u 100
满@@ 100
任何人 100
W@@ 100
福@@ 100
代 100
限 100
89 100
症 100
94 100
获悉 100
800 100
汇编 100
推行 100
基准 100
自然灾害 100
随时 100
近年来 100
东 100
举@@ 100
不久 100
雇用 100
不管 100
房子 100
密@@ 100
首席 100
康复 100
有害 100
弗@@ 100
民 100
始终 100
病毒 100
只@@ 100
感兴趣 100
石@@ 100
组合 100
铁@@ 100
体育 100
引@@ 100
以此 100
华 100
身上 100
妈妈 100
充足 100
形势 100
意@@ 100
晚上 100
志愿人员 100
洗@@ 100
当事人 100
生存 100
集 100
业@@ 100
婴儿 100
曼 100
世@@ 100
恐怖 100
完 100
河@@ 100
味 100
13@@ 100
突尼斯 100
废除 100
可持续性 100
秘鲁 100
主办 100
强化 100
in 100
计 100
汇率 100
纪念 100
药@@ 100
汞 100
交付 100
配置 100
文本 100
多次 100
连接 100
下面 100
第二个 100
鲁@@ 100
造@@ 100
金融@@ 100
求 100
战 100
毁灭性 100
改为 100
Rev 100
分庭 100
恩@@ 100
资源管理 100
等@@ 100
渠道 100
n 100
政@@ 100
劳@@ 100
支援 100
认定 100
约束力 100
得出 100
着手 100
15@@ 100
据称 100
格式 100
连续 100
等待 100
夜 100
耶和华 100
会计准则 100
变革 100
比率 100
伦 100
帮 100
货 100
养@@ 100
裁定 100
负责人 100
至于 100
工艺 100
信仰 100
事态 100
必@@ 100
坚定 100
急@@ 100
字@@ 100
道@@ 100
即@@ 100
提升 100
国外 100
植物 100
科学家 100
比利时 100
接近 100
时间表 100
环@@ 100
上海 100
邻国 100
石 100
调解 100
融合 100
突然 100
t 100
投诉 100
关闭 100
到@@ 100
加工 100
附加 100
注 100
扩展 100
危地马拉 100
后者 100
另一方面 100
柬埔寨 100
星期一 100
问责制 100
本人 100
V@@ 100
不应 100
结 100
管理人员 100
觉 100
总结 100
游戏 100
私营 100
星期五 100
网@@ 100
专门知识 100
其他人 100
缺陷 100
课 100
马里 100
如今 100
杰@@ 100
周 100
签名 100
海外 100
小型 100
动态 100
国际贸易 100
表格 100
丝 100
的确 100
处境 100
R 100
青@@ 100
建@@ 100
绿色 100
地震 100
语@@ 100
内陆 100
声@@ 100
节目 100
复员 100
关联 100
何种 100
先前 100
0.@@ 100
产@@ 100
根 100
0 100
灵活 100
董事会 100
请@@ 100
核定 100
国际法院 100
参@@ 100
绝@@ 100
移动 100
极大 100
协同 100
空气 100
土@@ 100
集@@ 100
行政当局 100
持有 100
塞 100
拟 100
一国 100
知识产权 100
知 100
眼 100
依靠 100
负 100
瓦 100
配合 100
尼泊尔 100
查 100
脱@@ 100
回来 100
帕@@ 100
效应 100
政治@@ 100
斯里兰卡 100
表面 100
间接 100
m 100
面积 100
退休 100
胡@@ 100
余额 100
包@@ 100
现状 100
700 100
d@@ 100
共享 100
学会 100
老师 100
七 100
轮@@ 100
白 100
速 100
皮 100
y@@ 100
追@@ 100
新加坡 100
招@@ 100
旧 100
支@@ 100
穷人 100
繁荣 100
美洲 100
爆炸 100
参数 100
于@@ 100
下去 100
早@@ 100
推出 100
H 100
正义 100
探索 100
房屋 100
14@@ 100
沉@@ 100
矿@@ 100
性暴力 100
中国政府 100
食@@ 100
卷 100
兼 100
发言人 100
海洋法 100
脑@@ 100
四年 100
纲要 100
Z@@ 100
文明 100
任@@ 100
男@@ 100
南南合作 100
强奸 100
缓解 100
反腐败 100
按@@ 100
居 100
贸易法 100
突@@ 100
照 100
企图 100
以为 100
委内瑞拉 100
不人道 100
地带 100
狗 100
退@@ 100
坚决 100
区别 100
寄@@ 100
采@@ 100
s 100
帐户 100
做到 100
简@@ 100
高于 100
消@@ 100
看起来 100
幸福 100
村 100
眼@@ 100
国务院 100
武力 100
有罪 100
一方面 100
西方 100
视@@ 100
细@@ 100
财富 100
首长 100
著 100
塞尔维亚 100
载于 100
上空 100
召集 100
当中 100
i@@ 100
那种 100
信号 100
初@@ 100
秘密 100
受伤 100
各位 100
巴勒斯坦人 100
厄瓜多尔 100
单方面 100
法定 100
世 100
深 100
拖延 100
建 100
排雷 100
群 100
周围 100
量@@ 100
删除 100
伤@@ 100
极 100
合适 100
付 100
有力 100
极为 100
药品 100
有益 100
遗憾 100
2.@@ 100
世界@@ 100
汇报 100
转型 100
压 100
金额 100
警告 100
个别 100
社会保障 100
折@@ 100
伦@@ 100
步@@ 100
此项 100
签订 100
负债 100
跟踪 100
单一 100
偿还 100
不想 100
写@@ 100
恶@@ 100
SR 100
说法 100
八 100
活 100
强大 100
晚 100
藏 100
倍 100
守则 100
冲@@ 100
越南 100
军事@@ 100
暴@@ 100
罪犯 100
提 100
可用 100
牌 100
凯@@ 100
雅@@ 100
血 100
标志 100
T 100
遣返 100
法语 100
联合国开发计划署 100
来到 100
数据@@ 100
零@@ 100
标 100
照片 100
开幕 100
愿望 100
这场 100
爱尔兰 100
批评 100
120 100
援助团 100
国别 100
衣 100
审评 100
作品 100
地理 100
之内 100
充满 100
问@@ 100
循环 100
级别 100
散@@ 100
固定 100
客@@ 100
极端 100
必要性 100
丧失 100
转递 100
被迫 100
模@@ 100
副@@ 100
何@@ 100
沟通 100
半 100
两项 100
坐在 100
工厂 100
绩效 100
处@@ 100
配@@ 100
核可 100
出去 100
能否 100
个@@ 100
自从 100
a@@ 100
互@@ 100
上面 100
订立 100
处置 100
经理 100
某个 100
竞争力 100
摊款 100
买@@ 100
边境 100
所列 100
实质 100
奇@@ 100
订@@ 100
简化 100
房@@ 100
协调一致 100
残忍 100
网上 100
什 100
致 100
易 100
导@@ 100
另@@ 100
诊断 100
说话 100
备@@ 100
哪 100
步 100
日起 100
领空 100
香@@ 100
社 100
分散 100
持 100
女儿 100
披露 100
分列 100
大大 100
成效 100
谢@@ 100
平 100
编 100
视察 100
夫人 100
怀孕 100
前提 100
实 100
命 100
强调指出 100
212 100
外交部长 100
现场 100
处决 100
现代化 100
第一届 100
还应 100
这类 100
假设 100
空中 100
京都 100
公里 100
动力 100
酒 100
刺激 100
小学 100
手术 100
利率 100
含 100
亚美尼亚 100
异@@ 100
维修 100
着@@ 100
立 100
葡萄牙 100
短 100
所在 100
应有 100
紧急情况 100
轻武器 100
射@@ 100
倒@@ 100
人群 100
就业机会 100
很难 100
时刻 100
统计数据 100
众多 100
时限 100
甲@@ 100
阅读 100
例外 100
卫生@@ 100
所属 100
变动 100
明天 100
质疑 100
仇外 100
样 100
相互@@ 100
外交部 100
确@@ 100
默@@ 100
任职 100
诺 100
大幅 100
职权范围 100
暂时 100
塞内加尔 100
终了 100
到达 100
草 100
征@@ 100
1989 100
过度 100
引发 100
使@@ 100
记@@ 100
工作者 100
接 100
张@@ 100
不妨 100
越 100
店 100
星期四 100
线@@ 100
识别 100
150 100
减 100
加纳 100
快@@ 100
其余 100
记 100
继承 100
兹 100
地址 100
假@@ 100
一步 100
冰@@ 100
北爱尔兰 100
解决方案 100
查阅 100
有机 100
汇@@ 100
问责 100
区域合作 100
多样化 100
艾@@ 100
计@@ 100
助@@ 100
照料 100
台@@ 100
收 100
这儿 100
为止 100
县 100
中非共和国 100
物资 100
法律援助 100
抽@@ 100
净 100
脚 100
开会 100
杜@@ 100
领袖 100
档案 100
兄弟 100
算法 100
世贸组织 100
预算外 100
r 100
地域 100
尝试 100
义 100
十五届 100
其实 100
一张 100
破产 100
下文 100
现已 100
威@@ 100
留下 100
印@@ 100
导弹 100
断@@ 100
选出 100
索赔人 100
领取 100
东部 100
I@@ 100
哈 100
公路 100
U@@ 100
迄今 100
倾向 100
别的 100
展示 100
利润 100
消耗 100
捐助国 100
规章 100
星期二 100
势 100
升级 100
宗 100
麦@@ 100
监察员 100
约翰 100
有辱 100
规@@ 100
粮食安全 100
务 100
犯下 100
汉@@ 100
每次 100
入侵 100
杀害 100
广@@ 100
一方 100
有限公司 100
本地 100
作者 100
谈到 100
乌拉圭 100
哥斯达黎加 100
中间 100
税收 100
沙特阿拉伯 100
民事 100
着重 100
响应 100
禁@@ 100
罗马尼亚 100
贩卖 100
$ 100
不幸 100
质@@ 100
佩@@ 100
左右 100
航空 100
吨 100
库存 100
N 100
毁 100
非殖民化 100
灾难 100
凡 100
床 100
解除武装 100
坏 100
馆 100
促成 100
吸@@ 100
散 100
土 100
王 100
记得 100
音@@ 100
术 100
破@@ 100
广播 100
充@@ 100
常会 100
制品 100
轨道 100
距离 100
阐明 100
补@@ 100
军备 100
国际标准 100
Al 100
咨询服务 100
有效性 100
观 100
男女平等 100
乍得 100
牛@@ 100
星期三 100
宝贵 100
行事 100
含有 100
朝鲜民主主义人民共和国 100
简报 100
参照 100
根源 100
z@@ 100
定罪 100
合格 100
穆@@ 100
检验 100
支 100
900 100
17@@ 100
包容性 100
区分 100
好像 100
○ 100
箱 100
排 100
博士 100
校@@ 100
纪律 100
没收 100
生态 100
就要 100
追求 100
温室 100
经验教训 100
官 100
形@@ 100
联刚 100
第二届 100
烟@@ 100
证券 100
奥运会 100
s@@ 100
灯 100
赫@@ 100
较@@ 100
加大 100
朝鲜 100
安全@@ 100
服 100
查询 100
信通 100
干旱 100
3.@@ 100
饥饿 100
思考 100
交给 100
朝 100
蒙@@ 100
物体 100
份额 100
依法 100
至今 100
弱 100
an 100
> 100
草@@ 100
彼此 100
总干事 100
１ 100
务@@ 100
登@@ 100
周@@ 100
净额 100
是从 100
击@@ 100
关 100
刚 100
天气 100
区@@ 100
私@@ 100
南方 100
脚@@ 100
思@@ 100
真实 100
当事方 100
创@@ 100
邮@@ 100
安全部队 100
12@@ 100
海上 100
等等 100
所说 100
同事 100
清 100
资@@ 100
公共@@ 100
股@@ 100
滑@@ 100
在线 100
发行 100
细节 100
家里 100
列为 100
易@@ 100
清除 100
言@@ 100
定为 100
从未 100
内部监督 100
司@@ 100
日子 100
救@@ 100
选民 100
侵略 100
肉 100
进度 100
导 100
e@@ 100
忽视 100
奥巴马 100
赢得 100
万人 100
款@@ 100
有点 100
因特网 100
笔 100
打开 100
标题 100
岛屿 100
底 100
韩国 100
h@@ 100
泰@@ 100
麻@@ 100
除@@ 100
105 100
换@@ 100
最为 100
里面 100
实验室 100
革命 100
储@@ 100
迟@@ 100
差别 100
发展权 100
优@@ 100
铭记 100
109 100
庆祝 100
勒@@ 100
切 100
星@@ 100
萨尔瓦多 100
这件 100
扎@@ 100
分歧 100
由此 100
首要 100
对付 100
杀伤 100
存@@ 100
监察 100
该法 100
相当于 100
发给 100
利亚 100
膜 100
多哈 100
1988 100
必需 100
所得 100
医@@ 100
退化 100
穆斯林 100
毒@@ 100
喷@@ 100
对策 100
永久 100
捷克共和国 100
母@@ 100
政权 100
年初 100
编辑 100
祝贺 100
@ 100
爆发 100
情绪 100
作出贡献 100
常规武器 100
纸 100
提起 100
登记册 100
生产总值 100
动员 100
尼加拉瓜 100
治@@ 100
齐@@ 100
化学武器 100
纠正 100
所有权 100
流行 100
草坪 100
足 100
商业@@ 100
种种 100
回收 100
必要措施 100
哈萨克斯坦 100
办@@ 100
中学 100
新型 100
团队 100
奥 100
液 100
转交 100
匈牙利 100
职@@ 100
委 100
第二条 100
乱 100
j@@ 100
借@@ 100
乐@@ 100
主管部门 100
救 100
大不列颠 100
国家@@ 100
实例 100
态 100
一致性 100
与@@ 100
玻利维亚 100
制约 100
发了 100
战斗 100
公报 100
久 100
真是 100
图像 100
惊@@ 100
水资源 100
对外 100
害 100
伟大 100
疟疾 100
录@@ 100
演@@ 100
曼@@ 100
围@@ 100
音 100
超出 100
提高认识 100
衣@@ 100
客观 100
叶 100
覆盖 100
咨商 100
封锁 100
代表性 100
友 100
校 100
观@@ 100
一词 100
用作 100
但@@ 100
第二十@@ 100
资 100
代价 100
支柱 100
违背 100
贸易@@ 100
辅助 100
时至 100
蒂 100
尚 100
用以 100
美丽 100
野@@ 100
撤销 100
形象 100
十届 100
强有力 100
公认 100
０ 100
均衡 100
回家 100
判断 100
基因 100
迄今为止 100
大陆 100
待@@ 100
招募 100
异 100
少年 100
隐@@ 100
离职 100
‘ 100
港口 100
见到 100
会谈 100
卢@@ 100
j 100
全权 100
中国@@ 100
墙 100
金融危机 100
欧@@ 100
地面 100
倡导 100
一段 100
填@@ 100
观测 100
种植 100
排放量 100
接收 100
编列 100
船舶 100
独立性 100
先进 100
新闻@@ 100
迷@@ 100
换 100
迹象 100
学科 100
了@@ 100
每周 100
约束 100
顺@@ 100
也门 100
Y@@ 100
环境@@ 100
de 100
温度 100
优化 100
藏@@ 100
排斥 100
é 100
忙 100
流程 100
炎 100
盖 100
+ 100
喀麦隆 100
原来 100
席位 100
约@@ 100
办理 100
十三届 100
每日 100
管理系统 100
宏观经济 100
自决 100
入境 100
负有 100
认证 100
侧重于 100
课@@ 100
一贯 100
16@@ 100
判例 100
设定 100
脆弱性 100
做好 100
成长 100
关押 100
㈢ 100
答案 100
1980 100
承@@ 100
测@@ 100
钢@@ 100
申请人 100
台湾 100
终@@ 100
历@@ 100
条文 100
附 100
会晤 100
学家 100
高效 100
解除 100
卖@@ 100
那儿 100
股票 100
紧@@ 100
降 100
恐怖分子 100
足@@ 100
恰当 100
临床 100
顺利 100
钻石 100
963 100
网页 100
建筑@@ 100
产量 100
改造 100
接着 100
增长率 100
谢谢 100
家属 100
政 100
地图 100
限于 100
蒂@@ 100
亚太经社会 100
中华人民共和国 100
治 100
摆脱 100
一所 100
of 100
坐 100
日常 100
强制 100
糖 100
维 100
结论性 100
价值观 100
老人 100
高等教育 100
吸收 100
住@@ 100
卖 100
贵 100
送@@ 100
生物@@ 100
读@@ 100
那时 100
同等 100
患 100
禁运 100
决策者 100
环境保护 100
客 100
on 100
杂志 100
营地 100
污染物 100
20@@ 100
技术转让 100
t@@ 100
绑架 100
裁谈会 100
雨 100
剧@@ 100
培训班 100
虫 100
保安 100
为何 100
娜 100
月底 100
团@@ 100
终于 100
毛里求斯 100
尽早 100
太阳 100
薪酬 100
国内法 100
友好 100
不错 100
联合国大会 100
陷入 100
度@@ 100
服@@ 100
溴 100
发达 100
un@@ 100
报纸 100
论文 100
月@@ 100
批 100
吃@@ 100
移@@ 100
西部 100
辆 100
会费 100
片@@ 100
选定 100
户 100
本法 100
应由 100
树@@ 100
z 100
沿海 100
期内 100
玩 100
配偶 100
卡塔尔 100
闪@@ 100
直至 100
洗钱 100
激@@ 100
信息@@ 100
软@@ 100
4.@@ 100
n@@ 100
尼亚 100
李@@ 100
摇@@ 100
和平利用 100
信息系统 100
灵活性 100
赫 100
种类 100
削弱 100
睡 100
销 100
微 100
g@@ 100
较大 100
全球性 100
差@@ 100
球@@ 100
项@@ 100
若@@ 100
意外 100
版本 100
从来 100
未成年人 100
护@@ 100
参与者 100
算@@ 100
木 100
自由@@ 100
授予 100
往@@ 100
分离 100
尽量 100
毛 100
禁 100
源@@ 100
工作文件 100
包容 100
意图 100
强制性 100
枪 100
十二届 100
航@@ 100
en 100
公园 100
V 100
少@@ 100
分为 100
学术 100
脸 100
单元 100
矛盾 100
戴@@ 100
歧视性 100
牙买加 100
附@@ 100
人物 100
属@@ 100
偷@@ 100
国家元首 100
拟@@ 100
辐射 100
机遇 100
另有 100
作物 100
哪里 100
开办 100
医学 100
被占领土 100
顶 100
近期 100
一支 100
船@@ 100
升 100
缺@@ 100
旅游业 100
填补 100
遗@@ 100
想象 100
保险@@ 100
下次 100
增多 100
边@@ 100
脱离 100
不必 100
季度 100
保 100
... 100
霍@@ 100
过来 100
玛@@ 100
顾客 100
得不到 100
举 100
丽@@ 100
雪@@ 100
松@@ 100
言论自由 100
真相 100
指称 100
陆@@ 100
迫切需要 100
耐@@ 100
颜色 100
市@@ 100
遭 100
批@@ 100
控 100
电子邮件 100
复原 100
残@@ 100
调查结果 100
论述 100
周年 100
要是 100
龙 100
菲@@ 100
清理 100
西岸 100
初次 100
仅@@ 100
再生能源 100
逐@@ 100
行政部门 100
华盛顿 100
显@@ 100
计量 100
粉@@ 100
射 100
短缺 100
生计 100
含量 100
试点 100
共同努力 100
消失 100
后面 100
农村妇女 100
此次 100
亿@@ 100
绿@@ 100
城@@ 100
菜 100
输入 100
不了 100
更改 100
Corr 100
首都 100
卫生组织 100
该部 100
准 100
果@@ 100
债权人 100
缓慢 100
无论是 100
赶@@ 100
我谨 100
不仅仅 100
给出 100
去@@ 100
CP 100
政府首脑 100
苦 100
租@@ 100
司长 100
酸@@ 100
驱@@ 100
扬 100
昨天 100
几内亚比绍 100
留 100
粉 100
教训 100
静@@ 100
赞比亚 100
婚@@ 100
顶@@ 100
首 100
令人@@ 100
磁@@ 100
和谐 100
右@@ 100
录 100
蒙古 100
纸@@ 100
O 100
断 100
依 100
110 100
鸟 100
年前 100
人为 100
认@@ 100
固@@ 100
透@@ 100
健全 100
混@@ 100
队伍 100
寿命 100
= 100
第六条 100
大小 100
骨@@ 100
持@@ 100
模拟 100
不当 100
消灭 100
局面 100
详情 100
具体@@ 100
in@@ 100
as 100
马上 100
乐 100
复苏 100
核实 100
指导方针 100
增 100
夫@@ 100
普 100
左@@ 100
验证 100
本来 100
中部 100
阿尔巴尼亚 100
姆@@ 100
监@@ 100
弄 100
250 100
极其 100
陈@@ 100
国会 100
民兵 100
巴塞尔 100
HRC 100
其次 100
常见 100
需@@ 100
增编 100
前面 100
犯罪行为 100
暂行 100
y 100
国王 100
付@@ 100
色情 100
援引 100
系列 100
类@@ 100
委托 100
计划生育 100
根@@ 100
牙@@ 100
留在 100
足以 100
v@@ 100
怀@@ 100
预定 100
结果表明 100
末 100
薪 100
签证 100
是不是 100
管理层 100
仔细 100
斯洛伐克 100
莱 100
同次 100
家庭成员 100
护 100
土壤 100
散发 100
对方 100
牛 100
略@@ 100
上次 100
合法性 100
难民营 100
除外 100
多么 100
免遭 100
派@@ 100
会见 100
街 100
优惠 100
人权法 100
基本上 100
贫@@ 100
新兴 100
童工 100
保密 100
富有 100
o@@ 100
激励 100
品@@ 100
展@@ 100
买卖 100
建筑物 100
刚刚 100
上涨 100
个人@@ 100
获@@ 100
` 100
守 100
机器 100
余@@ 100
桑@@ 100
成熟 100
拿@@ 100
印 100
迫使 100
面向 100
层次 100
休@@ 100
人生 100
船只 100
定居点 100
果 100
审查会议 100
实物 100
保加利亚 100
逃@@ 100
事宜 100
动机 100
围绕 100
思 100
位@@ 100
硬@@ 100
联邦政府 100
省@@ 100
抗议 100
韦@@ 100
灵 100
不罚 100
盖@@ 100
枚 100
人才 100
镇 100
言论 100
活力 100
刚@@ 100
湾 100
弱势群体 100
文职人员 100
九 100
电信 100
俱乐部 100
开发@@ 100
否认 100
关税 100
能源@@ 100
跳@@ 100
知情 100
普及 100
联黎 100
齐 100
安全部门 100
市场@@ 100
失望 100
养护 100
含@@ 100
文字 100
草稿 100
指挥官 100
http 100
FCCC 100
罪@@ 100
经济委员会 100
拖@@ 100
免受 100
著名 100
评@@ 100
虚@@ 100
b@@ 100
添加 100
亚太 100
漂亮 100
家庭@@ 100
司法部 100
园 100
欢@@ 100
幅 100
青年人 100
无害 100
不少 100
储备 100
六个 100
自由化 100
输@@ 100
菌 100
第十四条 100
礼@@ 100
阴@@ 100
常规 100
J 100
蒙特利尔 100
老板 100
习俗 100
严@@ 100
生产力 100
长时间 100
次@@ 100
节省 100
报酬 100
苦@@ 100
免@@ 100
熟悉 100
下述 100
痛 100
冲击 100
世界人权宣言 100
次数 100
广大 100
债券 100
烧@@ 100
莫桑比克 100
所示 100
此事 100
任用 100
传真 100
证件 100
起到 100
骨 100
联塞 100
对抗 100
被捕 100
教育@@ 100
设有 100
雨@@ 100
桥 100
免疫 100
封@@ 100
必 100
缩小 100
开设 100
胜@@ 100
罚款 100
剩余 100
干涉 100
守@@ 100
无效 100
世界卫生组织 100
一人 100
恐惧 100
筹备工作 100
腿 100
邦 100
担忧 100
发动 100
圆桌会议 100
承受 100
气氛 100
失业率 100
编号 100
阿尔@@ 100
慢 100
麽 100
非正规 100
第四@@ 100
第三届 100
酒@@ 100
造 100
便@@ 100
害怕 100
喝 100
c@@ 100
疫苗 100
题 100
康@@ 100
有待 100
玩@@ 100
津巴布韦 100
署长 100
想到 100
生育 100
辩护 100
今日 100
一架 100
应为 100
丰@@ 100
弹 100
王国 100
受害 100
发挥作用 100
忘记 100
核试验 100
联合国秘书处 100
冻结 100
埃 100
宽@@ 100
& 100
爱情 100
分段 100
环 100
权限 100
智@@ 100
姓名 100
矿 100
餐 100
百 100
过于 100
特权 100
指挥 100
据说 100
群岛 100
备 100
决@@ 100
一百@@ 100
巡逻 100
献@@ 100
工业@@ 100
标准化 100
拨 100
布基纳法索 100
井 100
裁@@ 100
零 100
杯 100
礼 100
批款 100
权能 100
朗 100
毒 100
置于 100
and 100
应用程序 100
K 100
波动 100
几天 100
缩@@ 100
圈 100
收费 100
一块 100
社会主义 100
年间 100
紧 100
价@@ 100
联合国环境规划署 100
事务处 100
述 100
施加 100
经合组织 100
家长 100
居@@ 100
家园 100
第三方 100
修复 100
污@@ 100
国际劳工组织 100
能量 100
戈@@ 100
补助金 100
这笔 100
不用 100
领 100
几内亚 100
翻@@ 100
u@@ 100
予 100
─ 100
跨界 100
银@@ 100
看着 100
技巧 100
开列 100
谨慎 100
礼物 100
找出 100
梦想 100
弹@@ 100
101 100
申明 100
无疑 100
丁@@ 100
远远 100
场@@ 100
所用 100
乔@@ 100
升@@ 100
洛 100
一周 100
1986 100
特使 100
修建 100
财政@@ 100
如同 100
此后 100
本书 100
振兴 100
地说 100
称@@ 100
示 100
亮 100
登 100
爆炸物 100
徒 100
层@@ 100
截止 100
黑 100
机械 100
着重指出 100
多项 100
支配 100
人均 100
整合 100
相似 100
福 100
包装 100
婚 100
斯洛文尼亚 100
总共 100
ar@@ 100
念 100
CEDAW 100
风险管理 100
转向 100
丹@@ 100
兵@@ 100
报表 100
底@@ 100
知@@ 100
ar 100
袋 100
粗@@ 100
残疾儿童 100
中非 100
市民 100
六个月 100
良@@ 100
赠款 100
一边 100
旅费 100
毕业 100
爸爸 100
村庄 100
仪式 100
分开 100
违@@ 100
第四十@@ 100
低收入 100
积@@ 100
第五@@ 100
辛@@ 100
手机 100
驳回 100
引入 100
预防性 100
官@@ 100
跳 100
其后 100
命运 100
领土完整 100
统治 100
职类 100
科技咨询 100
要点 100
当代 100
成分 100
美好 100
缴款 100
盟约 100
招聘 100
102 100
海事 100
摩@@ 100
栏 100
叶@@ 100
呀 100
下跌 100
生长 100
胜利 100
判处 100
至@@ 100
甚@@ 100
分担 100
梦 100
达成协议 100
序言 100
运送 100
沃@@ 100
an@@ 100
福祉 100
旧@@ 100
灰@@ 100
v 100
UNEP 100
刑事法庭 100
本着 100
么 100
人事 100
开采 100
一句 100
吉 100
影响力 100
多名 100
毛额 100
铁路 100
II 100
代码 100
殖民地 100
划@@ 100
浮@@ 100
力求 100
公 100
联利 100
X 100
划分 100
仇恨 100
跨@@ 100
第七条 100
曲@@ 100
一部 100
乌兹别克斯坦 100
自主 100
杂@@ 100
130 100
一座 100
不结盟运动 100
计划署 100
精神@@ 100
乳@@ 100
带有 100
紧迫 100
欧洲委员会 100
黑山 100
高质量 100
欺诈 100
采纳 100
显得 100
计算机@@ 100
al@@ 100
乙@@ 100
红 100
龙@@ 100
间@@ 100
坚@@ 100
小姐 100
中等 100
基本权利 100
煽动 100
困境 100
跨 100
钱@@ 100
产妇 100
人口@@ 100
较为 100
哦 100
弱势 100
CRP 100
响 100
回返 100
警察部队 100
页次 100
性虐待 100
网络@@ 100
告@@ 100
某一 100
渔@@ 100
物种 100
癌 100
学者 100
奖励 100
篇 100
力度 100
温 100
防范 100
术语 100
记忆 100
取得成功 100
05 100
认捐 100
丁 100
工业化 100
诉诸 100
坦桑尼亚联合共和国 100
颁发 100
x 100
不足以 100
执@@ 100
荷 100
浓度 100
链 100
账 100
手续 100
斯特 100
电力 100
民警 100
横@@ 100
比额 100
依@@ 100
章程 100
花费 100
提前 100
法律文书 100
正当 100
不愿 100
w@@ 100
喜@@ 100
5.@@ 100
必不可少 100
深刻 100
大众 100
卫生部 100
遗产 100
住宅 100
作出努力 100
夜@@ 100
杀@@ 100
前进 100
露@@ 100
贝宁 100
典型 100
通用 100
契约 100
元素 100
103 100
核能 100
元@@ 100
控制@@ 100
救助 100
将@@ 100
英 100
CONF 100
屋 100
猫 100
发送 100
r@@ 100
缴纳 100
购置 100
传 100
逻辑 100
离婚 100
边缘 100
义@@ 100
楼@@ 100
总务 100
东耶路撒冷 100
仪 100
会议议程 100
试 100
各个方面 100
本条 100
工作量 100
撒哈拉 100
撒@@ 100
之际 100
咖啡 100
111 100
呆 100
系统@@ 100
基本@@ 100
继 100
走向 100
晚@@ 100
敌人 100
荒@@ 100
p 100
积极@@ 100
交通@@ 100
第十届 100
展 100
麻烦 100
打电话 100
灵@@ 100
商店 100
酒店 100
干扰 100
治安 100
笔@@ 100
经济危机 100
大力 100
有趣 100
送交 100
架构 100
撤回 100
充分@@ 100
奠定 100
副本 100
样@@ 100
生产@@ 100
克斯 100
付出 100
指令 100
原理 100
运动员 100
迹 100
104 100
运营 100
坏@@ 100
容 100
互相 100
塞族 100
106 100
系统地 100
文化@@ 100
沙 100
仍@@ 100
投 100
重组 100
席 100
到底 100
境 100
大幅度 100
工作@@ 100
1967 100
协调会 100
纯@@ 100
耶路撒冷 100
案情 100
丝@@ 100
大西洋 100
假如 100
勘探 100
网址 100
谋求 100
延迟 100
洋@@ 100
一段时间 100
并于 100
中亚 100
范畴 100
er 100
之日起 100
化合物 100
怎么样 100
订 100
反馈 100
塔吉克斯坦 100
几次 100
的@@ 100
持久性 100
必然 100
麻醉药品 100
画@@ 100
稿 100
联检 100
皮肤 100
这家 100
代替 100
关键@@ 100
INF 100
办公 100
劳动@@ 100
深信 100
品牌 100
6.@@ 100
田 100
和平解决 100
马耳他 100
剧 100
驱动 100
成人 100
增至 100
中小企业 100
雪 100
枪@@ 100
贾@@ 100
退出 100
人民政府 100
心里 100
阻@@ 100
然@@ 100
会员 100
西撒哈拉 100
收购 100
出发 100
西藏 100
60@@ 100
妇发 100
随 100
裂变 100
路线 100
一类 100
说道 100
负@@ 100
阵线 100
108 100
载@@ 100
即便 100
超越 100
止@@ 100
谈话 100
懂 100
有所增加 100
抵达 100
鱼@@ 100
使用@@ 100
停火 100
民主@@ 100
针对性 100
经社理事会 100
正规 100
奖@@ 100
_ 100
体育@@ 100
林业 100
渴望 100
不安 100
弥补 100
世界贸易组织 100
修 100
攻@@ 100
税@@ 100
考察 100
ad@@ 100
一届 100
德班 100
事物 100
叙述 100
国际原子能机构 100
坦@@ 100
撤出 100
三次 100
喝@@ 100
环保 100
积累 100
角@@ 100
告 100
炉 100
尊重人权 100
联合国儿童基金会 100
权益 100
耶@@ 100
更多地 100
转换 100
不好 100
活跃 100
港@@ 100
中美洲 100
部落 100
可怕 100
戴 100
准备金 100
准许 100
生成 100
1987 100
追踪 100
含义 100
东盟 100
印刷 100
海岸 100
教学@@ 100
弃权 100
感受 100
休息 100
文学 100
协@@ 100
刻@@ 100
职权 100
完@@ 100
巴林 100
氯@@ 100
补编 100
瑞@@ 100
结余 100
团长 100
材 100
刚才 100
亡 100
明年 100
废@@ 100
养恤 100
50@@ 100
不受 100
112 100
抓住 100
临 100
潜@@ 100
第二章 100
演讲 100
透过 100
使命 100
旁 100
甘@@ 100
引导 100
城镇 100
第五次 100
镜 100
第四条 100
107 100
田@@ 100
略 100
愉快 100
我能 100
第三条 100
初 100
两级 100
错@@ 100
行动者 100
胶@@ 100
孔 100
00@@ 100
暗@@ 100
净@@ 100
缓@@ 100
COP 100
灾 100
三分之一 100
共同@@ 100
尽管如此 100
最多 100
香港@@ 100
l@@ 100
圆@@ 100
证@@ 100
偏见 100
刀 100
手中 100
中所载 100
争@@ 100
1985 100
演 100
权威 100
配备 100
跨国公司 100
小额 100
鲁 100
团伙 100
厚 100
纳米比亚 100
转化 100
骚扰 100
外联 100
第五条 100
公共行政 100
冷 100
科学技术 100
洲 100
两位 100
职员 100
提倡 100
审@@ 100
出色 100
啦 100
届会 100
益 100
退 100
物理 100
签@@ 100
给@@ 100
营@@ 100
电台 100
营养不良 100
组建 100
目的地 100
影 100
记住 100
re@@ 100
种@@ 100
体面 100
既定 100
致使 100
裂@@ 100
烟 100
目@@ 100
闭会 100
第四届 100
不可@@ 100
减缓 100
中文 100
关键作用 100
承包商 100
苏丹政府 100
美国政府 100
实在 100
博 100
扫@@ 100
丹 100
口译 100
签发 100
亲 100
南部非洲 100
理念 100
一片 100
两者 100
战斗人员 100
云@@ 100
千 100
耶稣 100
遭遇 100
众@@ 100
表示感谢 100
儿@@ 100
紧密 100
联科 100
２ 100
一辆 100
震@@ 100
征求 100
打破 100
毫无 100
季 100
将要 100
爱沙尼亚 100
哪@@ 100
置@@ 100
拉加 100
表演 100
铁 100
激烈 100
采矿 100
某人 100
确切 100
视频 100
无需 100
上学 100
经济社会 100
之上 100
刻 100
路线图 100
智慧 100
丽 100
头发 100
释 100
搜索 100
牵@@ 100
歌@@ 100
01 100
密 100
兴@@ 100
at 100
早上 100
迁移 100
完美 100
糟糕 100
军事行动 100
利息 100
可否 100
作家 100
顾及 100
普遍性 100
职业@@ 100
甲 100
主导 100
160 100
使用者 100
看出 100
经共体 100
艰难 100
都@@ 100
接纳 100
警官 100
供水 100
潮 100
还会 100
碎片 100
坡 100
遏制 100
06 100
每一 100
三名 100
民族@@ 100
施工 100
司法制度 100
籍 100
基本建设 100
效 100
Al@@ 100
当作 100
涉@@ 100
鱼类 100
09 100
额@@ 100
国政府 100
天然气 100
纹 100
尖@@ 100
演变 100
进来 100
强度 100
摧毁 100
南亚 100
触@@ 100
型@@ 100
竞选 100
论@@ 100
效@@ 100
115 100
140 100
三十@@ 100
印象 100
赤字 100
测定 100
该司 100
114 100
难以@@ 100
赞助 100
盘@@ 100
看上去 100
巴拿马 100
堡 100
er@@ 100
愈@@ 100
到来 100
巴拉圭 100
签字 100
负面影响 100
已于 100
拉脱维亚 100
联合国总部 100
闭@@ 100
to 100
犯有 100
欣见 100
卫@@ 100
红色 100
置 100
施行 100
小心 100
闭门 100
住所 100
充分利用 100
流入 100
操守 100
系@@ 100
某@@ 100
热情 100
中止 100
继@@ 100
误@@ 100
乐观 100
向前 100
尽力 100
次序 100
拆@@ 100
镇@@ 100
推荐 100
斯德哥尔摩 100
1982 100
历史@@ 100
刑 100
08 100
服务器 100
插@@ 100
IDB 100
洪都拉斯 100
第一章 100
聚 100
品质 100
统筹 100
肥@@ 100
税务 100
技@@ 100
113 100
羊 100
堕胎 100
鞋 100
一个月 100
广 100
象@@ 100
补助 100
种族灭绝 100
路上 100
直升机 100
教堂 100
1373 100
穿@@ 100
隔离 100
古 100
更换 100
交易@@ 100
奶@@ 100
分裂 100
边缘化 100
作法 100
合作社 100
所指 100
会期 100
臭氧 100
乡村 100
租赁 100
一组 100
地中海 100
f@@ 100
盛@@ 100
你@@ 100
抗 100
教会 100
原籍 100
封 100
太太 100
壳 100
临@@ 100
双重 100
迎@@ 100
构建 100
洞 100
土库曼斯坦 100
收取 100
粘@@ 100
群@@ 100
绝大多数 100
检@@ 100
全面禁止 100
金钱 100
中断 100
订约 100
状@@ 100
不变 100
一生 100
社会福利 100
却是 100
塞人 100
什@@ 100
海底 100
十四届 100
续@@ 100
占@@ 100
116 100
容@@ 100
坐@@ 100
凝@@ 100
有没有 100
军火 100
宁 100
武@@ 100
适@@ 100
宣称 100
存款 100
法人 100
外债 100
罗姆人 100
率@@ 100
普通照会 100
优质 100
更正 100
伤亡 100
频率 100
递@@ 100
此前 100
外交@@ 100
感到遗憾 100
瓶 100
名册 100
素@@ 100
该条 100
便于 100
卷@@ 100
感情 100
两国 100
租金 100
人民币 100
浪费 100
DP 100
木材 100
势头 100
堂 100
不予 100
刺@@ 100
可行性 100
运输@@ 100
人体 100
减免 100
日前 100
惠@@ 100
人民法院 100
职工 100
斐济 100
冰岛 100
抱 100
外空 100
第三个 100
动作 100
火箭 100
人民@@ 100
延@@ 100
弃 100
聘用 100
通货膨胀 100
立陶宛 100
检查组 100
29@@ 100
博物馆 100
据@@ 100
构想 100
参观 100
护照 100
采取有效 100
消极 100
破 100
园@@ 100
责 100
118 100
申报 100
帐 100
珍@@ 100
老年 100
GC 100
饮食 100
7.@@ 100
高级官员 100
碎 100
对比 100
122 100
册 100
展览 100
售@@ 100
the 100
幼@@ 100
旋@@ 100
反对派 100
An@@ 100
精确 100
职业培训 100
自行 100
师@@ 100
从中 100
企业家 100
老龄 100
炸弹 100
急 100
熟@@ 100
项下 100
江@@ 100
统计数字 100
乡@@ 100
捍卫 100
申@@ 100
对应 100
等级 100
动议 100
贝 100
报复 100
侧 100
宣@@ 100
指责 100
氟@@ 100
流量 100
母 100
看作 100
自然@@ 100
怕 100
Q@@ 100
飞 100
重叠 100
池 100
一再 100
构@@ 100
传递 100
毫无疑问 100
风格 100
竞@@ 100
稳@@ 100
撤离 100
抑制 100
惩处 100
维护者 100
载列 100
要么 100
吉尔吉斯斯坦 100
驻@@ 100
个案 100
第九条 100
2.1 100
教育部 100
先决条件 100
孕妇 100
遇@@ 100
措辞 100
有时候 100
痛@@ 100
Mr 100
合成 100
聪明 100
工程师 100
调节 100
游客 100
貌 100
土著人 100
争论 100
地上 100
汤姆 100
系数 100
联海 100
邮件 100
样子 100
腹@@ 100
艇 100
以南 100
顺序 100
呈 100
套@@ 100
家具 100
稳定性 100
禁毒 100
下载 100
国防 100
混乱 100
集会 100
耶 100
指明 100
隔@@ 100
审讯 100
8.@@ 100
妮 100
医 100
损坏 100
拒 100
贴@@ 100
之所以 100
传染病 100
宝@@ 100
目前为止 100
严峻 100
蒙 100
耳@@ 100
成年人 100
棒 100
注意力 100
螺@@ 100
挑选 100
进出口 100
一笔 100
资讯 100
】 100
180 100
117 100
牵头 100
具体措施 100
恰@@ 100
立刻 100
ri@@ 100
危及 100
柔@@ 100
刑法典 100
重新@@ 100
碳@@ 100
湖 100
纪录 100
塔利班 100
ra@@ 100
景@@ 100
电邮 100
气象 100
液@@ 100
饭 100
119 100
史@@ 100
媒介 100
捐赠 100
钢 100
阿拉伯联合酋长国 100
桶 100
饮用水 100
久@@ 100
准@@ 100
携带 100
ch@@ 100
鸡 100
羊@@ 100
作战 100
伸@@ 100
接到 100
文献 100
蓝@@ 100
初期 100
役 100
布什 100
非索 100
保护@@ 100
器@@ 100
公务 100
惩治 100
州@@ 100
延误 100
拯救 100
法律事务 100
司机 100
全文 100
on@@ 100
多哥 100
海盗 100
９ 100
泽@@ 100
醒 100
宫 100
纤维 100
胸@@ 100
周末 100
不满 100
曾@@ 100
救援 100
采访 100
廉@@ 100
旅馆 100
执法人员 100
保持@@ 100
估算 100
预警 100
恶劣 100
公共卫生 100
相关性 100
词@@ 100
像是 100
es 100
工程@@ 100
抵@@ 100
毫米 100
衰@@ 100
经济学家 100
将军 100
标签 100
确信 100
公共政策 100
骑@@ 100
有意 100
呼@@ 100
村@@ 100
看待 100
两人 100
许@@ 100
哥@@ 100
监控 100
第五十九 100
议定 100
刑事诉讼 100
大多 100
两份 100
摆@@ 100
银行@@ 100
公共服务 100
戈 100
脸@@ 100
云 100
禁令 100
替 100
刑事责任 100
范@@ 100
西班牙语 100
农场 100
泥@@ 100
具体情况 100
救灾 100
追加 100
国民议会 100
谈论 100
克里@@ 100
内地 100
铺@@ 100
儿基会 100
追究 100
平均@@ 100
松 100
局@@ 100
免 100
据此 100
羁押 100
努@@ 100
双 100
莫 100
百万 100
实务 100
尤@@ 100
电子商务 100
07 100
诊 100
癌症 100
莉 100
储蓄 100
游 100
小说 100
逊 100
年来 100
币 100
本案 100
假定 100
乘@@ 100
优秀 100
军官 100
马其顿共和国 100
动荡 100
案@@ 100
变更 100
收回 100
穷国 100
创业 100
房地产 100
无国籍 100
巨@@ 100
东欧 100
尊敬 100
场合 100
翼 100
28@@ 100
今晚 100
故意 100
三项 100
法文 100
主体 100
放松 100
更具 100
第七@@ 100
式@@ 100
提取 100
垃圾 100
谷 100
钻@@ 100
听说 100
宽 100
缺点 100
几十年 100
解放 100
主人 100
参加者 100
亲爱 100
一大 100
大脑 100
弄@@ 100
燃@@ 100
p@@ 100
信函 100
火车 100
将近 100
答 100
这时 100
检察长 100
朝@@ 100
精简 100
分至 100
永@@ 100
概况 100
m@@ 100
码 100
核算 100
失 100
雄@@ 100
得出结论 100
曼谷 100
1.1 100
Mar@@ 100
街头 100
诗 100
军人 100
明确规定 100
过分 100
餐@@ 100
截@@ 100
财务报告 100
窗@@ 100
当今 100
唱 100
定位 100
遗留 100
阶层 100
姑娘 100
吉布提 100
一事 100
少女 100
买方 100
归 100
漫@@ 100
茶 100
解决问题 100
判@@ 100
测 100
非国家 100
理事 100
谋杀 100
撤@@ 100
科学@@ 100
第五十八 100
识 100
端@@ 100
筹集 100
列举 100
萨摩亚 100
放射性 100
as@@ 100
早日 100
忘 100
史 100
第九届 100
概要 100
令人满意 100
影@@ 100
穿着 100
专用 100
股东 100
谱 100
警察局 100
党@@ 100
等于 100
判 100
谈@@ 100
核证 100
125 100
值@@ 100
裔 100
喜 100
内阁 100
峰会 100
复制 100
WP 100
鲜@@ 100
is@@ 100
只会 100
社@@ 100
访 100
at@@ 100
料@@ 100
财务@@ 100
用尽 100
停 100
综合性 100
内政部 100
敌对行动 100
控@@ 100
尼日尔 100
香 100
磨@@ 100
CRC 100
抱怨 100
过渡时期 100
堆 100
论点 100
毫无@@ 100
行径 100
身边 100
既然 100
舍 100
清晰 100
无人 100
it@@ 100
纪@@ 100
议 100
雅 100
训研 100
贵@@ 100
am@@ 100
标记 100
浪 100
制造商 100
自决权 100
灌@@ 100
黑暗 100
航空@@ 100
异常 100
脏 100
专利 100
神经@@ 100
彩@@ 100
牺牲 100
湖@@ 100
适足 100
政府部门 100
埋@@ 100
洗 100
搬@@ 100
概览 100
书记 100
甜@@ 100
那位 100
信念 100
父 100
圣 100
马拉维 100
递交 100
通道 100
欲 100
大批 100
解雇 100
一本 100
缩短 100
证词 100
卢森堡 100
滚@@ 100
示威 100
女子 100
女生 100
孤@@ 100
嘴 100
生境 100
七个 100
欧洲人 100
劳 100
占有 100
扎 100
特区 100
乱@@ 100
／ 100
勤@@ 100
像@@ 100
复兴 100
进行谈判 100
附录 100
生意 100
123 100
外面 100
称赞 100
x@@ 100
征 100
筹@@ 100
英里 100
英镑 100
北方 100
本质 100
纠纷 100
区内 100
转型期 100
个体 100
阵@@ 100
稀@@ 100
1978 100
见解 100
石油@@ 100
迷 100
三分之二 100
流行病 100
练习 100
展望 100
灭绝种族 100
回报 100
法典 100
奖学金 100
刑事诉讼法 100
坚信 100
内在 100
文职 100
程@@ 100
灯@@ 100
普查 100
娱乐 100
醇 100
引用 100
大会决议 100
根除 100
邮政 100
答@@ 100
害@@ 100
诱@@ 100
原则上 100
划界 100
X@@ 100
灵魂 100
善@@ 100
托克劳 100
创 100
属性 100
前任 100
思维 100
专题讨论 100
诸@@ 100
见下文 100
一会儿 100
严厉 100
局长 100
02 100
< 100
志愿 100
顾@@ 100
处在 100
玻璃 100
野 100
相互依存 100
肯@@ 100
二十一 100
伯 100
借口 100
en@@ 100
供应@@ 100
贩卖人口 100
遗传 100
121 100
入学率 100
卫生保健 100
03 100
繁@@ 100
杆 100
警务 100
大国 100
无线电 100
收养 100
蒙特雷 100
指派 100
服务中心 100
捕捞 100
煤@@ 100
读者 100
岩 100
函数 100
服装 100
研@@ 100
欧安组织 100
三种 100
故@@ 100
无关 100
茨 100
奇怪 100
律 100
特色 100
马达加斯加 100
多米尼加共和国 100
世卫 100
为主 100
设@@ 100
U 100
1981 100
入学 100
预先 100
岸 100
剩下 100
蔓延 100
解释性 100
市场准入 100
流通 100
汇款 100
模块 100
耗@@ 100
配额 100
送到 100
浓@@ 100
诊所 100
非常@@ 100
情感 100
铀 100
球队 100
荷@@ 100
题目 100
第二阶段 100
农 100
移 100
胆@@ 100
规律 100
两天 100
is 100
伊斯兰会议组织 100
赖@@ 100
所提 100
代理人 100
苦难 100
司法部门 100
演员 100
编纂 100
大赦 100
斯特@@ 100
9.@@ 100
后代 100
夏@@ 100
夺@@ 100
抵消 100
忆及 100
获益 100
猛@@ 100
支持者 100
聚集 100
议@@ 100
派出 100
频繁 100
附上 100
警 100
函 100
即可 100
原始 100
国际货币基金组织 100
研制 100
延期 100
数学 100
哪个 100
中将 100
慢慢 100
曲 100
第五十七届 100
巴巴多斯 100
缓 100
2.2 100
持久和平 100
诉@@ 100
10.@@ 100
数值 100
真诚 100
神经 100
山区 100
抵抗 100
原料 100
怪@@ 100
ou@@ 100
小孩 100
群众 100
一揽子 100
存储 100
妥善 100
显 100
号@@ 100
改组 100
何时 100
汉 100
大气 100
04 100
1970 100
文中 100
玛 100
助长 100
基督教 100
ah 100
燃烧 100
【 100
微笑 100
那天 100
幸@@ 100
重大@@ 100
拜@@ 100
蛋 100
自治区 100
海洋环境 100
施政 100
可见 100
恐吓 100
望@@ 100
示@@ 100
软 100
速@@ 100
部委 100
原先 100
钟 100
二零零@@ 100
应予 100
不但 100
炮 100
种子 100
以供 100
司法机关 100
区域性 100
观众 100
医疗保健 100
民族和解 100
症状 100
评注 100
贴 100
博茨瓦纳 100
续会 100
所在地 100
回合 100
佛@@ 100
借鉴 100
卫生设施 100
实效 100
场地 100
梦@@ 100
乡 100
功@@ 100
处以 100
第七届 100
第一步 100
电池 100
染@@ 100
鉴定 100
复杂性 100
幼儿 100
湿@@ 100
译 100
股市 100
司法@@ 100
财政部 100
倾@@ 100
阳光 100
病例 100
户@@ 100
白色 100
抓@@ 100
损 100
㈣ 100
麻 100
124 100
敏@@ 100
导航 100
鼓舞 100
评 100
肝@@ 100
抵押 100
苏 100
阻 100
健@@ 100
列支敦士登 100
冲 100
似 100
肉@@ 100
夫妇 100
第三国 100
剪@@ 100
俩 100
知识@@ 100
调查@@ 100
友谊 100
帐@@ 100
氟 100
谋 100
归还 100
幅度 100
枪支 100
购 100
迁@@ 100
灭 100
而已 100
涂@@ 100
ha@@ 100
无条件 100
航行 100
扭转 100
WG 100
马尔代夫 100
名为 100
审计员 100
空运 100
核不扩散 100
拥@@ 100
邻@@ 100
难道 100
投资@@ 100
节约 100
卫 100
业已 100
详尽 100
驾驶 100
1984 100
板@@ 100
幕 100
亲属 100
植@@ 100
宾@@ 100
优点 100
拼@@ 100
联合国日内瓦办事处 100
体重 100
频 100
吹@@ 100
匹配 100
男 100
连续性 100
132 100
抢@@ 100
预算编制 100
劳动者 100
妇@@ 100
年级 100
接下来 100
叫@@ 100
富 100
Original 100
涉嫌 100
1.2 100
犯罪@@ 100
挂 100
若干@@ 100
认同 100
尾@@ 100
预见 100
费率 100
实际@@ 100
狂@@ 100
勇气 100
夏天 100
12.@@ 100
密度 100
歌 100
究竟 100
什么样 100
无论如何 100
一群 100
选项 100
进去 100
尔德 100
General 100
接待 100
听见 100
雇佣军 100
防 100
吸引力 100
深切 100
险 100
结构性 100
138 100
同学 100
境外 100
农产品 100
段落 100
素质 100
邮票 100
生活@@ 100
公告 100
律@@ 100
站@@ 100
级@@ 100
途 100
哪儿 100
忽略 100
戒@@ 100
清洗 100
可靠性 100
128 100
直 100
内外 100
加深 100
2.5 100
ay@@ 100
饰 100
有个 100
延 100
许 100
西欧 100
自动化 100
销@@ 100
现任 100
回归 100
滴@@ 100
第二天 100
技术支持 100
紫@@ 100
注@@ 100
违法行为 100
借此机会 100
屋@@ 100
锁 100
关键问题 100
各部 100
天空 100
诸多 100
股份 100
体罚 100
扫盲 100
权力下放 100
受欢迎 100
尚@@ 100
平静 100
段@@ 100
第六届 100
东南亚 100
适宜 100
赤贫 100
国内外 100
询 100
执行@@ 100
法律@@ 100
134 100
泛@@ 100
一面 100
得知 100
微型 100
全民投票 100
拍@@ 100
盐 100
敬@@ 100
时说 100
符合@@ 100
欧 100
庭 100
第六次 100
经济学 100
维尔 100
尼亚@@ 100
中所 100
岸@@ 100
2020 100
僵局 100
淘汰 100
完整性 100
损伤 100
损@@ 100
自杀 100
界限 100
.1 100
研发 100
财@@ 100
他会 100
布鲁塞尔 100
3.1 100
源于 100
款额 100
信中 100
酶 100
si@@ 100
庭长 100
售 100
针 100
地下 100
疡 100
相结合 100
第五届 100
收容 100
欧洲共同体 100
帮@@ 100
吸烟 100
假期 100
定居 100
模糊 100
队@@ 100
肺@@ 100
调查团 100
营销 100
回复 100
第十一届 100
解放@@ 100
够 100
绳之以法 100
益处 100
153 100
俗 100
大概 100
透露 100
理性 100
境况 100
ak@@ 100
轨 100
重大进展 100
播 100
猎@@ 100
海牙 100
管道 100
1973 100
毛里塔尼亚 100
觉@@ 100
环节 100
据报 100
盘旋 100
集束 100
替代品 100
扩张 100
街@@ 100
玻利瓦尔 100
国民@@ 100
硬 100
日历 100
累 100
预防措施 100
出台 100
察@@ 100
卷入 100
126 100
遵照 100
电视@@ 100
加紧努力 100
紧张局势 100
谨@@ 100
闻 100
11@@ 100
占据 100
二氧化碳 100
可信 100
伴侣 100
家伙 100
慷慨 100
155 100
实用 100
朱@@ 100
抱歉 100
用水 100
呼吸 100
中午 100
育 100
联合国人口基金 100
想起 100
季@@ 100
作出反应 100
创作 100
财务状况 100
呈@@ 100
孕产妇 100
硫@@ 100
迟 100
圭亚那 100
找@@ 100
各项规定 100
旅游@@ 100
甄选 100
管理机构 100
氏 100
不良 100
刑罚 100
章节 100
引进 100
苏联 100
大卫 100
统@@ 100
第五十@@ 100
一体 100
拉斯 100
陆地 100
六年 100
北约 100
图片 100
巡@@ 100
制造业 100
并不@@ 100
脱 100
委@@ 100
伊斯兰教 100
哭 100
悬@@ 100
承付 100
睡@@ 100
购@@ 100
息@@ 100
性骚扰 100
独立宣言 100
尸体 100
育@@ 100
乘客 100
English 100
荣幸 100
唐@@ 100
无视 100
译文 100
旅客 100
夸@@ 100
十六届 100
信用 100
补救措施 100
家中 100
报导 100
辅@@ 100
东京 100
127 100
借 100
愤怒 100
矿物 100
朝着 100
es@@ 100
多地 100
总量 100
时机 100
菲 100
il@@ 100
对手 100
累积 100
统计@@ 100
非统组织 100
固有 100
戏@@ 100
1949 100
疲@@ 100
专长 100
对不起 100
极为重要 100
球员 100
命@@ 100
振@@ 100
毒性 100
监视 100
不可或缺 100
el@@ 100
ti@@ 100
迈@@ 100
运转 100
非洲大陆 100
细菌 100
苹果 100
债 100
用语 100
甲基 100
躺 100
情报@@ 100
缝 100
所知 100
拍 100
祖@@ 100
国防部 100
欠 100
ag@@ 100
不丹 100
吻 100
违法 100
迫害 100
妥协 100
岛@@ 100
裁减 100
莫斯科 100
纽@@ 100
聚会 100
农药 100
庞大 100
牙 100
难题 100
孙@@ 100
淡@@ 100
滋@@ 100
豆 100
合约 100
小组讨论 100
输出 100
航空公司 100
兼顾 100
幸运 100
区域间 100
通告 100
2016 100
惠益 100
店@@ 100
闲@@ 100
同行 100
事务司 100
旁边 100
受过 100
感激 100
客人 100
睡觉 100
第十九条 100
背后 100
公私 100
第八届 100
乘 100
慈善 100
调集 100
勤 100
一批 100
身份证 100
希 100
早晨 100
纵@@ 100
贷@@ 100
进而 100
界@@ 100
ab@@ 100
宫@@ 100
衰退 100
卖方 100
壮@@ 100
穿过 100
致命 100
介@@ 100
Ro@@ 100
容器 100
焦点 100
实力 100
隆@@ 100
马德里 100
这使 100
主持人 100
玛丽 100
业务@@ 100
增设 100
1979 100
Distr 100
迈出 100
生产能力 100
崩溃 100
极端主义 100
杰克 100
中小型 100
再度 100
捐@@ 100
候@@ 100
员@@ 100
卡尔 100
摩尔多瓦共和国 100
民用 100
研究@@ 100
贩毒 100
介入 100
舞 100
官长 100
第一阶段 100
这部 100
挑@@ 100
足球 100
常用 100
独立国家 100
129 100
课题 100
ac@@ 100
党派 100
学术界 100
创伤 100
与会 100
昂贵 100
简介 100
投标 100
当事 100
道理 100
自行车 100
受益人 100
航 100
青 100
三大 100
扶持 100
招标 100
八个 100
警卫 100
占领国 100
斗 100
之处 100
所致 100
无辜 100
连同 100
不明 100
资金来源 100
对本 100
保护区 100
整理 100
溶@@ 100
话题 100
令人遗憾 100
董事 100
上周 100
坎@@ 100
改 100
护士 100
顿@@ 100
终 100
胶 100
相一致 100
这两项 100
债务人 100
办公@@ 100
洁 100
走私 100
合作@@ 100
薄@@ 100
135 100
各种各样 100
分娩 100
追回 100
冒@@ 100
沿着 100
经社 100
［ 100
应是 100
第一条 100
到期 100
恨 100
柱 100
虽 100
故障 100
发明 100
滑 100
胜 100
远程 100
押 100
瓜 100
30@@ 100
念@@ 100
撒 100
障 100
切割 100
阿拉伯国家联盟 100
启@@ 100
孔@@ 100
缴付 100
院@@ 100
注射 100
圆 100
27@@ 100
同情 100
授@@ 100
商务 100
十分@@ 100
花园 100
交往 100
落后 100
133 100
束 100
立法会 100
化学@@ 100
不必要 100
暂定 100
些@@ 100
马克 100
亚政府 100
形态 100
档 100
蛋白 100
扩@@ 100
脸上 100
首相 100
习@@ 100
刀@@ 100
精力 100
不让 100
170 100
波多黎各 100
童@@ 100
约翰内斯堡 100
产假 100
舞@@ 100
拉特 100
暂@@ 100
域 100
之二 100
靠近 100
搭@@ 100
悲剧 100
锁@@ 100
沿@@ 100
伴随 100
哥本哈根 100
房舍 100
1540 100
仪器 100
.2 100
窗 100
无障碍 100
大学生 100
宇宙 100
第十二届 100
抢劫 100
充分考虑 100
宝 100
信件 100
乎 100
遥感 100
充当 100
城市化 100
金融市场 100
配 100
一个@@ 100
妇女组织 100
静 100
兹@@ 100
征收 100
改动 100
氧化@@ 100
样本 100
］ 100
卡车 100
挤@@ 100
法外 100
相符 100
中方 100
解放军 100
品种 100
W 100
CD 100
不确定性 100
井@@ 100
影片 100
氯 100
主意 100
学员 100
肯 100
扮演 100
泽 100
联委会 100
赢 100
2017 100
滤@@ 100
带到 100
限额 100
弱@@ 100
拆除 100
犯@@ 100
生命权 100
黄金 100
窗口 100
搞 100
划拨 100
基层 100
几种 100
民主党 100
象征 100
走进 100
三方 100
兼@@ 100
余 100
托管 100
服务业 100
法律顾问 100
屈@@ 100
捕@@ 100
床@@ 100
简直 100
阳@@ 100
公斤 100
违约 100
人身 100
处理@@ 100
血管 100
几项 100
送给 100
援 100
182 100
轻松 100
宾 100
一日 100
阵 100
吸毒 100
大臣 100
体验 100
烟草 100
ul@@ 100
侧重 100
加重 100
伊拉克政府 100
挂钩 100
战略性 100
桌子 100
天然 100
联苏 100
141 100
旗@@ 100
沉重 100
加蓬 100
说服 100
孤立 100
毕业生 100
始@@ 100
这会 100
麻醉品 100
超 100
不可分割 100
号法 100
年份 100
大纲 100
扣押 100
好好 100
抵制 100
太阳能 100
地名 100
迎接 100
开放@@ 100
诚实 100
修理 100
动用 100
附注 100
中央银行 100
幸存者 100
古老 100
使人 100
汁 100
恶 100
彩 100
巴格达 100
怪 100
Mu@@ 100
136 100
地向 100
炮@@ 100
戈兰 100
自信 100
流动性 100
保护措施 100
鲍@@ 100
细 100
召@@ 100
宪法法院 100
惊讶 100
英译汉 100
关岛 100
第五十四届 100
明智 100
犯人 100
发育 100
摄@@ 100
教育权 100
泡 100
大选 100
偷运 100
一致意见 100
可疑 100
远离 100
全国性 100
意志 100
沉默 100
院长 100
链接 100
部件 100
养老金 100
妙 100
各州 100
阵地 100
租 100
前所未有 100
宽容 100
电视台 100
不适 100
这座 100
逆@@ 100
末@@ 100
讯 100
频@@ 100
131 100
教徒 100
TD 100
从前 100
渗@@ 100
毫不 100
良心 100
三条 100
长期以来 100
延伸 100
辞职 100
际 100
浏览 100
练 100
生产率 100
仓库 100
健康状况 100
拘押 100
奥运 100
蔬菜 100
一篇 100
di@@ 100
信誉 100
决定性 100
借助 100
佳 100
盐@@ 100
不如 100
市长 100
布雷顿 100
黑人 100
奴役 100
偿 100
缴 100
文化遗产 100
隔离墙 100
度过 100
辅导 100
时应 100
嘛 100
心中 100
忙@@ 100
到处 100
接种 100
生命@@ 100
不法行为 100
迫切 100
百分之@@ 100
举报 100
第三章 100
哲学 100
俄 100
殴打 100
1983 100
新增 100
水果 100
征得 100
气象@@ 100
免除 100
威 100
故 100
早些时候 100
春@@ 100
减灾 100
不知 100
公寓 100
宁@@ 100
径 100
忧@@ 100
采取任何 100
势@@ 100
猪 100
茶@@ 100
粒 100
鼓@@ 100
浆 100
氯化 100
便宜 100
热带 100
判定 100
缺 100
宣传@@ 100
此案 100
联网 100
连贯 100
1.5 100
联合国粮食及农业组织 100
跌@@ 100
过时 100
餐厅 100
同性恋 100
壁垒 100
众 100
插入 100
陆 100
轴 100
出席会议 100
炸@@ 100
海军 100
主管机构 100
肿瘤 100
马拉@@ 100
本周 100
志@@ 100
拖欠 100
座@@ 100
同期 100
完全@@ 100
回国 100
分配@@ 100
穷@@ 100
两国@@ 100
执照 100
灭@@ 100
拿出 100
撰写 100
th@@ 100
抚@@ 100
大程度 100
第@@ 100
指引 100
号码 100
拔 100
延续 100
查看 100
侦查 100
露 100
胁迫 100
挥@@ 100
肩@@ 100
英语@@ 100
凭 100
吞@@ 100
闭幕 100
诚@@ 100
142 100
出生@@ 100
糖@@ 100
可怜 100
回去 100
壁 100
睡眠 100
七年 100
易于 100
俄@@ 100
斡旋 100
杀死 100
多边贸易 100
之类 100
IN@@ 100
最小 100
亚的斯亚贝巴 100
外来 100
冰 100
城市@@ 100
商人 100
量化 100
架@@ 100
辞 100
生气 100
很小 100
生产性 100
169 100
梅 100
累@@ 100
遵约 100
述及 100
公然 100
困 100
革新 100
鬼 100
ro@@ 100
峰 100
淡 100
被控 100
锻炼 100
势力 100
词汇 100
严格遵守 100
席@@ 100
互助 100
判刑 100
按时 100
蓄意 100
蓝色 100
发病率 100
特别法庭 100
联邦@@ 100
生产者 100
须@@ 100
传输 100
把@@ 100
智能 100
欣赏 100
不可避免 100
增加@@ 100
深感 100
有毒 100
３ 100
仿真 100
跑@@ 100
危@@ 100
疗法 100
中立 100
狱@@ 100
体内 100
决 100
第十条 100
创立 100
调查表 100
深化 100
遇 100
分组 100
莎 100
血液 100
努力实现 100
察 100
拘禁 100
海啸 100
乔治 100
填写 100
高层 100
Ch@@ 100
只不过 100
下令 100
全额 100
便是 100
艺术家 100
偷 100
形状 100
替换 100
2.3 100
饼 100
舞台 100
薄弱 100
武 100
瑟 100
经常性 100
高效率 100
3.2 100
相称 100
引擎 100
孤儿 100
辩@@ 100
or 100
裁 100
杰出 100
药物滥用 100
疑问 100
发言稿 100
怒 100
专业@@ 100
皇家 100
腔 100
饮@@ 100
军备竞赛 100
14.@@ 100
阿曼 100
吸取 100
Q 100
自主权 100
似@@ 100
境@@ 100
败 100
贫困@@ 100
im@@ 100
高度重视 100
科学研究 100
第一款 100
龄 100
蒸@@ 100
Ar@@ 100
婚姻@@ 100
捕 100
黑色 100
139 100
执行机构 100
吓 100
man 100
众所周知 100
销售@@ 100
á 100
偿@@ 100
否 100
令人鼓舞 100
弗 100
魔@@ 100
交叉 100
糟 100
谈谈 100
书籍 100
机器人 100
硬件 100
强劲 100
无力 100
疑@@ 100
物流 100
� 100
原文 100
协商会议 100
编入 100
街道 100
银 100
十二 100
交存 100
措词 100
荡 100
ch 100
搞@@ 100
文件@@ 100
盟 100
石头 100
雾 100
供应链 100
传感器 100
多人 100
多重 100
忘@@ 100
通知书 100
唱@@ 100
建制 100
长度 100
皇@@ 100
英尺 100
月初 100
再也 100
当天 100
GDP 100
一轮 100
成年 100
支撑 100
11.@@ 100
雕@@ 100
class 100
令@@ 100
162 100
写作 100
da 100
色彩 100
趋@@ 100
性别歧视 100
第七 100
通胀 100
4.1 100
医疗保险 100
非洲人 100
源自 100
订单 100
急剧 100
贪@@ 100
全面@@ 100
第十三届 100
旁@@ 100
百万美元 100
高等法院 100
增效 100
鼠 100
工商@@ 100
院校 100
亲自 100
附表 100
class@@ 100
137 100
汇 100
和平@@ 100
尺寸 100
艺 100
小规模 100
正面 100
东亚 100
在场 100
历史性 100
字母 100
彼得 100
艘 100
止 100
进口@@ 100
联合行动 100
暴露 100
承 100
录音 100
紧缩 100
自卫 100
凡@@ 100
样品 100
甚 100
四条 100
冷战 100
应收款 100
敌 100
差旅 100
145 100
困扰 100
营养@@ 100
反复 100
九条 100
人工 100
厚@@ 100
液体 100
尘@@ 100
26@@ 100
环境影响 100
犹太人 100
# 100
似的 100
观看 100
忧虑 100
才@@ 100
身心 100
验@@ 100
交谈 100
未决 100
空白 100
厂@@ 100
奴隶 100
袭 100
忠@@ 100
异议 100
虚拟 100
该次 100
亚人 100
折 100
贯彻 100
尔斯 100
艰苦 100
预审 100
阿布哈兹 100
审核 100
制备 100
上市 100
播放 100
世界粮食计划署 100
兑现 100
童 100
贵国 100
保罗 100
比尔 100
讨厌 100
住宿 100
犯罪活动 100
补 100
同一个 100
烧 100
探 100
派驻 100
保持一致 100
143 100
历 100
患有 100
恐怕 100
领导@@ 100
刑@@ 100
有效率 100
侵@@ 100
器官 100
红十字 100
助 100
裂 100
可爱 100
秒 100
约定 100
绝不 100
暴行 100
八届 100
面试 100
一向 100
火器 100
登记@@ 100
央行 100
普通@@ 100
以色列政府 100
此时 100
总裁 100
保养 100
陈 100
休 100
技术性 100
心灵 100
1000 100
开车 100
侧@@ 100
太多 100
珠@@ 100
民事@@ 100
现况 100
逃离 100
高中 100
传媒 100
答辩 100
认知 100
江 100
行李 100
夫妻 100
问卷 100
学习@@ 100
播@@ 100
相辅相成 100
长期@@ 100
典 100
特立尼达和多巴哥 100
详@@ 100
荣誉 100
中央@@ 100
复审 100
抚养 100
市场经济 100
征税 100
水域 100
议案 100
心脏 100
景 100
始 100
立法机构 100
航班 100
鹿特丹 100
冈比亚 100
交易所 100
15.@@ 100
吃饭 100
第六十六 100
序@@ 100
推翻 100
对面 100
年内 100
心情 100
统计资料 100
氧 100
沃 100
是@@ 100
校长 100
致力 100
钟@@ 100
144 100
扶贫 100
里程碑 100
泵 100
承担责任 100
多方 100
严肃 100
1960 100
帕 100
伊斯坦布尔 100
深度 100
省份 100
限制性 100
刘@@ 100
ic@@ 100
相互作用 100
弹性 100
诚 100
针@@ 100
or@@ 100
无数 100
撞 100
日常生活 100
百姓 100
而定 100
IS@@ 100
题@@ 100
q@@ 100
巴哈马 100
围 100
绕 100
居留 100
敲@@ 100
研训 100
各省 100
民政 100
冠军 100
弱点 100
毫不@@ 100
220 100
探测 100
大使馆 100
夹@@ 100
叛@@ 100
表达@@ 100
早就 100
防御 100
支票 100
考 100
刺 100
宣读 100
点击 100
货币基金 100
着眼于 100
罢工 100
后裔 100
票@@ 100
忍受 100
PC 100
拥挤 100
门口 100
扶@@ 100
146 100
一把 100
饮料 100
Re@@ 100
戏 100
牛奶 100
结构调整 100
贸 100
呈现 100
巴布亚新几内亚 100
避@@ 100
噢 100
战略@@ 100
第八条 100
莱索托 100
桥梁 100
省级 100
区域@@ 100
暴力事件 100
签 100
多元化 100
选择性 100
割@@ 100
学位 100
种群 100
凶@@ 100
拍卖 100
解散 100
面包 100
高达 100
振 100
财政年度 100
不出 100
平等权利 100
国有 100
悲@@ 100
集中@@ 100
上班 100
句子 100
泉 100
兴奋 100
In@@ 100
不断@@ 100
列表 100
程序@@ 100
观察@@ 100
战略方针 100
抛@@ 100
直布罗陀 100
社会保险 100
社团 100
墨西哥@@ 100
舒适 100
涨 100
刑事犯罪 100
谢 100
强制执行 100
刊 100
战略规划 100
舰 100
传达 100
尽量减少 100
父@@ 100
详细资料 100
搜查 100
肇事者 100
被害人 100
同步 100
参议院 100
屠杀 100
摸 100
公式 100
民航 100
飞离 100
管理部 100
便利化 100
往来 100
凌@@ 100
人会 100
译@@ 100
背 100
隆 100
响@@ 100
家族 100
声援 100
消耗性 100
笑@@ 100
开罗 100
季节 100
限@@ 100
构 100
肌@@ 100
注销 100
差不多 100
索取 100
在职 100
汲取 100
分区 100
从不 100
资讯科技 100
洞@@ 100
受益者 100
扫描 100
森@@ 100
莉@@ 100
157 100
常任理事 100
所起 100
暗示 100
人选 100
el 100
保险公司 100
呼 100
发电 100
晶 100
大麻 100
爬 100
166 100
土著居民 100
小册子 100
秘@@ 100
部长会议 100
剂量 100
５ 100
土地@@ 100
检 100
147 100
1975 100
外汇 100
岗位 100
管理工作 100
和平部队 100
承包者 100
防护 100
资金@@ 100
发动机 100
否定 100
旅@@ 100
飞越 100
下滑 100
合办 100
烂 100
变量 100
洪水 100
逼@@ 100
负面 100
235 100
勇敢 100
战胜 100
没什么 100
一大@@ 100
操@@ 100
伏 100
1974 100
产品@@ 100
答应 100
愿景 100
13.@@ 100
作证 100
晶@@ 100
薄 100
发展@@ 100
电路 100
密切相关 100
生物武器 100
变为 100
基线 100
约会 100
尤为 100
欠@@ 100
客户@@ 100
两周 100
软件@@ 100
欧元区 100
民主化 100
援@@ 100
筹备会议 100
进攻 100
老挝人民民主共和国 100
发展部 100
教材 100
事务@@ 100
地质 100
新闻稿 100
喜爱 100
学年 100
吊@@ 100
潜能 100
见面 100
156 100
ka 100
广场 100
揭示 100
环境卫生 100
跟@@ 100
丧生 100
第二十届 100
去世 100
跨部门 100
震惊 100
余留 100
前后 100
获准 100
习惯法 100
开心 100
第二十三届 100
存放 100
嘴@@ 100
裁撤 100
惊人 100
分项 100
富裕 100
综述 100
发表意见 100
囊 100
以免 100
我方 100
话@@ 100
旋 100
盈余 100
战略目标 100
步伐 100
聘 100
保卫 100
帝@@ 100
必要条件 100
节日 100
扣@@ 100
第十二条 100
多方面 100
困@@ 100
柜 100
返@@ 100
附有 100
一间 100
冒 100
承办 100
拨@@ 100
犯罪者 100
考验 100
二苯醚 100
所定 100
捕鱼 100
第四章 100
筒 100
重计 100
描@@ 100
传送 100
游泳 100
危险废物 100
著@@ 100
ia 100
冒险 100
氢 100
应力 100
早已 100
营业 100
供给 100
中欧 100
原件 100
塑料 100
定性 100
军方 100
禁产 100
视角 100
混凝土 100
人员@@ 100
晋升 100
沙特 100
不利于 100
刑事@@ 100
赋权 100
联合国安全理事会 100
人口普查 100
遮@@ 100
重量 100
PV 100
妈 100
市镇 100
距 100
毒素 100
习 100
漏 100
突破 100
很长 100
爆 100
ć 100
恢复@@ 100
电力@@ 100
演出 100
近来 100
组件 100
讲座 100
驾@@ 100
传染性 100
摩 100
不停 100
私有化 100
智 100
151 100
书记官 100
玩具 100
外界 100
依赖于 100
新闻界 100
曲线 100
铲除 100
徒刑 100
注入 100
里克 100
一倍 100
抑@@ 100
土地利用 100
最低工资 100
财力 100
出口@@ 100
走上 100
疗效 100
衷 100
成千上万 100
这点 100
雇佣 100
教练 100
心理@@ 100
今@@ 100
草拟 100
责任@@ 100
Ma@@ 100
波恩 100
油价 100
毁坏 100
Y 100
咱们 100
某种程度 100
活性 100
预报 100
附带 100
一颗 100
三天 100
避孕 100
CO@@ 100
亮@@ 100
肠 100
计算@@ 100
铜 100
合同@@ 100
国家计划 100
慢@@ 100
构造 100
加紧 100
女工 100
懂得 100
日刊 100
框 100
350 100
大会堂 100
简短 100
 100
概@@ 100
泡沫 100
二级 100
徒@@ 100
遣@@ 100
族群 100
桩 100
缔约 100
154 100
祸 100
资料@@ 100
id@@ 100
对照 100
黎@@ 100
万名 100
序 100
策划 100
组织@@ 100
轻 100
3.3 100
劳动法 100
总局 100
鸡@@ 100
4.2 100
公职人员 100
放缓 100
210 100
不清 100
应计 100
王子 100
厨房 100
舍@@ 100
坦桑尼亚 100
西撒 100
肠@@ 100
日后 100
蓄@@ 100
窗户 100
安全性 100
2.4 100
几位 100
坛 100
喊 100
煤 100
雷斯 100
日程 100
线路 100
婚礼 100
府 100
继续加强 100
注明 100
展现 100
电脑@@ 100
竞争性 100
合理化 100
北美 100
安盟 100
挖掘 100
免于 100
舒@@ 100
有形 100
侵权行为 100
仅限于 100
司法程序 100
ta@@ 100
大厦 100
谋@@ 100
158 100
装饰 100
嗯 100
152 100
分析@@ 100
产物 100
虎 100
中央政府 100
148 100
实况 100
实时 100
奈@@ 100
忍@@ 100
般 100
专 100
衡@@ 100
am 100
初始 100
厄@@ 100
融@@ 100
性健康 100
强行 100
关键因素 100
第二期 100
拍摄 100
联合国贸易和发展会议 100
穆罕默德 100
第六十 100
文盲 100
一并 100
反而 100
机械@@ 100
í 100
航天 100
肾@@ 100
上去 100
灾@@ 100
的是 100
CO 100
ra 100
编码 100
患@@ 100
堆@@ 100
杜 100
汽油 100
迁 100
舱 100
do 100
含水层 100
ol@@ 100
切实有效 100
饮水 100
受到限制 100
岩@@ 100
希族 100
河流 100
保人 100
不起 100
双边@@ 100
金融服务 100
上限 100
内心 100
指望 100
室@@ 100
洋 100
149 100
骗 100
拉姆 100
洪@@ 100
定价 100
旅 100
既@@ 100
祖国 100
Sa@@ 100
估值 100
十七届 100
定稿 100
规格 100
隐藏 100
纯粹 100
小计 100
造林 100
领事 100
实用@@ 100
後 100
敦 100
270 100
十二@@ 100
烈 100
惨@@ 100
一台 100
不限 100
推定 100
251 100
干净 100
旋转 100
大致 100
局部 100
总计 100
人质 100
罗斯 100
胃@@ 100
大于 100
破坏性 100
前途 100
南北 100
审视 100
无须 100
漫长 100
公顷 100
寻常 100
铺 100
裁判 100
市政 100
叫做 100
外交政策 100
总之 100
疯狂 100
午@@ 100
审批 100
第七章 100
四十@@ 100
在此期间 100
决策@@ 100
罩 100
扭曲 100
艰巨 100
申请书 100
亿元 100
发电机 100
自豪 100
老鼠 100
ST 100
也就是说 100
八条 100
23@@ 100
天内 100
西班牙文 100
催@@ 100
急性 100
飓风 100
碰@@ 100
糖尿病 100
隔 100
经由 100
奉 100
把握 100
长远 100
ad 100
上网 100
资发 100
190 100
审判@@ 100
基础教育 100
一度 100
1977 100
无可@@ 100
um@@ 100
收获 100
炮弹 100
下届 100
金伯利 100
信用证 100
沮丧 100
1961 100
摩加迪沙 100
下属 100
数百@@ 100
第二节 100
创意 100
巧 100
靠@@ 100
脑 100
误解 100
健康权 100
节余 100
嫌疑人 100
高速 100
1971 100
us 100
佛 100
函件 100
这句 100
出入 100
颗 100
腐@@ 100
激发 100
III 100
以使 100
瘤 100
企业@@ 100
联阿 100
资源分配 100
os 100
英格兰 100
161 100
一节 100
澳门 100
肥 100
卢 100
av@@ 100
各项措施 100
一同 100
危 100
红十字国际委员会 100
漂@@ 100
表决权 100
不敢 100
十周年 100
操纵 100
培训中心 100
显而易见 100
特许 100
胺 100
醉 100
南斯拉夫联盟共和国 100
太空 100
宗教信仰 100
废 100
扣 100
牧师 100
第六@@ 100
创造性 100
沉 100
系统性 100
基督 100
迫@@ 100
版@@ 100
出身 100
联络小组 100
科技@@ 100
社交 100
休假 100
而来 100
妥 100
手里 100
电话@@ 100
走廊 100
不论是 100
监督机构 100
视觉 100
新生儿 100
杀人 100
劝@@ 100
族@@ 100
苏格兰 100
表述 100
规 100
SC 100
莎@@ 100
第二项 100
讲述 100
墨@@ 100
敌@@ 100
竞赛 100
请愿 100
踏@@ 100
垄断 100
大陆架 100
车站 100
尾 100
届满 100
发票 100
中华@@ 100
该处 100
遍@@ 100
Ab@@ 100
理事国 100
树木 100
枯@@ 100
EC 100
乔 100
原有 100
桌 100
赠@@ 100
us@@ 100
原子 100
宿 100
安德@@ 100
拘@@ 100
密码 100
辨@@ 100
商标 100
乳 100
殖民主义 100
基石 100
斥 100
多元 100
座位 100
昨日 100
现金@@ 100
贸易协定 100
普遍存在 100
暴 100
卸@@ 100
史密斯 100
应收 100
第九@@ 100
七条 100
阿拉伯语 100
受援国 100
日向 100
购物 100
226 100
第二款 100
阿拉伯@@ 100
脂肪 100
仆人 100
杰 100
访@@ 100
卡拉 100
智力 100
盛 100
列报 100
耐心 100
脊@@ 100
树立 100
财 100
饭店 100
联大 100
被判 100
让@@ 100
逾期 100
出庭 100
独联体 100
六条 100
Mo@@ 100
停留 100
240 100
仲裁庭 100
据估计 100
生日 100
庆@@ 100
滞@@ 100
特派 100
疑 100
穷 100
布朗 100
操作@@ 100
耳 100
在家 100
25@@ 100
保护环境 100
红十字会 100
保障@@ 100
关系@@ 100
提高效率 100
载入 100
恒@@ 100
陪同 100
饭@@ 100
定居者 100
竞争法 100
控制系统 100
活动@@ 100
监护人 100
虫@@ 100
全力支持 100
绝 100
默 100
分析师 100
密集 100
降至 100
不同于 100
促 100
新喀里多尼亚 100
行政长官 100
医药 100
一番 100
尘 100
检查站 100
过多 100
急需 100
雷达 100
18.@@ 100
一声 100
之友 100
不住 100
活着 100
至迟 100
相处 100
万元 100
内战 100
路径 100
已知 100
欲@@ 100
跨越 100
增大 100
污水 100
减至 100
拿到 100
摩纳哥 100
锦@@ 100
le@@ 100
书面@@ 100
总收入 100
朗@@ 100
铜@@ 100
严重性 100
英雄 100
风暴 100
st@@ 100
棒@@ 100
报价 100
审计报告 100
时所 100
移植 100
参与性 100
估价 100
盒 100
真理 100
唯@@ 100
氨@@ 100
湖区 100
怀 100
神圣 100
结核病 100
钥匙 100
善 100
科摩罗 100
de@@ 100
交流信息 100
基伍 100
长大 100
侦@@ 100
八年 100
创收 100
半数 100
摘@@ 100
夏季 100
米尔 100
餐馆 100
本项 100
侦察机 100
列明 100
哥 100
回忆 100
大声 100
外汇@@ 100
邻居 100
畅@@ 100
控告 100
文档 100
采集 100
豆@@ 100
业主 100
废料 100
条中 100
交通运输 100
特别强调 100
进出 100
1976 100
边界@@ 100
这条 100
管理员 100
劫@@ 100
非盟 100
星期六 100
夹 100
履约 100
激光 100
主义者 100
慢性 100
贫民窟 100
例@@ 100
∶ 100
一对 100
勾@@ 100
ap@@ 100
欣@@ 100
织 100
自治@@ 100
逃 100
PRST 100
大大@@ 100
炼@@ 100
演习 100
表示满意 100
赶 100
镇压 100
佛得角 100
毁灭 100
服从 100
苯@@ 100
丢@@ 100
淋@@ 100
殿 100
氧@@ 100
ir 100
积 100
RC 100
为本 100
人称 100
走出 100
桑 100
终身 100
黄 100
尿@@ 100
储备金 100
疼痛 100
精度 100
履行职责 100
法制 100
联合国@@ 100
208 100
析 100
益@@ 100
古代 100
技术咨询 100
押@@ 100
头上 100
159 100
为例 100
五名 100
总会 100
特有 100
六种 100
医务 100
屏幕 100
随函 100
眼前 100
继续执行 100
九个 100
1.3 100
舒服 100
日志 100
ov 100
无意 100
192 100
性行为 100
时光 100
头脑 100
详细@@ 100
新鲜 100
讨@@ 100
过渡政府 100
阀 100
志愿者 100
柏林 100
出资 100
一根 100
不能@@ 100
欺骗 100
大胆 100
口粮 100
喻 100
湿 100
流域 100
份@@ 100
消费量 100
撤消 100
句@@ 100
海运 100
组成员 100
公主 100
土族 100
平行 100
爆炸@@ 100
合金 100
凸@@ 100
骗@@ 100
严重威胁 100
布拉@@ 100
禁试 100
抓 100
蛇 100
致函 100
联索 100
姐妹 100
该股 100
国家主权 100
臭氧层 100
控制措施 100
高级@@ 100
估@@ 100
表示遗憾 100
圣诞节 100
斯蒂@@ 100
范例 100
IV 100
肌肉 100
悉 100
槽 100
欺@@ 100
祝 100
贯穿 100
转达 100
情节 100
专注 100
前者 100
总督 100
201 100
it 100
缘 100
空间@@ 100
绕@@ 100
生育率 100
温暖 100
露出 100
邦@@ 100
兰政府 100
冬天 100
游行 100
孕@@ 100
该案 100
不见 100
总的来说 100
差额 100
日本政府 100
我愿 100
仿佛 100
不行 100
众议院 100
友@@ 100
国情 100
暗 100
重债 100
浸@@ 100
菜@@ 100
两倍 100
电影@@ 100
165 100
值得注意 100
敌方 100
矿业 100
脂 100
隐私 100
一新 100
第一份 100
翁 100
贝尔 100
伪@@ 100
缩 100
选票 100
son 100
极其重要 100
春天 100
兽 100
波黑 100
230 100
腺 100
政治家 100
传染 100
辑 100
多久 100
毕竟 100
Bo@@ 100
等到 100
SP 100
打死 100
堪@@ 100
桌@@ 100
岩石 100
大门 100
浅@@ 100
标识 100
葬 100
全新 100
耗 100
制成 100
少量 100
四名 100
审慎 100
匆@@ 100
当年 100
Bar@@ 100
沙漠 100
椅子 100
教室 100
斜@@ 100
妹妹 100
宏@@ 100
明星 100
导向 100
扔 100
越境 100
遥@@ 100
om@@ 100
扬@@ 100
检讨 100
饱@@ 100
沿 100
1972 100
私 100
前体 100
助于 100
意识形态 100
货运 100
审前 100
提示 100
汇集 100
性格 100
分工 100
分成 100
味道 100
怎么办 100
丙@@ 100
水道 100
主管机关 100
简易 100
通讯@@ 100
监测@@ 100
评级 100
第八 100
时尚 100
务实 100
济@@ 100
公营 100
腰@@ 100
车队 100
ya 100
冻 100
集装箱 100
侵入 100
美洲国家组织 100
目睹 100
败@@ 100
里斯 100
单个 100
悄@@ 100
参见 100
究 100
马丁 100
事例 100
多万 100
情景 100
条所 100
推 100
货币政策 100
伪造 100
珠 100
不上 100
粮食@@ 100
扣除 100
沃尔@@ 100
密切@@ 100
行星 100
阻挠 100
最高@@ 100
维奇 100
颇 100
反叛 100
稍@@ 100
佳@@ 100
伯利兹 100
二次 100
坝 100
幻@@ 100
录像 100
名叫 100
劲 100
永久性 100
透 100
术@@ 100
生态@@ 100
内政 100
巧@@ 100
斯坦@@ 100
帮忙 100
椅 100
例句 100
专业知识 100
劳工@@ 100
疏@@ 100
宜 100
平方米 100
分阶段 100
信用卡 100
累计 100
Car@@ 100
一次性 100
上来 100
闹 100
效能 100
复合 100
挺 100
不太 100
义务教育 100
川 100
野生 100
16.@@ 100
芬@@ 100
la@@ 100
赴 100
热线 100
糊@@ 100
艺术@@ 100
概括 100
167 100
巾 100
竭 100
二条 100
淡水 100
琳 100
第一项 100
发射@@ 100
四次 100
核对 100
程序性 100
260 100
敏 100
滴 100
缺口 100
罪名 100
税率 100
逃避 100
德拉 100
闭 100
213 100
最长 100
士学位 100
实习 100
飘@@ 100
项目@@ 100
彼@@ 100
乌 100
余地 100
两家 100
厌@@ 100
址 100
暖@@ 100
担@@ 100
否决 100
哥哥 100
禁毒署 100
ba 100
舆论 100
5.1 100
巴斯 100
会计@@ 100
鹿 100
189 100
幽@@ 100
芬 100
每届 100
经营者 100
界面 100
切实可行 100
等国 100
营造 100
牧@@ 100
结算 100
筛选 100
低成本 100
地下水 100
专题@@ 100
利害关系 100
容许 100
接口 100
豪@@ 100
3.5 100
全民 100
床上 100
总产值 100
中为 100
机密 100
美联储 100
183 100
更是 100
这名 100
封闭 100
平等待遇 100
抵 100
瑞 100
辩 100
简称 100
三角 100
挂@@ 100
敌对 100
磨 100
la 100
法定@@ 100
拓展 100
流产 100
㈤ 100
捷 100
绝望 100
被告人 100
室内 100
联络点 100
175 100
变形 100
第二十四届 100
搬迁 100
泥 100
兵力 100
横向 100
印度洋 100
音乐@@ 100
诚意 100
项目管理 100
4.5 100
四分之一 100
惩戒 100
携手 100
妇 100
集合 100
242 100
申请者 100
胎 100
东欧国家 100
优先权 100
坦 100
也@@ 100
提问 100
浅 100
盗@@ 100
199 100
奉行 100
保守 100
Jo@@ 100
敬 100
三年期 100
蛋白质 100
Di@@ 100
埋 100
此基础 100
荣@@ 100
残酷 100
深表 100
24@@ 100
211 100
一代 100
差旅费 100
愿@@ 100
扫雷 100
正好 100
最早 100
名词 100
黄色 100
卜@@ 100
广播@@ 100
投票@@ 100
敢 100
供其 100
刊登 100
短暂 100
奉@@ 100
结成 100
名誉 100
周一 100
此处 100
起飞 100
一处 100
一杯 100
保管 100
牢@@ 100
里奥 100
第二十六条 100
荣 100
164 100
原本 100
管理制度 100
奔@@ 100
结构@@ 100
付给 100
冠@@ 100
尼斯 100
跌 100
希尔 100
锡@@ 100
届时 100
宣告 100
汽@@ 100
缉获 100
高等@@ 100
事务局 100
恋@@ 100
排列 100
共和党 100
校园 100
温和 100
划 100
商业银行 100
牲畜 100
键 100
17.@@ 100
公平@@ 100
均@@ 100
弃@@ 100
正当@@ 100
协力 100
地板 100
债@@ 100
地为 100
研究生 100
年期 100
振动 100
块@@ 100
码@@ 100
检索 100
启用 100
奥斯@@ 100
拐@@ 100
方程 100
监护 100
扫 100
酯 100
既有 100
颈@@ 100
迈克尔 100
不动产 100
仿@@ 100
冻@@ 100
宗@@ 100
险@@ 100
寻@@ 100
臂 100
锋 100
ed 100
着重于 100
手指 100
火灾 100
魅力 100
固定@@ 100
q 100
就此结束 100
联合@@ 100
一遍 100
种族隔离 100
5.2 100
id 100
上半年 100
域@@ 100
监督@@ 100
索偿 100
获释 100
铸@@ 100
介绍性 100
赖 100
163 100
况 100
咖啡@@ 100
廉价 100
贿赂 100
一阵 100
商品价格 100
XV 100
第七次 100
伏@@ 100
在外 100
增值 100
称之为 100
目光 100
离子 100
争 100
以求 100
国际金融 100
划定 100
制度化 100
联络处 100
Sal@@ 100
227 100
不时 100
隙 100
吃惊 100
阿拉伯人 100
来讲 100
四周 100
般的 100
职司 100
173 100
君@@ 100
天使 100
第六十@@ 100
建成 100
驻科 100
发表声明 100
有何 100
构成威胁 100
例外情况 100
租用 100
兑 100
可取 100
yah 100
俗@@ 100
队员 100
塑@@ 100
咨询机构 100
紧急状态 100
通往 100
人家 100
牧 100
AR@@ 100
海域 100
颇@@ 100
农业部门 100
适用范围 100
深远 100
第十七条 100
署@@ 100
az@@ 100
诊@@ 100
之害 100
或非 100
Su@@ 100
几 100
命名 100
咨询@@ 100
巴尔@@ 100
辩护律师 100
先例 100
承运人 100
谎 100
递 100
倦 100
掩盖 100
污 100
倍@@ 100
巨大@@ 100
人身@@ 100
帽子 100
某项 100
掩@@ 100
阿拉伯文 100
驾驶@@ 100
172 100
不合理 100
武装力量 100
第六十九 100
昨晚 100
无法@@ 100
整 100
欧洲@@ 100
汤@@ 100
设计@@ 100
一层 100
骂 100
折磨 100
此一 100
独自 100
麦 100
跟着 100
收支 100
数百万 100
脂@@ 100
逝 100
登记处 100
签署国 100
4.3 100
射击 100
少于 100
限定 100
猜 100
Me@@ 100
菌@@ 100
De@@ 100
综合@@ 100
定型 100
熊@@ 100
工作日 100
乃至 100
铅 100
机理 100
白宫 100
福利@@ 100
回事 100
悲惨 100
伴 100
该科 100
hi@@ 100
ts 100
民法 100
赤道几内亚 100
具@@ 100
更高 100
一切@@ 100
牌@@ 100
出境 100
执政 100
昏@@ 100
电信@@ 100
农业@@ 100
受损 100
奢@@ 100
爵士 100
老龄化 100
负担得起 100
我来 100
注册@@ 100
生产商 100
道歉 100
奴隶制 100
检疫 100
阿拉@@ 100
就业@@ 100
轻易 100
庭@@ 100
悲伤 100
十个 100
模板 100
借贷 100
宪 100
熊 100
请问 100
保留意见 100
酒吧 100
汇总 100
贝鲁特 100
下落 100
径@@ 100
做些 100
创造条件 100
幕@@ 100
激动 100
祈祷 100
参议员 100
管理者 100
特别@@ 100
郎 100
合作项目 100
阳 100
交换意见 100
完全符合 100
拓@@ 100
姓 100
第五章 100
联系@@ 100
已婚 100
涨@@ 100
转运 100
发生变化 100
辞@@ 100
168 100
个性 100
天主教 100
第九 100
轴@@ 100
猜@@ 100
词语 100
苏里南 100
斯威士兰 100
积压 100
韩@@ 100
单身 100
氢@@ 100
结果显示 100
人工@@ 100
占用 100
第四十九届 100
凡是 100
姐姐 100
汤 100
各届 100
船上 100
页面 100
结社自由 100
布鲁@@ 100
退休金 100
氧化 100
记载 100
诗@@ 100
叛乱 100
无罪 100
瘾 100
团聚 100
苍@@ 100
萨赫勒 100
数码 100
负有责任 100
实施@@ 100
训练@@ 100
酮 100
经验@@ 100
调解人 100
图表 100
大家庭 100
乎@@ 100
骄傲 100
速效 100
节能 100
鼻@@ 100
内向 100
审计@@ 100
Le@@ 100
19.@@ 100
固 100
一枚 100
塞浦路斯共和国 100
零售 100
尖 100
掌@@ 100
流行@@ 100
com 100
无权 100
信仰自由 100
第一批 100
出示 100
双手 100
残 100
琴 100
ó 100
握@@ 100
精神药物 100
美洲@@ 100
陪伴 100
重大贡献 100
愚蠢 100
原谅 100
斯坦 100
虚假 100
说来 100
神秘 100
互利 100
产权 100
保育 100
大力支持 100
榜样 100
升高 100
局限于 100
第三节 100
248 100
巧克力 100
海洋@@ 100
放到 100
高昂 100
宪政 100
那边 100
自然人 100
几点 100
土耳其@@ 100
垂@@ 100
符号 100
经典 100
阶 100
防扩散 100
北京@@ 100
洁@@ 100
ES 100
薪水 100
行列 100
太阳@@ 100
封信 100
武器@@ 100
171 100
培@@ 100
浓缩 100
焦@@ 100
新政府 100
蜂@@ 100
反过来 100
财务管理 100
价格@@ 100
总表 100
统计局 100
先后 100
千克 100
消防@@ 100
盈利 100
两类 100
起点 100
一章 100
搬 100
ed@@ 100
擦@@ 100
偶尔 100
多达 100
渐渐 100
捷@@ 100
浪@@ 100
来临 100
家务 100
开枪 100
全氟 100
极度 100
几周 100
剑 100
崇高 100
轰炸 100
账@@ 100
以色列国防军 100
原告 100
寻 100
国务@@ 100
人事@@ 100
痕 100
英国@@ 100
不准 100
涉 100
缓和 100
贮@@ 100
业界 100
伦理 100
取缔 100
法律依据 100
Sha@@ 100
盟@@ 100
最具 100
耳朵 100
说出 100
检查@@ 100
漏@@ 100
态@@ 100
礼貌 100
不定 100
庄@@ 100
电流 100
处分 100
房地 100
月球 100
交货 100
本函 100
碰到 100
巴勒斯坦国 100
脉@@ 100
凉 100
到位 100
恋 100
肤色 100
认 100
议会选举 100
帝国 100
地理信息系统 100
摊@@ 100
证据@@ 100
模 100
贯彻@@ 100
高校 100
准确性 100
排名 100
８ 100
调查员 100
随之 100
狱 100
塑 100
警察@@ 100
174 100
选手 100
零件 100
折扣 100
生病 100
185 100
继续下去 100
顾 100
1969 100
下放 100
４ 100
会计师 100
容量 100
庄严 100
西非国家 100
邻 100
骑 100
住户 100
十一 100
小国 100
侵蚀 100
烈@@ 100
发布会 100
复 100
卸 100
犹太 100
警惕 100
一案 100
以致 100
应立即 100
灰 100
罐@@ 100
缺席 100
超级 100
其管辖 100
开来 100
溢@@ 100
宿@@ 100
应用@@ 100
203 100
敢@@ 100
娃 100
好象 100
街上 100
1.4 100
虑 100
Dec 100
宪@@ 100
随意 100
件@@ 100
玉米 100
孟@@ 100
拜 100
兑换 100
阿卜耶伊 100
1951 100
分割 100
合计 100
努 100
埃尔 100
问道 100
辱 100
爆@@ 100
一艘 100
初等教育 100
侮辱 100
防卫 100
公共汽车 100
安静 100
SA@@ 100
盲@@ 100
赞@@ 100
转入 100
熟 100
运费 100
锡 100
马拉 100
及早 100
吹 100
访谈 100
会面 100
颁@@ 100
sh@@ 100
广阔 100
联发援 100
贸@@ 100
抛弃 100
法郎 100
em@@ 100
在一起 100
遥远 100
都市 100
战士 100
朵 100
啤酒 100
生理 100
214 100
单词 100
阅 100
股权 100
训 100
努力@@ 100
哈利 100
树林 100
力图 100
卫队 100
增列 100
干燥 100
评审 100
金融体系 100
预备 100
两大 100
注视 100
勘@@ 100
男童 100
噪音 100
联格 100
非洲统一组织 100
坦克 100
外勤人员 100
应于 100
发电@@ 100
顺 100
基本法 100
动脉 100
生殖器 100
并入 100
所能 100
无限 100
Gu@@ 100
公共秩序 100
下表 100
证券@@ 100
国防军 100
压迫 100
鸿沟 100
前来 100
Na@@ 100
坐下 100
贬值 100
地方@@ 100
Sh@@ 100
最有 100
每人 100
法医 100
放置 100
卓@@ 100
定量 100
百分点 100
卵@@ 100
它@@ 100
想想 100
输 100
食用 100
安全措施 100
iz@@ 100
灾后 100
索引 100
水泥 100
消极影响 100
资源@@ 100
通行 100
be 100
ot@@ 100
战术 100
自我@@ 100
畜@@ 100
维尔京群岛 100
仁@@ 100
控诉 100
思路 100
再生 100
压缩 100
摆在 100
2.6 100
各个领域 100
误差 100
罐 100
与非 100
假日 100
忌 100
CE@@ 100
人员编制 100
杯@@ 100
181 100
追查 100
中等教育 100
参与@@ 100
腾 100
发性 100
电站 100
低下 100
读书 100
圣卢西亚 100
增添 100
技术人员 100
格局 100
微生物 100
部位 100
专利@@ 100
缝@@ 100
受伤害 100
点儿 100
裤 100
乏@@ 100
九年 100
失效 100
机会均等 100
小组会议 100
中应 100
出缺 100
中介 100
中间@@ 100
北非 100
访问团 100
熔@@ 100
精 100
所罗门群岛 100
眉@@ 100
瞧 100
缩减 100
罗伯特 100
本港 100
营业@@ 100
干什么 100
农发 100
循@@ 100
殖民 100
下半年 100
序列 100
误 100
扩充 100
斑@@ 100
博客 100
除此之外 100
克林顿 100
泪@@ 100
热烈 100
杨@@ 100
调用 100
提供者 100
3.4 100
彻底消除 100
报告@@ 100
腐 100
利益冲突 100
应从 100
生物学 100
191 100
灌溉 100
普遍认为 100
试验@@ 100
忠诚 100
挪@@ 100
管理处 100
186 100
不符 100
空气污染 100
关键性 100
制剂 100
幸 100
教廷 100
策 100
美属 100
典@@ 100
磁 100
薪资 100
联保 100
聘请 100
184 100
即决 100
调度 100
偿付 100
廷 100
梯 100
马克@@ 100
瓦努阿图 100
猎 100
研究者 100
途@@ 100
核设施 100
177 100
健 100
刷 100
感染者 100
所称 100
练@@ 100
安慰 100
判处死刑 100
得多 100
润@@ 100
汗@@ 100
东非 100
有效期 100
北极 100
喀布尔 100
政策措施 100
造福 100
丢 100
第十九届 100
行为@@ 100
RES 100
九龙 100
志 100
肆@@ 100
链@@ 100
建立联系 100
四项 100
下达 100
串 100
双语 100
尊@@ 100
池@@ 100
壁@@ 100
夜晚 100
斯克 100
碎@@ 100
记录@@ 100
il 100
偏离 100
炉@@ 100
联合体 100
其所 100
法律法规 100
烦 100
事务所 100
公开@@ 100
斗@@ 100
栋 100
查验 100
汽车@@ 100
奋@@ 100
市区 100
旷@@ 100
德尔 100
最少 100
视听 100
加共体 100
精算 100
薪@@ 100
人身安全 100
涌@@ 100
第八@@ 100
Sub 100
改良 100
称作 100
股价 100
178 100
祝福 100
银行业 100
码头 100
囊@@ 100
233 100
就算 100
有所改善 100
法律义务 100
那次 100
肢 100
幻想 100
览 100
坚实 100
海水 100
电器 100
225 100
不顾 100
在实践中 100
多种@@ 100
牌照 100
纪念@@ 100
跳舞 100
四方 100
现代@@ 100
第纳尔 100
杂 100
重要@@ 100
低估 100
动性 100
汗 100
450 100
吓@@ 100
香港特别行政区 100
寒@@ 100
篮@@ 100
奖金 100
虽@@ 100
重新考虑 100
酒精 100
从业人员 100
动词 100
学费 100
稳步 100
船长 100
这张 100
你好 100
决不 100
每当 100
教育领域 100
时常 100
各不相同 100
图瓦卢 100
破裂 100
领先 100
乘坐 100
使用权 100
数年 100
IC@@ 100
熟练 100
奶 100
庆 100
死去 100
218 100
岗 100
映@@ 100
栏@@ 100
手工 100
五条 100
指挥@@ 100
英国人 100
全都 100
断定 100
微软 100
蜜 100
遗传@@ 100
县级 100
等候 100
津 100
开关 100
抬@@ 100
协 100
坑 100
大屠杀 100
欧共体 100
涂 100
贷 100
轻微 100
187 100
周五 100
报名 100
育儿 100
岛上 100
惠 100
天基 100
六月 100
民用航空 100
― 100
圈@@ 100
评委 100
识@@ 100
相关者 100
引 100
搜寻 100
略有 100
之地 100
晚餐 100
率为 100
个人资料 100
中说 100
使该 100
派别 100
协调@@ 100
逐字 100
第十一条 100
付诸 100
执行官 100
精神病 100
20.@@ 100
律师协会 100
ir@@ 100
伍@@ 100
委任 100
勇@@ 100
开辟 100
深深 100
是非 100
户主 100
罗姆 100
se@@ 100
氏@@ 100
会议厅 100
覆盖面 100
占领军 100
商品@@ 100
枝 100
研究员 100
耀 100
抵触 100
总署 100
CMP 100
接管 100
蚊@@ 100
详细情况 100
惜 100
相机 100
一般来说 100
儿童@@ 100
得益于 100
拖 100
206 100
and@@ 100
只好 100
旗 100
隧道 100
176 100
寄 100
公职 100
勃@@ 100
蜜@@ 100
衡 100
东方 100
谷歌 100
意大利@@ 100
渡@@ 100
衷@@ 100
度假 100
流失 100
案子 100
祝愿 100
村民 100
陪 100
安南 100
规划系统 100
分支 100
培育 100
浴@@ 100
当今世界 100
犬 100
空军 100
第十五届 100
联伊 100
对称 100
监察组 100
敏感性 100
哈马斯 100
奋斗 100
海洋生物 100
却@@ 100
管局 100
vi@@ 100
不结盟 100
优 100
多于 100
be@@ 100
乐意 100
妻 100
城乡 100
拔@@ 100
202 100
丑 100
俱@@ 100
商会 100
兆 100
它会 100
诞生 100
心脏病 100
深入@@ 100
ga 100
凭@@ 100
水中 100
亨利 100
克制 100
膝@@ 100
预警系统 100
邻近 100
另一方 100
梯@@ 100
未成年 100
电讯 100
艺@@ 100
讨 100
外聘 100
年龄组 100
煤炭 100
酷 100
提供@@ 100
期限内 100
发生率 100
缴@@ 100
比较@@ 100
焦 100
一期 100
参考@@ 100
理学 100
德斯 100
歌曲 100
强烈@@ 100
有望 100
颗粒 100
修订@@ 100
母婴 100
数十@@ 100
逾 100
五次 100
长久 100
丢失 100
全人类 100
陷 100
开启 100
文物 100
一封 100
Z 100
ana 100
饰@@ 100
丛@@ 100
冬季 100
地球@@ 100
墙上 100
焦虑 100
广告@@ 100
国民经济 100
牙齿 100
222 100
天堂 100
法律效力 100
增订 100
炼 100
猪@@ 100
198 100
十五 100
尚待 100
混合物 100
信息管理 100
大学@@ 100
遣 100
0.7 100
版权 100
第十六届 100
因子 100
少年@@ 100
起码 100
反应堆 100
评定 100
有所不同 100
公司@@ 100
综@@ 100
上校 100
元首 100
令人担忧 100
子弹 100
新建 100
– 100
国际性 100
随机 100
加勒比地区 100
废水 100
迁徙 100
统一@@ 100
阿里 100
5.3 100
二十年 100
杆@@ 100
li@@ 100
声誉 100
入口 100
卑@@ 100
见证 100
207 100
et 100
监督管理 100
卫生部门 100
添@@ 100
斯基 100
匮乏 100
完毕 100
弹道导弹 100
Co@@ 100
加倍努力 100
op@@ 100
充分发挥 100
194 100
千美元 100
口语 100
性取向 100
此举 100
韦 100
243 100
喀@@ 100
极了 100
怒@@ 100
丧@@ 100
各种@@ 100
阿鲁沙 100
杂项 100
如上 100
走过 100
欢乐 100
腾@@ 100
规范性 100
稳 100
6.2 100
戏剧 100
提出申请 100
秋@@ 100
综管 100
搜集 100
电视节目 100
玻璃@@ 100
知名 100
商业性 100
灾难性 100
男女@@ 100
零部件 100
伯爵 100
装运 100
借款 100
第十五条 100
窃 100
节点 100
宗教自由 100
移动电话 100
蔽 100
体育运动 100
ing 100
w 100
铝@@ 100
代表大会 100
性化 100
区政府 100
审案 100
涅@@ 100
摸@@ 100
章@@ 100
外籍 100
爬@@ 100
孤独 100
挫折 100
le 100
布林迪西 100
新年 100
贝尔格莱德 100
跃 100
205 100
哲@@ 100
典礼 100
减排 100
卓越 100
听证会 100
成本@@ 100
暴力@@ 100
段时间 100
经济衰退 100
揭@@ 100
烤@@ 100
高出 100
乐队 100
Ali 100
效用 100
７ 100
6.1 100
服务提供者 100
拳@@ 100
锐 100
６ 100
AN@@ 100
冠 100
夜间 100
小麦 100
石棉 100
倾听 100
年会 100
束@@ 100
哥伦比亚@@ 100
塞舌尔 100
审定 100
188 100
193 100
英联邦 100
夏 100
布什总统 100
时效 100
见本 100
全力 100
联络@@ 100
错过 100
第十七届 100
簿 100
1963 100
上个月 100
炸药 100
4.4 100
充实 100
控制权 100
衔 100
叙@@ 100
高风险 100
以至于 100
垫 100
阔 100
仇@@ 100
指导@@ 100
1325 100
限期 100
居住@@ 100
蓬@@ 100
警务人员 100
全年 100
仑 100
慎@@ 100
果断 100
第一年 100
经济合作与发展组织 100
谷@@ 100
209 100
偶然 100
兴奋剂 100
功率 100
瓦尔 100
竟然 100
笼@@ 100
陶@@ 100
听众 100
存货 100
汉语 100
维持@@ 100
邀@@ 100
间隔 100
争辩 100
历来 100
当地@@ 100
比重 100
电压 100
大鼠 100
学到 100
此人 100
一款 100
产业@@ 100
有机@@ 100
赛季 100
余下 100
纯 100
摆 100
订购 100
屋顶 100
驶@@ 100
人心 100
升值 100
机票 100
有者 100
平方公里 100
擦 100
款人 100
跨境 100
未曾 100
亿人 100
佐@@ 100
狼 100
南极 100
枢@@ 100
SS 100
暖 100
竞争对手 100
纺织品 100
何处 100
始于 100
检察 100
男生 100
179 100
一头 100
干部 100
奥林匹克 100
考绩 100
萨米 100
强加 100
无线@@ 100
进化 100
联合声明 100
竭尽全力 100
敦@@ 100
漏洞 100
现阶段 100
仔 100
国主义 100
拘留所 100
196 100
新生 100
件事 100
所得税 100
教科书 100
人道 100
维生素 100
市政府 100
转为 100
湿地 100
喂 100
符合国际 100
AP@@ 100
点钟 100
采 100
资企业 100
分支机构 100
午餐 100
所处 100
即时 100
调拨 100
运动@@ 100
容纳 100
帽 100
就职 100
面谈 100
从来不 100
嘉@@ 100
多余 100
社区@@ 100
母语 100
马尔@@ 100
候 100
现时 100
海峡 100
磅 100
课堂 100
处长 100
奇迹 100
迈进 100
SBI 100
伤残 100
压制 100
愈 100
懒@@ 100
for 100
意见@@ 100
有限@@ 100
碱 100
蓝 100
滥用@@ 100
纽约@@ 100
一整套 100
挨@@ 100
映 100
ec@@ 100
优惠@@ 100
第四十八届 100
喀土穆 100
均匀 100
大城市 100
第十八条 100
翻修 100
赏 100
预料 100
伴@@ 100
原材料 100
寡妇 100
还给 100
柯@@ 100
氛围 100
外交官 100
傻@@ 100
教员 100
迟到 100
道德@@ 100
根据上述 100
善意 100
葡萄酒 100
质量@@ 100
克尔 100
罢@@ 100
一览表 100
来信 100
Con@@ 100
屏@@ 100
染 100
无限期 100
公正性 100
280 100
必将 100
营运 100
军用 100
大厅 100
亡@@ 100
总协定 100
剖@@ 100
密切联系 100
过后 100
频道 100
又@@ 100
妇女@@ 100
极少 100
部族 100
不该 100
千万 100
持续增长 100
表情 100
留给 100
原油 100
不佳 100
予@@ 100
有序 100
221 100
拒@@ 100
有所@@ 100
筋 100
纷纷 100
见表 100
起因 100
与否 100
棵 100
228 100
舰@@ 100
阴影 100
圣诞@@ 100
第十八届 100
本土 100
6.5 100
事后 100
克莱@@ 100
滩 100
贵方 100
ou 100
五岁 100
纳斯 100
绘@@ 100
敌军 100
匠 100
单纯 100
卜 100
奋 100
科研 100
呼吸@@ 100
检查和 100
奏@@ 100
矩 100
241 100
ina 100
复杂@@ 100
＿ 100
橡@@ 100
遍 100
服兵役 100
械 100
橡胶 100
布拉 100
幼儿园 100
弟弟 100
抱@@ 100
界线 100
Be@@ 100
短语 100
根本原因 100
邪恶 100
ud@@ 100
乐趣 100
免疫@@ 100
学业 100
昆@@ 100
分解 100
窃@@ 100
诽谤 100
条约法 100
炎@@ 100
弥@@ 100
今年@@ 100
代人 100
法律咨询 100
要说 100
稍 100
te 100
印度@@ 100
医务人员 100
后期 100
负荷 100
驱 100
＊ 100
姿态 100
盯 100
玉@@ 100
羽@@ 100
两架 100
204 100
吸入 100
渔船 100
同盟 100
墨 100
总人口 100
绘制 100
牢固 100
流向 100
不去 100
仓@@ 100
角度看 100
防空 100
日趋 100
负责管理 100
仰@@ 100
国家机关 100
晚些时候 100
高峰 100
主教 100
斯科@@ 100
无人@@ 100
空调 100
多边条约 100
翻 100
怎@@ 100
株 100
三级 100
鼻子 100
赚 100
疗 100
不然 100
虐 100
俄国 100
亟需 100
佩 100
辈 100
休会 100
5.5 100
ve@@ 100
200@@ 100
催化剂 100
基金组织 100
挖@@ 100
识字 100
耻 100
记入 100
挑衅 100
该段 100
无线 100
195 100
237 100
交流经验 100
大气层 100
妻@@ 100
ig@@ 100
酚 100
子里 100
中向 100
相连 100
换句话说 100
舞蹈 100
覆盖率 100
景观 100
柱@@ 100
航运 100
谓 100
me@@ 100
生活水准 100
上级 100
ine 100
持有人 100
越过 100
轮胎 100
谨向 100
轰@@ 100
否决权 100
周二 100
鼓掌 100
te@@ 100
赔偿金 100
一门 100
墓@@ 100
关节 100
选举法 100
公共安全 100
票据 100
变暖 100
堵@@ 100
大自然 100
学历 100
庇护所 100
钉 100
领导层 100
挑战性 100
磷 100
移民局 100
那条 100
Am@@ 100
生于 100
非线性 100
高等 100
一封信 100
CAT 100
最快 100
铝 100
光明 100
尝 100
拨出 100
产科 100
DNA 100
尺度 100
百慕大 100
除名 100
216 100
桌上 100
电缆 100
流感 100
赫尔@@ 100
羞@@ 100
严重@@ 100
力学 100
此刻 100
地理@@ 100
崇@@ 100
捍卫者 100
野蛮 100
安娜 100
7.5 100
股票@@ 100
吵@@ 100
215 100
弯@@ 100
扶养 100
承包 100
百分@@ 100
相等 100
囚@@ 100
过高 100
Man@@ 100
向上 100
改革方案 100
出国 100
加州 100
半球 100
塑造 100
大宗 100
幼 100
疯 100
法例 100
玫瑰 100
2.7 100
五月 100
居民@@ 100
太平洋地区 100
Ham@@ 100
鬼@@ 100
ur@@ 100
噪声 100
搅@@ 100
暗杀 100
缅甸政府 100
血统 100
掌 100
设计师 100
266 100
海滩 100
运动会 100
一月 100
半岛 100
吐@@ 100
媒体@@ 100
诗人 100
贪污 100
纳税人 100
保护法 100
可卡因 100
su@@ 100
刑事案件 100
烤 100
肿 100
行为人 100
广义 100
授 100
激素 100
睦@@ 100
回避 100
消费@@ 100
侵权 100
改正 100
访问期间 100
粒@@ 100
十年代 100
施 100
漠 100
喊@@ 100
巴西@@ 100
布莱@@ 100
安提瓜和巴布达 100
碰撞 100
MISC 100
符 100
第十四届 100
烦恼 100
赔偿额 100
丘@@ 100
ard 100
互补 100
医疗@@ 100
覆 100
举动 100
行政助理 100
柄 100
鞋@@ 100
外资 100
皆 100
绳 100
磷@@ 100
共同利益 100
保护主义 100
推销 100
查访 100
热爱 100
微妙 100
散步 100
269 100
并发症 100
无所@@ 100
三届 100
动乱 100
圣经 100
疲劳 100
但须 100
劫持 100
总经理 100
Se@@ 100
住房@@ 100
已获 100
诈@@ 100
四月 100
查尔斯 100
起着 100
全国@@ 100
小男孩 100
矩阵 100
谐@@ 100
基因@@ 100
挽救 100
易受 100
这部分 100
ma 100
传统@@ 100
总体@@ 100
春 100
渐进 100
牢 100
197 100
形容 100
众人 100
愚@@ 100
敬意 100
年度预算 100
洁净 100
灰色 100
小小的 100
泰 100
浪漫 100
狗@@ 100
信息中心 100
坡@@ 100
日报 100
聘@@ 100
芝加哥 100
妇人 100
所有者 100
接收@@ 100
经济援助 100
赐@@ 100
剥夺权利 100
疗@@ 100
覆@@ 100
普及@@ 100
标明 100
准入 100
动力学 100
赌@@ 100
替代性 100
而成 100
International 100
定向 100
原定 100
备用 100
早餐 100
大为 100
研究成果 100
碗 100
肥胖 100
驰 100
串@@ 100
253 100
棉@@ 100
aw@@ 100
se 100
赤@@ 100
口袋 100
非法行为 100
备件 100
葡萄牙@@ 100
一刻 100
挤 100
一九九@@ 100
当务之急 100
交由 100
宜@@ 100
恐@@ 100
绿 100
ci@@ 100
明确指出 100
阿拉木图 100
水源 100
唤 100
期刊 100
不良@@ 100
根深蒂固 100
过早 100
通货膨胀率 100
办公厅 100
金沙萨 100
物项 100
出差 100
南美洲 100
十三 100
反对党 100
各项政策 100
简历 100
泳@@ 100
不止 100
所在国 100
赢@@ 100
厕所 100
直辖市 100
住区 100
化管 100
硫 100
外长 100
味@@ 100
狮子 100
ani 100
阿克拉 100
加热 100
不可逆转 100
清真寺 100
三月 100
变性 100
野生动物 100
ba@@ 100
身份@@ 100
顺利@@ 100
he@@ 100
反驳 100
巨额 100
带给 100
言语 100
功 100
基会 100
废止 100
联席会议 100
遗弃 100
人中 100
伟 100
俄文 100
增幅 100
弯 100
琼斯 100
润 100
芒 100
司法部长 100
柏@@ 100
迫击@@ 100
家乡 100
晓@@ 100
化石 100
sa@@ 100
终结 100
促进@@ 100
粒子 100
蛋糕 100
通信@@ 100
僵@@ 100
出口国 100
ICCD 100
反思 100
棉花 100
每一项 100
发展局 100
膏 100
按钮 100
6.3 100
测试@@ 100
商用 100
感到高兴 100
账目 100
凯 100
好几个 100
星期天 100
空前 100
一分钟 100
中旬 100
长期存在 100
制服 100
休闲 100
光盘 100
打印 100
海湾 100
258 100
数以@@ 100
电话号码 100
著作 100
帕劳 100
报销 100
摄影 100
海关@@ 100
伟@@ 100
公海 100
减弱 100
眠 100
蜂 100
兴 100
棘手 100
氮 100
sc 100
操 100
非洲@@ 100
失衡 100
联合国国际贸易法委员会 100
阅@@ 100
国界 100
准予 100
异性 100
瓜@@ 100
梁 100
缘@@ 100
专业化 100
撕@@ 100
格林纳达 100
发生冲突 100
年纪 100
忠实 100
贸易谈判 100
礼拜 100
联东 100
英文@@ 100
解读 100
对话@@ 100
担负 100
逐 100
饿 100
交战 100
伐@@ 100
途中 100
惊奇 100
联苯 100
并行 100
au@@ 100
优良 100
克共和国 100
各政党 100
天体 100
私人@@ 100
克隆 100
人能 100
十字@@ 100
早婚 100
穿越 100
gh@@ 100
安道尔 100
热量 100
组织法 100
谦@@ 100
最终目标 100
渗透 100
竟 100
威廉 100
令人不安 100
管理制 100
代表权 100
仲裁员 100
价格上涨 100
合伙 100
左 100
共同市场 100
白人 100
激情 100
开幕式 100
排定 100
砖 100
无家可归 100
勃 100
服用 100
树脂 100
浮 100
反洗钱 100
巴厘 100
谱@@ 100
高速公路 100
写信 100
360 100
抵销 100
预订 100
0.5 100
中型 100
几分钟 100
化物 100
三维 100
周边 100
耕@@ 100
毫克 100
社会工作者 100
第一节 100
结核 100
一幅 100
一眼 100
变换 100
寒冷 100
被动 100
1948 100
意向 100
起初 100
陆军 100
滨 100
中毒 100
口气 100
善政 100
仪@@ 100
拉克 100
有过 100
进一步提高 100
包裹 100
时才 100
热点 100
硅@@ 100
宏观 100
欠款 100
宁愿 100
起源 100
上课 100
集体@@ 100
252 100
有效@@ 100
砍@@ 100
仅为 100
图书 100
Sam@@ 100
htm 100
汤加 100
加利福@@ 100
CA@@ 100
伊朗@@ 100
圣文森特 100
尊 100
一无@@ 100
中请 100
冷静 100
主持会议 100
表中 100
RE@@ 100
麦克 100
发现自己 100
燃 100
语法 100
ma@@ 100
密封 100
收缴 100
第一季度 100
劣@@ 100
荡@@ 100
亦@@ 100
印尼 100
两条 100
女王 100
~ 100
揭露 100
注定 100
积极支持 100
绘画 100
魔 100
年里 100
工艺@@ 100
德黑兰 100
264 100
书面形式 100
尔顿 100
合法化 100
捉@@ 100
闹@@ 100
亲密 100
紧急行动 100
苯 100
调和 100
ICEF 100
保全 100
查找 100
阿根廷@@ 100
马舍尔 100
退还 100
El 100
誓@@ 100
场景 100
接洽 100
马绍尔群岛 100
塘 100
静止 100
服务质量 100
鼠@@ 100
疼 100
警报 100
南太平洋 100
固体 100
胜任 100
昂 100
根本@@ 100
谋生 100
乏 100
桥@@ 100
相比之下 100
精英 100
带领 100
模仿 100
受到@@ 100
小型@@ 100
语音 100
避难 100
齿 100
多层面 100
烦@@ 100
空间科学 100
阀@@ 100
数学@@ 100
上将 100
内部@@ 100
长达 100
数次 100
绪 100
让步 100
IT 100
穴 100
① 100
马尔维@@ 100
外国投资 100
悬而未决 100
从此 100
伙 100
常任 100
抵御 100
罕见 100
调查报告 100
动植物 100
描绘 100
辩称 100
遇见 100
va 100
减小 100
217 100
CERD 100
克斯坦共和国 100
集成 100
乍 100
百万@@ 100
255 100
税款 100
圣诞 100
应以 100
高地 100
加以解决 100
真空 100
垃圾@@ 100
昂@@ 100
白天 100
掉@@ 100
本章 100
扇 100
上下 100
储 100
Ad@@ 100
税务@@ 100
获得@@ 100
Ba@@ 100
临时代办 100
备灾 100
贺@@ 100
卡拉巴赫 100
学术@@ 100
all@@ 100
七月 100
过剩 100
254 100
演奏 100
语言@@ 100
6.4 100
发展趋势 100
科菲 100
Har@@ 100
标准@@ 100
稻@@ 100
诚信 100
各界 100
建议书 100
伸出 100
水质 100
金属@@ 100
数据处理 100
ong 100
华尔街 100
焊接 100
第一期 100
拉美 100
制图 100
中是 100
为准 100
吴@@ 100
明显@@ 100
三国 100
卫星@@ 100
工商 100
Ra@@ 100
阶级 100
争夺 100
妊娠 100
账款 100
医疗卫生 100
垂直 100
犯罪人 100
国家有关 100
稍后 100
审计工作 100
战斗@@ 100
身心健康 100
降到 100
236 100
货币@@ 100
.. 100
223 100
ari@@ 100
五十 100
ho@@ 100
大街 100
第六章 100
第十六条 100
ko 100
务必 100
厨@@ 100
政变 100
滚 100
图案 100
归因于 100
互联@@ 100
海洛因 100
选用 100
立法机关 100
经营@@ 100
丝毫 100
免税 100
收缩 100
技 100
出口商 100
券 100
用地 100
跟进 100
詹姆斯 100
心理学 100
衫 100
狭窄 100
格林纳丁斯 100
三角@@ 100
仍旧 100
纪要 100
灭绝 100
战略伙伴 100
276 100
不容@@ 100
订阅 100
为限 100
住院 100
全盘 100
柴@@ 100
迫 100
受雇 100
渥太华 100
5.4 100
af@@ 100
再见 100
集群 100
总体而言 100
责成 100
不堪 100
印制 100
死者 100
范 100
论证 100
鸡蛋 100
尺 100
恐怖活动 100
服刑 100
平面 100
东南欧 100
办事 100
差价 100
创新性 100
情事 100
眼镜 100
gu@@ 100
专项 100
刊物 100
另见 100
科目 100
尔特 100
旺@@ 100
非常任 100
265 100
球场 100
运载工具 100
举例@@ 100
眼光 100
广为 100
斯托@@ 100
监督机制 100
第四节 100
di 100
qu@@ 100
大地 100
其为 100
民族团结 100
大道 100
不得@@ 100
仿 100
制定者 100
本月 100
屋子 100
浴 100
价值链 100
外表 100
宿舍 100
总监 100
珍贵 100
随便 100
难度 100
高尔@@ 100
磺酸 100
侯@@ 100
去除 100
非暴力 100
开头 100
迅@@ 100
与此@@ 100
参看 100
28.@@ 100
分在 100
思想@@ 100
最低@@ 100
不像 100
永恒 100
六次 100
意在 100
核武库 100
娱乐@@ 100
欲望 100
行人 100
十九 100
硕@@ 100
腐蚀 100
第二次世界大战 100
受访者 100
威慑 100
改划 100
不懈努力 100
大力@@ 100
译成 100
ke 100
耕地 100
咬 100
计入 100
两者之间 100
托人 100
深海 100
特许权 100
稳定@@ 100
九月 100
游说 100
现存 100
质量保证 100
296 100
ati@@ 100
电源 100
雨水 100
En@@ 100
移送 100
复合@@ 100
运载 100
列于 100
坚强 100
广播电台 100
增补 100
这套 100
掷 100
核爆炸 100
238 100
抖 100
捕获 100
摩西 100
普京 100
硝@@ 100
代谢 100
军用飞机 100
插 100
第十三条 100
性别@@ 100
盆地 100
禽流感 100
以内 100
战场 100
乃是 100
各次 100
砂@@ 100
讯息 100
澳@@ 100
辐@@ 100
231 100
引人注目 100
瑞士@@ 100
赎@@ 100
290 100
康 100
人发 100
删去 100
如上所述 100
有益于 100
谘询 100
接替 100
相互尊重 100
退回 100
韩 100
可观 100
括 100
敞@@ 100
期满 100
纵向 100
Ber@@ 100
全境 100
理论@@ 100
232 100
摔@@ 100
资深 100
借调 100
出租 100
质素 100
充 100
植物@@ 100
爱好 100
醒@@ 100
偏远 100
凭借 100
获得成功 100
辉 100
高频 100
专门@@ 100
使馆 100
非核心 100
星球 100
阿比让 100
Ko@@ 100
辛 100
不易 100
非军事@@ 100
UN@@ 100
沿岸 100
钓@@ 100
函@@ 100
财产权 100
髓 100
商讨 100
高温 100
沟 100
涌 100
高度@@ 100
交流@@ 100
出具 100
右 100
车间 100
224 100
不肯 100
常委会 100
剑@@ 100
持续性 100
资本主义 100
换言之 100
这块 100
希腊@@ 100
笨@@ 100
部份 100
地铁 100
扑@@ 100
摩尔多瓦 100
紧急状况 100
〕 100
建模 100
批准书 100
牢房 100
看不见 100
郊区 100
244 100
现实@@ 100
虚 100
罚@@ 100
五日 100
供电 100
董事长 100
连贯性 100
一是 100
应予以 100
非常重视 100
口译员 100
船员 100
娅 100
惑 100
扰乱 100
竞争@@ 100
萧条 100
辍学 100
撰文 100
获胜 100
好事 100
纳税 100
中所列 100
剧院 100
慈@@ 100
打交道 100
偏远地区 100
复议 100
国旗 100
政治化 100
兽@@ 100
己 100
悬挂 100
演说 100
鹰 100
之用 100
归咎于 100
犹@@ 100
稳固 100
栖@@ 100
公民投票 100
出租车 100
成品 100
无知 100
欧洲理事会 100
皮特 100
go 100
哀@@ 100
巡逻队 100
合法权益 100
恐怖袭击 100
2.8 100
半年 100
周三 100
哨 100
契@@ 100
搜@@ 100
体检 100
刑期 100
这事 100
革 100
有无 100
立法@@ 100
1950 100
CCW 100
例行 100
一时 100
步行 100
民间组织 100
详述 100
郁 100
生存@@ 100
用户@@ 100
纹@@ 100
谢您 100
1968 100
经受 100
辛烷 100
246 100
ME@@ 100
底部 100
开幕@@ 100
1966 100
努力提高 100
刑警 100
劳工法 100
政客 100
嵌@@ 100
葡萄@@ 100
这样@@ 100
事实证明 100
正常化 100
达格 100
逗留 100
霍 100
应享 100
计划@@ 100
挣@@ 100
威尔 100
伞 100
停滞 100
偿金 100
坠@@ 100
肩 100
峰@@ 100
心理健康 100
肌 100
世上 100
关怀 100
卢萨卡 100
作好 100
缺失 100
El@@ 100
一律 100
冗@@ 100
津@@ 100
吕@@ 100
日渐 100
清算 100
爱德@@ 100
独立@@ 100
藉 100
侵略@@ 100
吻合 100
总体目标 100
郑@@ 100
长者 100
陷于 100
247 100
珊瑚礁 100
ki 100
ren@@ 100
不动 100
40@@ 100
SBSTA 100
劣 100
清醒 100
潘基文 100
境地 100
收藏 100
方可 100
吩咐 100
藉@@ 100
唤@@ 100
阴 100
检察院 100
述@@ 100
本署 100
氯烃 100
泡@@ 100
保险费 100
表示同意 100
铅@@ 100
看过 100
调控 100
图形 100
安全网 100
丛 100
欧盟委员会 100
非法@@ 100
关爱 100
寂@@ 100
门槛 100
234 100
恶性@@ 100
示威者 100
连接@@ 100
军事法庭 100
检察@@ 100
箱子 100
连任 100
马车 100
平均数 100
战时 100
拜访 100
深处 100
中国人民@@ 100
泄漏 100
内务部 100
定制 100
恳@@ 100
生命周期 100
电气 100
织@@ 100
里约热内卢 100
亏损 100
哀 100
摘 100
该款 100
进修 100
下雨 100
线索 100
衬@@ 100
衬衫 100
__@@ 100
开火 100
总值 100
踢 100
这段 100
城里 100
架次 100
缩编 100
节奏 100
腰 100
全环 100
表示@@ 100
不及 100
con@@ 100
〔 100
全职 100
法则 100
继承@@ 100
日止 100
狂 100
结社 100
叙 100
联布 100
配件 100
音乐会 100
开展业务 100
1.6 100
纱 100
补充@@ 100
SE@@ 100
周四 100
战略部署 100
秘 100
触发 100
重型 100
鸦片 100
旅行@@ 100
火焰 100
货物运输 100
嘿 100
未满 100
本合同 100
通报情况 100
气温 100
饮 100
外出 100
大海 100
献 100
女孩子 100
输送 100
门户 100
难者 100
多媒体 100
尼亚共和国 100
星期日 100
矿石 100
付费 100
壤 100
经济区 100
责令 100
魁@@ 100
IP@@ 100
呆@@ 100
感冒 100
罪恶 100
戒 100
261 100
行走 100
看不到 100
斯顿 100
送往 100
盗窃 100
计算方法 100
贫困人口 100
305 100
捷克 100
3.6 100
幢 100
馆@@ 100
善良 100
320 100
ta 100
放下 100
驯@@ 100
肖@@ 100
周转 100
追溯 100
5000 100
二年 100
袋@@ 100
合伙人 100
地产 100
崛起 100
议长 100
局限性 100
教育部门 100
党人 100
性传播 100
日益增长 100
犹太@@ 100
纪念活动 100
非常高兴 100
联署 100
认真@@ 100
分部 100
叉@@ 100
肝 100
求助 100
多大 100
不良影响 100
遵行 100
斯塔@@ 100
火山 100
配套 100
伊丽莎白 100
传说 100
内涵 100
慈善@@ 100
构成犯罪 100
里约集团 100
275 100
750 100
朝鲜半岛 100
残割 100
主权国家 100
文莱达鲁萨兰国 100
瑙鲁 100
第四个 100
219 100
ob@@ 100
伤心 100
吐 100
潮流 100
足额 100
晚饭 100
第四十六届 100
视力 100
za 100
冬@@ 100
畏 100
陌生人 100
一般而言 100
不容 100
光学 100
饥荒 100
Pe@@ 100
雷曼 100
丑@@ 100
奥尔@@ 100
承包@@ 100
胎儿 100
幽默 100
惠及 100
和平谈判 100
受限制 100
对冲 100
减损 100
第三款 100
萨尔 100
方位 100
毁@@ 100
耍 100
东北 100
介质 100
诱惑 100
视作 100
另一名 100
GS 100
格尔 100
率领 100
致辞 100
辑@@ 100
机能 100
257 100
淹@@ 100
远距离 100
释@@ 100
台湾@@ 100
塌 100
专家@@ 100
传播@@ 100
款中 100
每位 100
激进 100
赦免 100
一看 100
周日 100
新近 100
谎言 100
奏 100
照射 100
逃跑 100
堂@@ 100
瓣 100
预 100
同伴 100
放宽 100
写道 100
早先 100
统 100
一股 100
候补 100
养育 100
宪兵 100
尼奥 100
年鉴 100
降解 100
绑@@ 100
况@@ 100
可不 100
脚注 100
西班牙@@ 100
行之有效 100
地理位置 100
手臂 100
执法@@ 100
送回 100
再说 100
index 100
从根本上 100
共存 100
商界 100
盗 100
338 100
明确@@ 100
请洽 100
尚无 100
没错 100
来源于 100
腺@@ 100
驳@@ 100
平稳 100
当初 100
眼泪 100
邮箱 100
亦可 100
依旧 100
系指 100
245 100
亚尔 100
会同 100
隐 100
酪 100
建设项目 100
闻@@ 100
拥抱 100
283 100
Bu@@ 100
国家统计局 100
墙@@ 100
构架 100
楼宇 100
终端 100
财政状况 100
就读 100
交换@@ 100
停下来 100
廊 100
散布 100
欣 100
全体@@ 100
过滤 100
就是说 100
廉 100
教养 100
五十周年 100
时报 100
经纪人 100
领导者 100
不断扩大 100
环境退化 100
全民@@ 100
再次@@ 100
好转 100
主计长 100
二者 100
姆斯 100
纽 100
St@@ 100
互相@@ 100
反射 100
实现目标 100
局局长 100
纠@@ 100
霜 100
高水平 100
工作岗位 100
阴谋 100
289 100
参与方 100
数月 100
最低标准 100
本应 100
扔@@ 100
琴@@ 100
不知@@ 100
二十 100
市政@@ 100
致意 100
信徒 100
减去 100
公吨 100
柬埔寨@@ 100
海平面 100
蒙受 100
避孕@@ 100
月亮 100
管制@@ 100
而应 100
过失 100
687 100
fi@@ 100
抹 100
通过@@ 100
叹 100
水面 100
脾气 100
公共事务 100
冷却 100
日本@@ 100
肺 100
腐败@@ 100
自由贸易 100
利用率 100
杀戮 100
燃油 100
电机 100
稿@@ 100
膳@@ 100
试着 100
千名 100
温柔 100
督@@ 100
未获 100
草地 100
达喀尔 100
决赛 100
月间 100
疫 100
难过 100
城市规划 100
情况通报 100
第八次 100
伤口 100
善治 100
文凭 100
杀虫剂 100
画面 100
讽刺 100
障@@ 100
听力 100
琼@@ 100
龄@@ 100
芯片 100
送达 100
慕 100
潮@@ 100
宽带 100
瘫痪 100
驱逐出境 100
带走 100
招 100
疾@@ 100
上市公司 100
乙烯 100
锅@@ 100
7.1 100
物业 100
粮@@ 100
首脑 100
傲@@ 100
克拉 100
第二十二届 100
辰 100
Ru@@ 100
So@@ 100
仙@@ 100
八国集团 100
头部 100
表现形式 100
选区 100
驻扎 100
Kar@@ 100
线性 100
气味 100
紧紧 100
闯@@ 100
co 100
一九@@ 100
同类 100
妮@@ 100
搁置 100
翻新 100
航天局 100
切尔诺贝利 100
多样 100
推移 100
宠物 100
锌 100
顽@@ 100
食品@@ 100
PA@@ 100
开端 100
笔译 100
奥斯陆 100
达尔 100
柴 100
棉 100
逆转录 100
开创 100
支持@@ 100
收容所 100
过渡期 100
募@@ 100
1267 100
医师 100
宇 100
史蒂@@ 100
芭@@ 100
膜@@ 100
农田 100
烷 100
拷@@ 100
测验 100
混淆 100
切断 100
亚共和国 100
人均收入 100
宰 100
所获 100
Lu@@ 100
万个 100
中东地区 100
准军事 100
偶 100
公民@@ 100
圣地亚哥 100
并用 100
昆虫 100
根本性 100
绵@@ 100
至多 100
公立 100
决策机构 100
分化 100
周边@@ 100
指认 100
油田 100
荣耀 100
地下@@ 100
安全区 100
手法 100
浦 100
赚取 100
身为 100
同胞 100
英寸 100
而言之 100
人来 100
动摇 100
酱 100
未缴 100
深受 100
Pro@@ 100
ff@@ 100
ing@@ 100
革@@ 100
刮@@ 100
接受@@ 100
东南亚国家联盟 100
停车场 100
体积 100
创办 100
贼 100
举例 100
大马士革 100
掠夺 100
牢记 100
泰勒 100
简 100
习惯@@ 100
包围 100
匹@@ 100
威尔士 100
就业率 100
心态 100
来源国 100
童年 100
经济效益 100
里亚 100
AT@@ 100
案中 100
轮流 100
CCPR 100
篮球 100
33@@ 100
伪 100
光线 100
金融部门 100
DVD 100
一致同意 100
恐怖@@ 100
铁路@@ 100
全身 100
吉姆 100
新娘 100
反抗 100
sta@@ 100
专业人士 100
娶 100
圣马力诺 100
亚太地区 100
几百@@ 100
国在 100
嫁给 100
38@@ 100
do@@ 100
第四十七届 100
州长 100
印刷@@ 100
舌@@ 100
盒子 100
躲@@ 100
运气 100
镜子 100
资本@@ 100
击败 100
恐怖组织 100
ut@@ 100
宣扬 100
留下来 100
骨折 100
奥林匹克@@ 100
上述情况 100
速率 100
闷 100
弊 100
第一位 100
行驶 100
重振 100
在此之前 100
布尔 100
年满 100
渣 100
能为 100
兼职 100
影像 100
接受国 100
教导 100
是否是 100
聊天 100
装有 100
裸@@ 100
不同@@ 100
拒绝接受 100
纷@@ 100
张贴 100
极端@@ 100
柴油 100
溜@@ 100
数据中心 100
提法 100
IMF 100
^ 100
履@@ 100
洒 100
逆转 100
钠 100
非传统 100
额度 100
中心@@ 100
埃厄 100
电网 100
装修 100
邀 100
放射@@ 100
畅 100
绑 100
马里@@ 100
不太可能 100
妇女儿童 100
眼中 100
Part 100
僚 100
匹 100
视野 100
陛下 100
似宜 100
繁殖 100
迈向 100
优先@@ 100
会议@@ 100
拉里 100
芽 100
斑 100
新闻媒体 100
比亚 100
祝@@ 100
全会 100
365 100
ev@@ 100
舞弊 100
Qu@@ 100
乙 100
放心 100
管理信息系统 100
企@@ 100
攀@@ 100
维护@@ 100
割 100
站点 100
贫 100
天赋 100
局限 100
极限 100
笑话 100
逢 100
两只 100
任何一方 100
后悔 100
人性 100
成像 100
海里 100
涌入 100
炭 100
供参考 100
停战 100
秀@@ 100
绝不能 100
凉@@ 100
摄影@@ 100
惩@@ 100
细目 100
数字@@ 100
步枪 100
研究院 100
乞@@ 100
国人 100
祭 100
福克兰群岛 100
一语 100
整整 100
泪 100
菜单 100
钢铁 100
各阶层 100
喇@@ 100
挡 100
ST@@ 100
书写 100
新界 100
明亮 100
隐私权 100
击中 100
擅@@ 100
车子 100
第二类 100
纸张 100
一员 100
合物 100
花钱 100
雌@@ 100
赐 100
镜@@ 100
领地 100
装甲@@ 100
多边合作 100
换成 100
涛 100
产后 100
发光 100
沉积 100
远景 100
创造力 100
诗歌 100
俄语 100
竭力 100
令人震惊 100
刷@@ 100
尤 100
屋里 100
彻@@ 100
格里@@ 100
猛 100
兄弟@@ 100
关税@@ 100
几名 100
撞@@ 100
歇@@ 100
㈥ 100
专职 100
恭@@ 100
森林@@ 100
Mon@@ 100
发言权 100
归属 100
钦@@ 100
扮 100
int 100
何 100
麦克@@ 100
鉴别 100
eg@@ 100
利用@@ 100
喝酒 100
国家级 100
材@@ 100
门户网站 100
SO@@ 100
享用 100
天才 100
特殊教育 100
感动 100
杀伤性 100
科威特@@ 100
胰@@ 100
颤@@ 100
旅程 100
共用 100
赶上 100
迈克 100
陀@@ 100
259 100
海港 100
不带 100
宝贝 100
激增 100
mo@@ 100
影子 100
方对 100
试行 100
善于 100
工资@@ 100
葬@@ 100
赞成票 100
三人 100
最终用户 100
284 100
天气@@ 100
陪审团 100
日为 100
有鉴于此 100
霸@@ 100
功能@@ 100
看电视 100
洛杉矶 100
膨胀 100
臭@@ 100
330 100
倾斜 100
分数 100
检控 100
亚美@@ 100
孕 100
重新部署 100
650 100
望远镜 100
默认 100
主观 100
提出异议 100
解体 100
288 100
日程@@ 100
鞋子 100
倒退 100
整天 100
秀 100
裙 100
购买力 100
地毯 100
阿布 100
口径 100
服役 100
man@@ 100
不足之处 100
归类 100
酬 100
龟 100
京@@ 100
恶意 100
控制器 100
肢@@ 100
雅典 100
厌恶 100
照明 100
在世界上 100
旱@@ 100
督察 100
第四十届 100
胞@@ 100
宝宝 100
抽样 100
特朗普 100
粮 100
适于 100
可予 100
掘@@ 100
犹豫 100
适用性 100
胃 100
刚果@@ 100
握 100
水准 100
宽松 100
布局 100
带头 100
洛斯 100
生活费 100
挺@@ 100
芳@@ 100
三位 100
口头报告 100
扭@@ 100
老挝 100
ha 100
丸 100
打印机 100
致电 100
坐标 100
居住地 100
筑 100
适度 100
高压 100
XX@@ 100
证明书 100
跃@@ 100
兴建 100
安东@@ 100
小女孩 100
履行义务 100
艾 100
融 100
不开 100
马尔 100
临近 100
争吵 100
安全局 100
对联 100
科长 100
扰 100
施加压力 100
识字率 100
降落 100
巴士 100
本信 100
航天@@ 100
不管@@ 100
南斯拉夫联邦 100
核技术 100
消息来源 100
科技委 100
说明@@ 100
探访 100
次要 100
破碎 100
脉冲 100
249 100
宴会 100
第十次 100
不懈 100
冰箱 100
宴 100
沿线 100
详 100
NPT 100
与会@@ 100
猜测 100
停车 100
凝聚力 100
奈 100
排序 100
生产国 100
硕士 100
劝 100
加利 100
泻 100
流动@@ 100
体会 100
良 100
银行家 100
侦察 100
天上 100
睡着 100
第一天 100
财政部长 100
逆 100
元件 100
皇帝 100
纳克 100
悠久 100
精彩 100
寒 100
挖 100
窝 100
茎 100
十二月 100
唱歌 100
惯@@ 100
共产党 100
创业@@ 100
协理 100
弹头 100
甜 100
导则 100
239 100
国贸 100
圆形 100
扎伊尔 100
真主党 100
过渡@@ 100
229 100
人力资本 100
脑袋 100
金牌 100
以防 100
有钱 100
正当理由 100
法学院 100
西斯 100
剪 100
安圭拉 100
就任 100
唐 100
相对@@ 100
1958 100
净化 100
沿海地区 100
番@@ 100
哪怕 100
缸 100
严格@@ 100
搭配 100
可望 100
射线 100
秋天 100
第一类 100
Ha@@ 100
介意 100
新任 100
物料 100
第九次 100
上届 100
老化 100
4.6 100
实验@@ 100
赚钱 100
铃@@ 100
html 100
世界杯 100
放大 100
民间团体 100
沼@@ 100
束缚 100
第二十五条 100
亏 100
以下@@ 100
好多 100
待命 100
民族主义 100
立方@@ 100
ish@@ 100
公共利益 100
富人 100
更长 100
出版@@ 100
意味 100
拨给 100
震 100
喜悦 100
工商业 100
污染@@ 100
Abu 100
废弃 100
改建 100
尼科西亚 100
搭 100
摩擦 100
来访 100
犯罪集团 100
竹@@ 100
285 100
瞬间 100
第二十一条 100
紧要 100
克什米尔 100
格林 100
re 100
伯特 100
理智 100
迷人 100
偏低 100
技术培训 100
权威@@ 100
本协定 100
嘉莉 100
悉@@ 100
核销 100
负债表 100
践踏 100
坚定不移 100
征服 100
第二十条 100
缓冲区 100
时会 100
种植@@ 100
喉@@ 100
培训@@ 100
微小 100
倘若 100
国防部长 100
机动 100
离去 100
筹集资金 100
代表@@ 100
卡塔赫纳 100
判决书 100
情势 100
掌控 100
盼@@ 100
are@@ 100
万亿美元 100
海报 100
启发 100
宝石 100
荷兰@@ 100
飞行@@ 100
国际海事组织 100
始终@@ 100
看守 100
第二轮 100
规例 100
诉人 100
谷物 100
多种多样 100
把手 100
祭司 100
印度政府 100
司法人员 100
特里 100
一副 100
当日 100
310 100
灯光 100
第一轮 100
并不一定 100
操作系统 100
罕 100
lo@@ 100
五项 100
旱灾 100
厉害 100
危险性 100
矿产 100
罂粟 100
峡@@ 100
痕迹 100
私营企业 100
翻译成 100
抗击 100
贾 100
人民代表大会 100
ter 100
群组 100
272 100
大事 100
前瞻性 100
巫@@ 100
新闻记者 100
备案 100
择 100
每隔 100
西北 100
锅 100
公爵 100
天文台 100
结案 100
路易斯 100
VI 100
件人 100
列车 100
爵@@ 100
组织者 100
自力更生 100
中起 100
保守@@ 100
开玩笑 100
性关系 100
摩托车 100
詹@@ 100
酗酒 100
奉献 100
挣扎 100
1.8 100
困惑 100
暑@@ 100
酸盐 100
间断 100
植被 100
ang 100
ash@@ 100
国有企业 100
责@@ 100
享@@ 100
为时@@ 100
堡@@ 100
塑料@@ 100
川@@ 100
我家 100
7.3 100
临时性 100
抽烟 100
战斗机 100
打断 100
欧国家 100
德国@@ 100
轿车 100
价值观念 100
决不能 100
叔叔 100
日益严重 100
烃 100
焚烧 100
互补性 100
中级 100
6.6 100
ge@@ 100
受众 100
国际贸易中心 100
惧@@ 100
第二十四条 100
红新月会 100
赏@@ 100
选举权 100
选择@@ 100
妆@@ 100
愧 100
托马斯 100
550 100
列名 100
小企业 100
日于 100
景象 100
主导作用 100
停火协定 100
微观 100
楼梯 100
吸毒者 100
身分 100
地形 100
归纳 100
蒙特塞 100
参考资料 100
演示 100
典范 100
凯恩 100
持续@@ 100
政策@@ 100
兴起 100
栽@@ 100
1964 100
二十世纪 100
取得@@ 100
天线 100
del 100
会议记录 100
族人 100
可行性研究 100
寿@@ 100
社群 100
积极主动 100
弗朗@@ 100
忽然 100
恢复正常 100
新德里 100
PDF 100
个案研究 100
占领区 100
对立 100
鸣 100
292 100
大大增加 100
岁月 100
扣留 100
数十年 100
避孕药 100
co@@ 100
国际刑警组织 100
抬头 100
维斯 100
遴选 100
262 100
CH@@ 100
SA 100
光谱 100
南共体 100
po@@ 100
型号 100
密性 100
投机 100
球迷 100
耐 100
存量 100
平时 100
彻 100
最新@@ 100
环保@@ 100
重新分配 100
不多 100
倾倒 100
筛@@ 100
锈@@ 100
非法活动 100
亲戚 100
申请表 100
一来 100
准时 100
宗教@@ 100
用处 100
衍@@ 100
春季 100
解放运动 100
做事 100
布宜诺斯艾利斯 100
运往 100
远处 100
塔吉@@ 100
转而 100
推理 100
微波 100
John 100
力争 100
时间@@ 100
祷告 100
钙 100
东北部 100
代表作 100
分泌 100
号召 100
尔森 100
按计划 100
政治犯 100
做成 100
悟 100
受让人 100
引述 100
罚 100
伤害@@ 100
十四 100
子公司 100
未必 100
老婆 100
杜绝 100
正确@@ 100
渐@@ 100
溶液 100
市值 100
武装集团 100
零零 100
256 100
adi 100
弯曲 100
欣慰 100
比如说 100
豁免权 100
部际 100
4.7 100
态势 100
民事诉讼 100
东北@@ 100
鉴@@ 100
保持联系 100
偶@@ 100
卧室 100
教派 100
罚金 100
上游 100
告诫 100
循 100
法学家 100
矮@@ 100
不用说 100
POPS 100
ge 100
先知 100
枝@@ 100
痴@@ 100
La@@ 100
示例 100
钩 100
1.7 100
可可 100
礼品 100
轮调 100
der 100
情愿 100
房价 100
380 100
好消息 100
宇@@ 100
纽约市 100
263 100
潘@@ 100
财产损失 100
超声 100
第二十三条 100
值得一@@ 100
减肥 100
孩@@ 100
测量@@ 100
恐慌 100
杂项收入 100
歌手 100
利斯 100
底下 100
恤 100
切合实际 100
监核 100
自动@@ 100
茨@@ 100
水分 100
没事 100
话语 100
赞美 100
趣 100
严 100
惟一 100
指向 100
捉 100
打击@@ 100
不前 100
主导地位 100
有意思 100
每种 100
生殖器官 100
翔 100
印第安人 100
字符 100
闲 100
信赖 100
失误 100
阿卜杜拉 100
养费 100
代理@@ 100
位数 100
使本 100
可预测性 100
基础@@ 100
澳大利亚政府 100
结局 100
不成@@ 100
周转基金 100
病学 100
鹅 100
公安机关 100
埃尔@@ 100
巢 100
新闻自由 100
晚会 100
盼 100
2.9 100
San@@ 100
内为 100
婆 100
刊@@ 100
平常 100
辆车 100
革命@@ 100
征募 100
人类@@ 100
利息收入 100
发病 100
递送 100
高加@@ 100
另行 100
帐篷 100
开口 100
边防 100
预备@@ 100
哈萨@@ 100
对外贸易 100
直接参与 100
雾@@ 100
加勒比海 100
辈子 100
垫@@ 100
生涯 100
用法 100
约瑟夫 100
能效 100
页@@ 100
gi@@ 100
人才@@ 100
今天上午 100
付诸实施 100
肤 100
苏丹@@ 100
遂 100
发誓 100
圣多美和普林西比 100
醒来 100
 100
丹尼尔 100
合法权利 100
存活 100
滥@@ 100
遭@@ 100
初中 100
十分重视 100
鞭@@ 100
海湾@@ 100
祸@@ 100
阿卜杜勒 100
俯@@ 100
屡@@ 100
悲 100
缔造 100
艰@@ 100
共产@@ 100
助手 100
服务台 100
走路 100
边际 100
一双 100
淀@@ 100
债权 100
四处 100
委派 100
并非@@ 100
置疑 100
no@@ 100
婴@@ 100
爽 100
腔@@ 100
遵从 100
合法@@ 100
同文信 100
想着 100
狭@@ 100
鸟@@ 100
两岸 100
保证@@ 100
维多@@ 100
通用@@ 100
一带 100
夺取 100
尉 100
格斯 100
约翰逊 100
爱国@@ 100
县@@ 100
虾 100
受灾 100
妹 100
推测 100
数字化 100
首领 100
du@@ 100
劳力 100
术后 100
盟友 100
胳膊 100
艾哈迈德 100
世人 100
分辨率 100
科医生 100
荧@@ 100
格拉 100
年届会 100
演讲@@ 100
莓 100
雄心勃勃 100
写入 100
出血 100
核心@@ 100
斯卡 100
旱地 100
深入研究 100
祖先 100
翅膀 100
ay 100
功效 100
珍惜 100
阿布贾 100
316 100
体制改革 100
Th@@ 100
两届 100
主旨 100
他于 100
三倍 100
不合@@ 100
亨@@ 100
外线 100
滥杀 100
理应 100
病假 100
篇幅 100
统治@@ 100
蓝图 100
人有 100
桃@@ 100
涕 100
诺贝尔@@ 100
迈 100
专委 100
大有 100
to@@ 100
中东问题 100
传授 100
跟随 100
看成 100
策@@ 100
请参阅 100
交通工具 100
传单 100
风景 100
1701 100
严重后果 100
其间 100
榜 100
职业生涯 100
雷区 100
宗教团体 100
UN 100
半个 100
国有@@ 100
平安 100
来往 100
公路@@ 100
定位@@ 100
帆@@ 100
ill@@ 100
丘 100
亚非 100
实践@@ 100
宣誓 100
敲定 100
狼@@ 100
肤@@ 100
克萨@@ 100
八月 100
双边协定 100
均等 100
检查员 100
碰 100
郡 100
人以 100
呼声 100
履行任务 100
欧空局 100
泄 100
恒 100
祸害 100
汀 100
登上 100
蓝线 100
养殖 100
商业活动 100
密集型 100
经济合作组织 100
Mohamed 100
ai@@ 100
橄榄@@ 100
当事国 100
厄 100
受惠 100
市中心 100
挡@@ 100
有名 100
时数 100
电视机 100
酬@@ 100
冬 100
脖子 100
草原 100
As@@ 100
可比 100
岭 100
踢@@ 100
Gar@@ 100
控件 100
团结@@ 100
天生 100
彼此@@ 100
稍微 100
The 100
ja 100
拦截 100
手上 100
萨拉 100
和平共处 100
求解 100
不致 100
换取 100
不遗余力 100
披@@ 100
点燃 100
知名人士 100
箱@@ 100
财政政策 100
使团 100
分销 100
工作效率 100
水处理 100
浇@@ 100
诉求 100
责任感 100
尴尬 100
十月 100
挽@@ 100
牧业 100
电梯 100
Si@@ 100
剧烈 100
忽@@ 100
无误 100
管理司 100
警员 100
任务区 100
哥伦比@@ 100
穆 100
积极性 100
go@@ 100
人民代表大会常务委员会 100
真诚地 100
自愿@@ 100
镜头 100
非洲开发银行 100
域外 100
已久 100
缘故 100
趟 100
钢琴 100
研 100
破产法 100
精心 100
逃犯 100
重重 100
一点点 100
一顿 100
互惠 100
煮 100
瑞典@@ 100
生化 100
非常感谢 100
弥合 100
该厅 100
赞 100
环境法 100
空袭 100
著作@@ 100
视委 100
佐证 100
吉尔吉斯@@ 100
房产 100
自营 100
诉讼@@ 100
辍学率 100
失业@@ 100
归于 100
立足@@ 100
Ste@@ 100
倚 100
岌@@ 100
时有 100
每名 100
笔记@@ 100
编程 100
邓@@ 100
充满@@ 100
第三十八届 100
ak 100
双重标准 100
土壤@@ 100
寿 100
狂热 100
苗 100
两国政府 100
第二十六届 100
304 100
勋@@ 100
十八 100
失业者 100
布雷 100
矿产资源 100
来文方 100
超支 100
嫌@@ 100
眼下 100
ro 100
广泛应用 100
之以 100
第四十三届 100
绩 100
缠@@ 100
着力 100
试试 100
进口国 100
公立学校 100
周六 100
地质@@ 100
em 100
违规 100
3.7 100
优雅 100
开拓 100
冲动 100
配方 100
马尼@@ 100
ation 100
举止 100
传统习俗 100
直线 100
视频@@ 100
通向 100
弗里@@ 100
可用@@ 100
抽象 100
醉@@ 100
星星 100
萝@@ 100
布置 100
有史以来 100
Li@@ 100
三十 100
工作进展 100
波利萨 100
物价 100
286 100
奶奶 100
论及 100
陈旧 100
带动 100
机动@@ 100
预算内 100
367 100
第二份 100
我爱你 100
推断 100
火星 100
即应 100
盖茨 100
7.2 100
文盲率 100
率先 100
Co 100
案文见 100
学期 100
文第 100
碟 100
蒙古@@ 100
利马 100
厘米 100
快速反应 100
系统对 100
飞行员 100
57@@ 100
ver@@ 100
名人 100
所犯 100
母乳喂养 100
致死 100
长官 100
剩 100
居留@@ 100
轻型 100
商务@@ 100
敌意 100
文学@@ 100
核扩散 100
正直 100
俄罗斯@@ 100
没能 100
冲突地区 100
狄@@ 100
34@@ 100
分类@@ 100
吸 100
网球 100
不成 100
前线 100
庙 100
第三十九届 100
AS@@ 100
Sch@@ 100
基督徒 100
盾 100
终生 100
辖区 100
领养 100
战后 100
物质@@ 100
避开 100
仁 100
国土 100
怨@@ 100
注释 100
第二十七届 100
议事 100
剥@@ 100
科学院 100
267 100
一小部分 100
尼亚州 100
居然 100
旗帜 100
ale 100
中小学 100
单证 100
嘉宾 100
为人@@ 100
仓 100
公益 100
肩膀 100
鸟类 100
一经 100
肺结核 100
财物 100
鲜 100
动物园 100
勇 100
大都 100
布隆迪政府 100
碌 100
概率 100
第二十七条 100
非凡 100
美妙 100
营企业 100
陷入@@ 100
广播公司 100
Ta@@ 100
几何 100
无聊 100
科学界 100
锥@@ 100
饲料 100
主席@@ 100
欧洲央行 100
行为准则 100
仗 100
女朋友 100
岁@@ 100
退休@@ 100
sa 100
登录 100
第二号 100
被盗 100
边境地区 100
001 100
一点儿 100
不曾 100
个省 100
核心作用 100
盛行 100
硫丹 100
贫困线 100
隐瞒 100
佣金 100
凯科 100
增长速度 100
治愈 100
二月 100
可信度 100
密切协作 100
你方 100
外观 100
归功于 100
携@@ 100
官方@@ 100
消化 100
袖@@ 100
基督@@ 100
秋 100
第二十五届 100
530 100
买家 100
人文 100
评论@@ 100
载体 100
辨 100
庄 100
沾@@ 100
奔 100
查出 100
象征@@ 100
放入 100
旦@@ 100
服务员 100
算是 100
综合症 100
预付款 100
ash 100
昨@@ 100
侨 100
开曼群岛 100
档案@@ 100
混 100
ke@@ 100
男女之间 100
环己烷 100
青春 100
坦率 100
1514 100
不太@@ 100
就让 100
敲 100
一侧 100
法兰@@ 100
篮 100
下周 100
安第斯 100
接入 100
一会 100
神奇 100
褐@@ 100
触犯 100
合资 100
生态环境 100
281 100
反倾销 100
工商企业 100
更能 100
附加@@ 100
ne@@ 100
厅@@ 100
烯 100
碱@@ 100
贬@@ 100
287 100
国际化 100
规章制度 100
角落 100
事关 100
全球战略 100
内有 100
辛基 100
同日 100
哭泣 100
苯丙胺 100
赡@@ 100
Mor@@ 100
pdf 100
妆 100
篇文章 100
ER@@ 100
ne 100
各部委 100
带上 100
胡 100
Her@@ 100
疏忽 100
第四十二届 100
过期 100
5.6 100
农作物 100
这话 100
损害赔偿 100
洪 100
询@@ 100
公安@@ 100
价钱 100
援用 100
获利 100
邮 100
全球@@ 100
尤为重要 100
政务 100
航空器 100
规划@@ 100
辉煌 100
邮寄 100
单据 100
恪守 100
更为重要 100
六氯 100
外科 100
清偿 100
北美洲 100
成功@@ 100
坊 100
大体上 100
民选 100
这本 100
延至 100
私法 100
米兰 100
运河 100
阿塞拜疆共和国 100
李 100
短时间 100
对非 100
开除 100
溶剂 100
触及 100
乐于 100
交互@@ 100
出发点 100
毛利@@ 100
1965 100
ai 100
悦 100
虎@@ 100
制药 100
婴 100
通盘 100
佛罗里@@ 100
杖 100
格陵兰 100
渡 100
私有 100
秋季 100
ari 100
永不 100
具体步骤 100
逃脱 100
ah@@ 100
萨拉热窝 100
厂商 100
器材 100
国务卿 100
椎@@ 100
助益 100
广州 100
毗邻 100
疲软 100
第二年 100
不着 100
厚度 100
姓@@ 100
谋杀@@ 100
怜@@ 100
日益@@ 100
殿@@ 100
经纪 100
逍遥法外 100
静态 100
不在乎 100
格兰@@ 100
灾区 100
牛肉 100
航天器 100
贵族 100
gov 100
叠 100
微不足道 100
浑@@ 100
投票权 100
躲 100
玩家 100
五天 100
挫@@ 100
下调 100
同工同酬 100
外贸 100
崇拜 100
提供商 100
约组织 100
落入 100
巴拉克 100
筹款 100
沉积物 100
皱@@ 100
锐@@ 100
形资产 100
谈及 100
面上 100
340 100
方括号 100
纳米 100
现正 100
纳粹 100
7.4 100
迭@@ 100
Hu@@ 100
RA@@ 100
一千@@ 100
填 100
拉巴@@ 100
盆 100
适应性 100
不善 100
分析方法 100
发生@@ 100
消耗@@ 100
超市 100
农户 100
可为 100
可比性 100
报刊 100
团结一致 100
消防 100
1945 100
保留@@ 100
克里 100
宁静 100
没法 100
电报 100
美国国会 100
脉 100
记忆@@ 100
丑闻 100
内存 100
各段 100
导游 100
金枪鱼 100
LA@@ 100
巴勒斯坦@@ 100
畸@@ 100
兆@@ 100
往年 100
苹果@@ 100
水量 100
篇@@ 100
舱@@ 100
船旗国 100
足球@@ 100
酷@@ 100
现实意义 100
结清 100
表示祝贺 100
贩 100
临床@@ 100
交互 100
十七 100
协调会议 100
很强 100
细胞@@ 100
长老 100
Mi@@ 100
二是 100
任何理由 100
杰夫 100
艾伦 100
伐 100
周岁 100
圆满@@ 100
疯@@ 100
ry 100
产品质量 100
培 100
执 100
268 100
人口比例 100
佛教 100
促@@ 100
私立 100
幻 100
兼容 100
显示@@ 100
获取信息 100
一时期 100
废弃物 100
恋爱 100
福音 100
预言 100
去过 100
战机 100
升温 100
密克罗尼西亚联邦 100
替@@ 100
加班 100
一至 100
数个 100
断裂 100
羞辱 100
零售商 100
实证 100
康复@@ 100
阿尔及尔 100
颠覆 100
295 100
425 100
休息@@ 100
碍@@ 100
京 100
城堡 100
小于 100
覆盖范围 100
一口 100
嫌疑犯 100
整套 100
纳米@@ 100
诚挚 100
迦@@ 100
政府@@ 100
硬币 100
祖 100
2030 100
Bank 100
升至 100
沥@@ 100
行程 100
中所作 100
未知 100
鲜明 100
CC@@ 100
Ne@@ 100
宽恕 100
油气 100
疫情 100
蒸汽 100
七次 100
凿 100
山脉 100
有期徒刑 100
被忽视 100
较少 100
乳腺癌 100
山上 100
扑 100
癌@@ 100
纽约联合国总部 100
自由权 100
um 100
摄像@@ 100
顽固 100
医学@@ 100
器具 100
爱好@@ 100
字符@@ 100
物理学 100
轻重 100
上方 100
嘲笑 100
患病 100
新设 100
无偿 100
神话 100
han@@ 100
粗 100
36@@ 100
商学院 100
扰@@ 100
舞会 100
初审 100
得分 100
情报局 100
躁 100
pe@@ 100
壮 100
导体 100
满意度 100
梁@@ 100
CT 100
口号 100
完工 100
有所提高 100
较长 100
逮捕令 100
res 100
出版社 100
缠 100
解析 100
地缘 100
泊 100
追究@@ 100
FAO 100
彰 100
空气@@ 100
不许 100
今天下午 100
天天 100
COM 100
公用事业 100
纤维@@ 100
青春@@ 100
介 100
偿债 100
光纤 100
听证 100
斯群岛 100
滥伤 100
竖@@ 100
全面实施 100
吉尔 100
小孩子 100
漆 100
焊@@ 100
脆 100
MO@@ 100
国际事务 100
恼 100
挪威@@ 100
收据 100
贯@@ 100
转到 100
高血压 100
乌兹别克斯坦共和国 100
核燃料 100
涂料 100
煤矿 100
濒危 100
全面解决 100
四分之三 100
年龄段 100
SC@@ 100
应邀 100
独一无二 100
逼 100
骚乱 100
1962 100
合规 100
心理学家 100
案文@@ 100
逊@@ 100
oc@@ 100
十六 100
尔德@@ 100
自助 100
训@@ 100
AL@@ 100
ic 100
当成 100
信奉 100
夜里 100
平均水平 100
性病 100
ach@@ 100
赔偿@@ 100
打造 100
收音机 100
旺 100
薄膜 100
Po@@ 100
编拟 100
蛙 100
时要 100
桃 100
经管 100
不相@@ 100
勿 100
油漆 100
维修@@ 100
导演 100
就象 100
打扰 100
模糊@@ 100
红外 100
自由选择 100
快速增长 100
渊@@ 100
茂@@ 100
销量 100
277 100
一共 100
传来 100
家禽 100
绘 100
随即 100
汉堡 100
3000 100
原子@@ 100
极力 100
犹如 100
远见 100
陶瓷 100
塞尔维亚共和国 100
霉@@ 100
et@@ 100
参谋 100
四种 100
惊 100
挫 100
辩解 100
印度尼西@@ 100
手枪 100
沦为 100
轴承 100
高管 100
分布@@ 100
蛋@@ 100
大众@@ 100
小镇 100
年限 100
衍生 100
讯问 100
多国部队 100
发出@@ 100
壳@@ 100
断言 100
明文@@ 100
豪华 100
骨头 100
人民共和@@ 100
行使@@ 100
非营利 100
预约 100
前提条件 100
不通 100
向下 100
天性 100
屏 100
本发明 100
超级@@ 100
参谋@@ 100
逝@@ 100
韧@@ 100
哈里 100
载明 100
备份 100
杠杆 100
司令@@ 100
含糊 100
并购 100
起床 100
通风 100
IS 100
之路 100
农村@@ 100
外交关系 100
裁研 100
喘 100
撞击 100
斟酌 100
蚁 100
预算@@ 100
前夕 100
可乐 100
盈@@ 100
中以 100
安全部 100
小鼠 100
网播 100
愤@@ 100
架飞机 100
瑟@@ 100
返还 100
li 100
工具包 100
方法学 100
麻疹 100
场址 100
商事 100
收入@@ 100
未清 100
欧安会 100
歇 100
颠@@ 100
Khal@@ 100
假装 100
反对票 100
平等@@ 100
艺术品 100
3.8 100
任职者 100
地被 100
柬 100
留住 100
留意 100
票数 100
稻 100
六方会谈 100
推动力 100
衷心 100
责备 100
非歧视 100
不负责任 100
以为@@ 100
冶@@ 100
引爆 100
款下 100
皮书 100
固体@@ 100
寡@@ 100
德意志@@ 100
物理@@ 100
瓶@@ 100
虚拟@@ 100
头痛 100
澳门特别行政区 100
诺言 100
铃 100
考生 100
不高 100
可不是 100
栓 100
讯@@ 100
近几个月 100
一下@@ 100
个州 100
爱国 100
〉 100
仇 100
猫@@ 100
澳洲 100
瓷@@ 100
耕作 100
鸟儿 100
后备 100
无情 100
泛 100
不已 100
人人平等 100
卵 100
必定 100
在政治上 100
座谈会 100
笑容 100
ton 100
万吨 100
名声 100
有利条件 100
派对 100
猛烈 100
理查德 100
预示 100
饱受 100
不具 100
严密 100
停顿 100
我用 100
数以千计 100
279 100
尸 100
祂 100
训练有素 100
友好关系 100
监 100
评判 100
句话 100
显现 100
结婚年龄 100
见图 100
购物@@ 100
运营商 100
这片 100
逸 100
食品安全 100
借用 100
加权 100
午饭 100
曝@@ 100
更快 100
评述 100
骸 100
擅长 100
氯化@@ 100
省长 100
赞助@@ 100
事业@@ 100
减低 100
AL 100
五分钟 100
仔@@ 100
棍 100
美好@@ 100
蔑视 100
镀@@ 100
防备 100
零售@@ 100
ber@@ 100
伸 100
勉强 100
存档 100
舟 100
人向 100
全国人民代表大会 100
变化@@ 100
整体@@ 100
等同于 100
阶@@ 100
分之一 100
湾@@ 100
调研 100
责任人 100
纺织 100
39@@ 100
人民检察院 100
犯罪分子 100
电厂 100
集会自由 100
1946 100
侍@@ 100
坟墓 100
紧急@@ 100
认出 100
宇航@@ 100
晨 100
核动力 100
hu@@ 100
国际电联 100
验 100
WG@@ 100
互动@@ 100
参加@@ 100
嗣后 100
检方 100
特克斯 100
生动 100
如果说 100
欠缺 100
一职 100
耻辱 100
邮局 100
圣保罗 100
居所 100
ev 100
大幅@@ 100
耗费 100
耦合 100
解答 100
帐目 100
总统令 100
水管 100
火箭@@ 100
莱斯 100
该局 100
概 100
共和@@ 100
无比 100
湖泊 100
加拿大政府 100
为数@@ 100
榴弹 100
往返 100
白俄罗斯共和国 100
福特 100
御@@ 100
氯化石蜡 100
外交使团 100
梳@@ 100
残留 100
织物 100
赔@@ 100
黏@@ 100
ri 100
受权 100
快点 100
瘦@@ 100
制造@@ 100
哺@@ 100
应得 100
想像 100
新一代 100
畏@@ 100
递给 100
队长 100
前期 100
四川 100
291 100
五分之一 100
从那@@ 100
溯@@ 100
TA@@ 100
产权@@ 100
激起 100
集结 100
郊@@ 100
令人信服 100
威尔@@ 100
飞往 100
香烟 100
地步 100
山谷 100
魔法 100
一个多 100
收拾 100
毕@@ 100
礁 100
蜡烛 100
不远 100
严重破坏 100
以人为本 100
农业部 100
处处长 100
晕 100
谈会 100
4.8 100
带薪 100
社会群体 100
第八章 100
亲人 100
医疗机构 100
汇票 100
遵@@ 100
下称 100
公署 100
悯 100
成见 100
波罗的海 100
魔鬼 100
教育法 100
爸 100
瓶颈 100
第三十七届 100
饲养 100
妓女 100
赫勒拿 100
一行 100
及时性 100
外包 100
新生@@ 100
活产 100
282 100
会为 100
强硬 100
装配 100
首位 100
二届 100
写信给 100
本期 100
前沿 100
参阅 100
存入 100
珠宝 100
第三阶段 100
不便 100
激活 100
鼓 100
广泛支持 100
扼@@ 100
晓 100
水下 100
路口 100
der@@ 100
反弹 100
彩色 100
救护车 100
绳子 100
青年党 100
273 100
不大可能 100
大师 100
时起 100
274 100
出卖 100
削 100
应变 100
开门 100
爱人 100
蓄 100
IC 100
专题组 100
伽@@ 100
做过 100
尼古@@ 100
意外@@ 100
法域 100
优美 100
起诉书 100
双边合作 100
同居 100
启 100
坯 100
处理器 100
改善@@ 100
藐视 100
弟兄 100
抢 100
胖@@ 100
凭证 100
转载 100
宽泛 100
砍伐 100
攻 100
克罗地亚共和国 100
氯苯 100
私下 100
To@@ 100
收益率 100
泄露 100
行长 100
Lo@@ 100
玛丽亚 100
绝大部分 100
者@@ 100
误导 100
武装人员 100
特等 100
上年 100
布斯 100
急救 100
日元 100
蕴@@ 100
转动 100
静脉 100
库克群岛 100
扩建 100
现行@@ 100
恰恰 100
裙子 100
责任制 100
垒 100
法院院长 100
从没 100
便会 100
偏 100
几十@@ 100
妥当 100
趋于 100
可惜 100
日内 100
咨@@ 100
繁忙 100
企 100
外流 100
轻轻 100
长得 100
Cha@@ 100
ez 100
临时@@ 100
可供 100
尼克 100
高科技 100
ly 100
大不@@ 100
ter@@ 100
因数 100
循环@@ 100
树枝 100
格外 100
〈 100
业务流程 100
优于 100
海盗行为 100
胡子 100
跟上 100
启示 100
上司 100
尚有 100
比利@@ 100
颈 100
了不起 100
党员 100
取出 100
基加利 100
广泛传播 100
圣基茨 100
尼维斯 100
预付 100
克鲁@@ 100
坚固 100
平原 100
恐 100
惩教 100
憎@@ 100
无法控制 100
流体 100
承担@@ 100
配有 100
信息安全 100
公共场所 100
第一百 100
ali@@ 100
模具 100
灵感 100
绞@@ 100
忠 100
消费品 100
矫正 100
军营 100
420 100
廓 100
贫困者 100
载荷 100
Is@@ 100
公法 100
性侵犯 100
护送 100
充满活力 100
兔子 100
加斯 100
安大@@ 100
弊@@ 100
各区 100
同志 100
定额 100
秒钟 100
缴费 100
one 100
〇 100
目标群体 100
纪 100
姿势 100
巴拉 100
水电 100
299 100
加以@@ 100
昆 100
蝶 100
证明文件 100
方框 100
植 100
近几年 100
鸣@@ 100
克逊 100
工业部门 100
浪费@@ 100
譬@@ 100
院子 100
水文 100
难得 100
受灾国 100
箭 100
走访 100
个月 100
古怪 100
社会活动 100
避难所 100
馀 100
不算 100
筹划 100
内所 100
圣地 100
恩德培 100
NA@@ 100
听从 100
审问 100
快捷 100
投标书 100
某事 100
不大 100
大片 100
有赖于 100
特殊@@ 100
辽@@ 100
中亚@@ 100
人际@@ 100
估 100
基薪 100
尾巴 100
粗暴 100
37@@ 100
th 100
胖 100
视察@@ 100
普里什蒂纳 100
有损 100
每项 100
调配 100
身体健康 100
尼泊尔@@ 100
爷爷 100
粪@@ 100
har@@ 100
放射 100
漆@@ 100
画家 100
轮换 100
进驻 100
黛@@ 100
何塞 100
惯常 100
飙升 100
飞船 100
370 100
狐@@ 100
萎缩 100
二人 100
放射性@@ 100
联安 100
ID 100
巨头 100
酋长 100
第三十六届 100
隔绝 100
十二个 100
好奇 100
检察机关 100
歌唱 100
赔 100
一如既往 100
严格执行 100
大笔 100
狭隘 100
货车 100
近几年来 100
酰@@ 100
颜@@ 100
淫@@ 100
颖 100
基本要素 100
需求量 100
8.5 100
克兰 100
批评@@ 100
更强 100
求职 100
臣 100
事实@@ 100
全时 100
渔民 100
身后 100
闻名 100
小伙子 100
血清 100
迄今@@ 100
奴 100
遗址 100
问候 100
快要 100
数千 100
850 100
之时 100
树上 100
炸 100
遗 100
交通事故 100
减量 100
圆满 100
存储@@ 100
泼 100
移民法 100
适用法律 100
阻力 100
发作 100
失踪者 100
期货 100
盘子 100
不复@@ 100
不服 100
公信力 100
夷 100
损于 100
强加@@ 100
第七十三 100
近日 100
非洲之角 100
6.7 100
情人 100
可信@@ 100
诸 100
1954 100
302 100
LE@@ 100
停火@@ 100
催化 100
协助执行 100
夺 100
翼@@ 100
29.@@ 100
好莱坞 100
牲@@ 100
PBC 100
一堂 100
击者 100
创始人 100
咬@@ 100
改叙@@ 100
裤子 100
跑步 100
ni@@ 100
半小时 100
和睦 100
抄@@ 100
祭@@ 100
海洋资源 100
视图 100
迪拜 100
销售额 100
Ay@@ 100
亵@@ 100
仆 100
图里 100
祖母 100
五十@@ 100
和善 100
栅@@ 100
见度 100
殖@@ 100
灿@@ 100
公务@@ 100
更替 100
科研@@ 100
规避 100
303 100
EA 100
借此 100
喧@@ 100
或者说 100
FPA 100
两点 100
伙计 100
加工@@ 100
尼日@@ 100
是如此 100
装载 100
适时 100
道义 100
Go@@ 100
总支出 100
总统@@ 100
硅 100
赠 100
bi 100
今 100
切除 100
纳德 100
经济损失 100
ei@@ 100
一整天 100
创造@@ 100
各个@@ 100
国立 100
热带@@ 100
磨损 100
车上 100
转给 100
潮湿 100
相互合作 100
胸 100
亚历山@@ 100
加密 100
鲸 100
48@@ 100
份子 100
佩斯 100
谈判@@ 100
老虎 100
诱导 100
ko@@ 100
东南 100
卧@@ 100
妙@@ 100
Inc 100
怀着 100
拉夫 100
违法@@ 100
301 100
万国宫 100
拨付 100
里昂 100
ex@@ 100
励@@ 100
发掘 100
末尾 100
优越 100
实地@@ 100
比起 100
一路 100
变异 100
斯洛伐@@ 100
疑虑 100
紧迫性 100
聆听 100
遗忘 100
钉@@ 100
高盛 100
PS 100
屑 100
时向 100
照会 100
特殊性 100
自行@@ 100
调查局 100
门外 100
下班 100
危险@@ 100
泛滥 100
涡@@ 100
遣队 100
Par@@ 100
住处 100
出自 100
帅 100
英国政府 100
词典 100
趣@@ 100
Mc@@ 100
番 100
扯 100
晴@@ 100
没想到 100
赌博 100
不力 100
坚持不懈 100
外语 100
浩@@ 100
照看 100
许诺 100
Ms 100
UNA0@@ 100
bu@@ 100
入伍 100
合理性 100
如能 100
税收@@ 100
需品 100
⑴ 100
合乎 100
找个 100
瞄准 100
镍 100
倡导者 100
叶子 100
面孔 100
IN 100
ov@@ 100
嫩 100
开出 100
拉政府 100
试用 100
锋@@ 100
总能 100
赌 100
小学生 100
拌 100
残暴 100
下一代 100
主机 100
全日制 100
副作用 100
卡片 100
战俘 100
烹饪 100
牧民 100
祖父 100
简述 100
肉类 100
人造 100
化解 100
寓@@ 100
豫@@ 100
SGB 100
伸张正义 100
公允 100
发酵 100
墙壁 100
戈马 100
本款 100
不可思议 100
欧亚 100
论据 100
郁症 100
醚 100
不久前 100
世界性 100
四大 100
离境 100
十一月 100
叠@@ 100
哺乳动物 100
媒 100
性犯罪 100
ur 100
出门 100
圆桌 100
友善 100
细致 100
肉体 100
pro@@ 100
保障制度 100
摒@@ 100
杜古 100
哀悼 100
多米尼克 100
巴尔 100
播出 100
身材 100
间谍 100
1244 100
bo@@ 100
pl@@ 100
嫌犯 100
扼要 100
社会工作 100
1.9 100
克减 100
固定翼 100
完备 100
库拉 100
核计划 100
肘 100
271 100
圆满成功 100
联赛 100
麦凯恩 100
278 100
国债 100
个人身份 100
书面通知 100
作文 100
手套 100
最大化 100
纪念日 100
胚胎 100
金山 100
伯格 100
子孙 100
本能 100
民主联盟 100
而作 100
誉 100
六名 100
园里 100
安曼 100
岗@@ 100
巨人 100
so@@ 100
别无@@ 100
娃@@ 100
悲痛 100
阳性 100
亚洲开发银行 100
传给 100
居高不下 100
自然环境 100
齿@@ 100
成份 100
知名@@ 100
列示 100
受控 100
无形 100
热烈欢迎 100
ep@@ 100
侣 100
哈瓦那 100
德里@@ 100
拉尔 100
Group 100
几率 100
好看 100
暴风雨 100
深圳 100
修订本 100
柯 100
分离@@ 100
宾馆 100
程式 100
谬 100
贡 100
资历 100
Col@@ 100
利于 100
基里@@ 100
开庭 100
犹大 100
珊瑚 100
盔 100
称呼 100
纪念碑 100
想不到 100
招待会 100
棕色 100
疏散 100
瘦 100
盲人 100
一视同仁 100
全权@@ 100
太好了 100
猴子 100
非裔 100
愁 100
牧场 100
戳 100
笼统 100
ama 100
嗨 100
想象力 100
贸易中心 100
不宜 100
受审 100
富有成效 100
贩@@ 100
青年@@ 100
顺便 100
关键词 100
投资银行 100
自给自足 100
多多 100
奎@@ 100
润滑油 100
王后 100
苗@@ 100
一年@@ 100
利政府 100
对外@@ 100
记名 100
民主政体 100
监管@@ 100
账单 100
520 100
妥善@@ 100
第三十四届 100
结盟 100
联络官 100
van 100
巴里 100
夏威@@ 100
定期存款 100
少数几个 100
特种 100
节性 100
53@@ 100
例证 100
化学物质 100
塔尔 100
日增 100
第一句 100
ID@@ 100
便携@@ 100
凹@@ 100
液压 100
现出 100
裁员 100
重力 100
二百@@ 100
全国人@@ 100
匿名 100
斯科 100
西南 100
辱@@ 100
周期性 100
拐 100
看似 100
繁重 100
前款 100
戈尔 100
三份 100
化验 100
双性恋 100
法国人 100
秉@@ 100
网格 100
蝴@@ 100
bi@@ 100
东省 100
中产阶级 100
抗力 100
浏览@@ 100
通行证 100
争执 100
维亚 100
蕉 100
遗嘱 100
一连串 100
依赖@@ 100
皂@@ 100
直径 100
在经济上 100
字典 100
打败 100
果实 100
简便 100
饮酒 100
在短期内 100
己@@ 100
朴@@ 100
编制@@ 100
耗氧 100
辣@@ 100
哈利@@ 100
坎帕拉 100
意料 100
海面 100
利亚@@ 100
塞尔 100
键盘 100
同一天 100
嘴唇 100
葡萄 100
剩@@ 100
原型 100
掩饰 100
陋 100
二战 100
侨民 100
促销 100
加元 100
卡特 100
多长时间 100
太大 100
崭新 100
择@@ 100
维埃 100
为首 100
分会 100
奖项 100
景色 100
紧急措施 100
耽搁 100
说是 100
转身 100
方在 100
两用 100
分析表明 100
加拉 100
卡罗@@ 100
卫生系统 100
才干 100
毛病 100
过量 100
壶 100
显出 100
殖民@@ 100
滞 100
晋@@ 100
私人资本 100
虑@@ 100
安援 100
戒指 100
亚洲@@ 100
勒斯 100
巴塞罗@@ 100
悔 100
新疆 100
蒙罗维亚 100
贡@@ 100
佣 100
吉普@@ 100
放进 100
鼓吹 100
呈现出 100
烯@@ 100
砂 100
隶属 100
难以置信 100
丰 100
法学 100
浸 100
这起 100
适应@@ 100
顶部 100
MI@@ 100
No 100
照管 100
苏珊 100
辨认 100
Ho@@ 100
呼叫 100
戈尔诺 100
所设 100
藻 100
所长 100
横 100
残余 100
自发 100
OC 100
劳务 100
商务部 100
庭审 100
感染率 100
慰问 100
短信 100
Cor@@ 100
Do@@ 100
候选@@ 100
抑郁 100
旅行社 100
有助 100
知晓 100
鲜花 100
传唤 100
各有 100
撰 100
大米 100
学龄@@ 100
干活 100
米歇尔 100
继承权 100
要件 100
DC 100
一流 100
本节 100
直接@@ 100
简洁 100
集体行动 100
917 100
出任 100
帝 100
立大学 100
蚀 100
观者 100
里斯@@ 100
惟@@ 100
第二十二条 100
誉@@ 100
议者 100
身子 100
区别@@ 100
搜索@@ 100
黑海 100
齿轮 100
298 100
书店 100
家政 100
这为 100
冥@@ 100
歪曲 100
空间站 100
酌处 100
妄@@ 100
法律责任 100
霍乱 100
AC@@ 100
Vi@@ 100
关上 100
到困难 100
调解@@ 100
中国共产党 100
探测器 100
教皇 100
毁林 100
补给 100
十八@@ 100
福利部 100
一夫多@@ 100
多数票 100
字样 100
学前教育 100
现实情况 100
辛格 100
70@@ 100
下游 100
佣工 100
凯瑟琳 100
取样 100
宛@@ 100
这批 100
三十年 100
协商会 100
不向 100
柜台 100
滞后 100
目击者 100
单击 100
健身 100
剂@@ 100
厘@@ 100
提出@@ 100
谘 100
2018 100
297 100
吸附 100
维拉 100
赶到 100
金色 100
上任 100
充分就业 100
甲烷 100
our@@ 100
冰淇淋 100
嫁@@ 100
摄入 100
朱巴 100
结尾 100
微额 100
斯拉@@ 100
雇@@ 100
CHW 100
演化 100
瑞士法郎 100
竟@@ 100
耶夫 100
躲避 100
理工@@ 100
稀少 100
Michael 100
恼@@ 100
赤道 100
交际 100
分派 100
缮 100
IG@@ 100
儿女 100
内载 100
股本 100
走开 100
口岸 100
对受 100
悖@@ 100
普通法 100
火炬 100
嗓@@ 100
瓦斯 100
疆@@ 100
在我@@ 100
弗兰克 100
手提@@ 100
攀升 100
校正 100
组办 100
hi 100
环境部 100
肿@@ 100
轨迹 100
鲨@@ 100
5.7 100
记录在案 100
证券公司 100
相关联 100
豪 100
ung 100
低温 100
大大减少 100
磁场 100
第二十八届 100
节约@@ 100
Web 100
地狱 100
IT@@ 100
哨所 100
唱片 100
弦 100
强壮 100
拉德 100
现今 100
监察@@ 100
精密 100
美军 100
诱 100
阻挡 100
Ram@@ 100
受害国 100
叹@@ 100
强奸@@ 100
所持 100
清晨 100
卡扎@@ 100
布莱尔 100
截然不同 100
接获 100
范本 100
手表 100
欧洲议会 100
联卢 100
311 100
帘 100
未作 100
积金 100
组装 100
价格指数 100
第二季度 100
以补 100
真实性 100
郁@@ 100
陆上 100
440 100
宅@@ 100
294 100
国籍法 100
遗失 100
一审 100
之道 100
原产地 100
叛乱分子 100
展览会 100
惹@@ 100
为数 100
PA 100
南南 100
咒 100
客观性 100
聊 100
国营 100
报率 100
掌管 100
死亡@@ 100
求职者 100
过得 100
2050 100
人次 100
已故 100
成人@@ 100
瓶子 100
发展前景 100
we@@ 100
兼并 100
卡特尔 100
毫无意义 100
燕@@ 100
依法追究 100
悲观 100
摩根@@ 100
改革开放 100
病情 100
确性 100
脚步 100
附加值 100
mar@@ 100
军警 100
咳@@ 100
旬 100
浪潮 100
担当 100
无核@@ 100
澡 100
禽@@ 100
退役 100
尿 100
晃 100
480 100
个世纪 100
因应 100
普遍@@ 100
最易 100
粹@@ 100
问问 100
底层 100
棚 100
笼 100
肚子 100
酿@@ 100
首歌 100
劫 100
嫉妒 100
德里 100
砸 100
两起 100
人间 100
减税 100
小心@@ 100
朝向 100
毕业@@ 100
眼里 100
第三十五届 100
Ahmed 100
各派 100
大火 100
集中精力 100
理所当然 100
见过 100
首要@@ 100
仔细@@ 100
国防@@ 100
感知 100
美味 100
贝克 100
Ri@@ 100
ner 100
古巴政府 100
展出 100
抗体 100
采购@@ 100
陷阱 100
乐器 100
今世 100
年头 100
技术开发 100
晶体 100
紧密@@ 100
经销商 100
绩@@ 100
请求@@ 100
雅加达 100
差别@@ 100
阿姆@@ 100
偶像 100
其他@@ 100
冈 100
节省@@ 100
赛事 100
因果关系 100
堤 100
尔多 100
瞩@@ 100
菲利@@ 100
邮政局 100
国会议员 100
多米尼@@ 100
IP 100
屁@@ 100
ler 100
婪 100
开展@@ 100
澳门@@ 100
薯 100
』 100
各项@@ 100
立学校 100
Sar@@ 100
运人 100
夕@@ 100
na 100
401 100
JIU 100
ang@@ 100
8.3 100
尸@@ 100
诈 100
悠@@ 100
主管@@ 100
召 100
蔑 100
430 100
楚 100
畜 100
激 100
VII 100
ans@@ 100
嫩@@ 100
io 100
肆 100
ass@@ 100
ate 100
ich 100
伍 100
申请@@ 100
贿 100
Ex@@ 100
by 100
陌@@ 100
XX 100
漠@@ 100
ii 100
利害@@ 100
消 100
怎么@@ 100
460 100
匆 100
溢 100
营利 100
厉@@ 100
mi@@ 100
咸@@ 100
墟 100
揭 100
昭@@ 100
工具@@ 100
解决@@ 100
293 100
籍@@ 100
IM@@ 100
鸭 100
椒 100
墓 100
开发银行 100
儒@@ 100
惹 100
羞 100
身体@@ 100
lan@@ 100
崩@@ 100
渎 100
茄 100
厢 100
祈@@ 100
氮@@ 100
EN@@ 100
各样 100
蝇 100
慈 100
议院 100
访问@@ 100
AB@@ 100
ce 100
孙 100
窄 100
聪@@ 100
庸@@ 100
wa 100
越来@@ 100
journal 100
巴基@@ 100
惧 100
爵 100
镑 100
狸 100
胆 100
Wal@@ 100
eh 100
琳@@ 100
Ben@@ 100
tion 100
抹@@ 100
Ni@@ 100
58@@ 100
柜@@ 100
踪@@ 100
REP 100
苔@@ 100
5.8 100
Or@@ 100
忌@@ 100
远地区 100
钻 100
葛@@ 100
CP@@ 100
溃@@ 100
Tu@@ 100
8.1 100
耀@@ 100
宙@@ 100
缀 100
役@@ 100
Ku@@ 100
聊@@ 100
UR@@ 100
ji 100
新西@@ 100
埃塞俄@@ 100
契 100
平方@@ 100
琐 100
魂 100
兔 100
棕@@ 100
澳 100
Du@@ 100
Mat@@ 100
oo@@ 100
● 100
朝鲜@@ 100
EC@@ 100
刹@@ 100
生素 100
ano 100
泉@@ 100
皆@@ 100
ph@@ 100
值得@@ 100
柳@@ 100
烘@@ 100
财产@@ 100
HIV 100
富有@@ 100
盆@@ 100
济 100
九届 100
政局 100
棍@@ 100
衔@@ 100
脏@@ 100
DE@@ 100
傻 100
律师@@ 100
410 100
驳 100
古巴@@ 100
捆@@ 100
裕 100
娜@@ 100
315 100
柠@@ 100
辅 100
切尔@@ 100
内政@@ 100
312 100
扇@@ 100
浆@@ 100
豹 100
踩 100
390 100
泄@@ 100
皇 100
谣@@ 100
67@@ 100
常务@@ 100
IX 100
直升@@ 100
确定性 100
CN@@ 100
僚@@ 100
庸 100
阿富@@ 100
总的@@ 100
CT@@ 100
⑵ 100
妈@@ 100
碑 100
OL 100
宠@@ 100
David 100
反应@@ 100
一般@@ 100
307 100
vi 100
1500 100
辩护@@ 100
ñ 100
匪@@ 100
徽@@ 100
祥 100
触 100
阐@@ 100
霉 100
BC 100
佑 100
PR@@ 100
义务@@ 100
娘 100
猖@@ 100
匀@@ 100
隔离@@ 100
特尔 100
姑@@ 100
阿布@@ 100
ata 100
浙@@ 100
59@@ 100
1955 100
wa@@ 100
堕@@ 100
AD@@ 100
os@@ 100
耸@@ 100
颊 100
着重@@ 100
ti 100
臭 100
茫 100
6.8 100
抑 100
血压 100
在此@@ 100
苛@@ 100
政体 100
皂 100
透明@@ 100
乃 100
轨@@ 100
Ser@@ 100
He@@ 100
原则@@ 100
歧@@ 100
狮 100
绳@@ 100
兑@@ 100
厉 100
艳 100
XL@@ 100
濒@@ 100
im 100
愤 100
VIII 100
Vol 100
313 100
『 100
306 100
漫 100
23.@@ 100
560 100
68@@ 100
欢 100
伺@@ 100
叛 100
哇 100
瞬@@ 100
凌 100
NO@@ 100
end@@ 100
提高@@ 100
ada 100
付诸@@ 100
箭@@ 100
毋@@ 100
4.9 100
des 100
办事@@ 100
摇 100
尝@@ 100
8.2 100
IA@@ 100
309 100
MA 100
me 100
兄 100
炭@@ 100
伊拉克@@ 100
冈@@ 100
措 100
砖@@ 100
忧 100
绅@@ 100
诠@@ 100
饱 100
1959 100
寸 100
堵 100
ESCAP 100
sen 100
9.5 100
ye@@ 100
肃@@ 100
E4 100
摊 100
昧 100
矮 100
雀@@ 100
饼@@ 100
CM@@ 100
豚 100
鸭@@ 100
Per@@ 100
矢@@ 100
47@@ 100
7.6 100
CL@@ 100
AP 100
Jean 100
彭@@ 100
腹 100
诵 100
颂 100
拆 100
职人员 100
ek 100
so 100
we 100
泊@@ 100
理会 100
进行@@ 100
326 100
裨@@ 100
昏 100
蕾@@ 100
US@@ 100
梗@@ 100
寺 100
够@@ 100
杨 100
沟@@ 100
0.3 100
朴 100
辣 100
314 100
咒@@ 100
抽 100
滨@@ 100
鲸@@ 100
芯 100
追 100
308 100
仲裁@@ 100
蜘@@ 100
肮@@ 100
橙@@ 100
卑 100
Atlas 100
Mal@@ 100
舌 100
纬@@ 100
9.3 100
罗姆@@ 100
1874 100
Rob@@ 100
md@@ 100
com@@ 100
悔@@ 100
管辖@@ 100
雀 100
325 100
It 100
8.4 100
om 100
抛 100
雇 100
TR@@ 100
ell@@ 100
浓 100
竭@@ 100
Ka@@ 100
掠@@ 100
椭@@ 100
怎 100
枕@@ 100
囚 100
监护@@ 100
201@@ 100
恫@@ 100
.... 100
轧@@ 100
ve 100
阈@@ 100
亏@@ 100
1956 100
9.1 100
ru@@ 100
奸 100
333 100
猩@@ 100
NE@@ 100
伊斯兰共和国 100
兵役 100
318 100
叉 100
咽 100
寺@@ 100
痹@@ 100
Bi@@ 100
ley 100
str@@ 100
Bel@@ 100
ent@@ 100
渴 100
470 100
Ac@@ 100
掘 100
胎@@ 100
建设@@ 100
楚@@ 100
AM@@ 100
凑 100
溪@@ 100
阿尔巴@@ 100
帖 100
斜 100
狩@@ 100
1957 100
ala 100
垂 100
窒@@ 100
怨 100
ker 100
United 100
担 100
绒 100
嗽 100
貌@@ 100
强制@@ 100
Ak@@ 100
eng@@ 100
削@@ 100
钞@@ 100
潘 100
烂@@ 100
缉@@ 100
OR@@ 100
ö 100
框@@ 100
陷@@ 100
以色列@@ 100
沸@@ 100
Muhammad 100
诉讼法 100
0.1 100
We@@ 100
ali 100
诡@@ 100
IR@@ 100
Morgan 100
拳 100
行政区 100
嘲@@ 100
沛 100
Da@@ 100
出租@@ 100
君 100
涵@@ 100
黎 100
are 100
540 100
创新@@ 100
55@@ 100
ü 100
嚼 100
49@@ 100
晕@@ 100
饥@@ 100
tu@@ 100
拦@@ 100
发言@@ 100
抚 100
rah 100
鼻 100
常务委员会 100
申 100
ity 100
旱 100
OP@@ 100
亩 100
CD@@ 100
ary 100
糙 100
辊 100
tr@@ 100
扮@@ 100
芳 100
芋 100
俘@@ 100
傍@@ 100
寞 100
獗 100
诋@@ 100
伊拉@@ 100
our 100
抨@@ 100
锯@@ 100
21.@@ 100
晒 100
氰@@ 100
爷 100
隶@@ 100
劲@@ 100
巴拿@@ 100
惯 100
虔@@ 100
凶 100
投标@@ 100
译员 100
ham@@ 100
期徒刑 100
棋 100
罢 100
运载@@ 100
780 100
亟@@ 100
Peter 100
拒绝@@ 100
殷@@ 100
Mohammed 100
侪 100
宵@@ 100
MS 100
旦 100
脊 100
睐 100
CC 100
年轻@@ 100
No@@ 100
酵@@ 100
钴 100
绪@@ 100
80@@ 100
哨@@ 100
诀 100
China 100
肾 100
萘 100
387 100
Ahmad 100
挣 100
ven@@ 100
亭 100
沈@@ 100
319 100
炫@@ 100
㈦ 100
毫@@ 100
闷@@ 100
容性 100
纲 100
取向 100
焚@@ 100
棱@@ 100
郊 100
狠 100
ip@@ 100
晒@@ 100
钥 100
马其@@ 100
桂@@ 100
辜@@ 100
确 100
茅@@ 100
Oz@@ 100
筑@@ 100
尼尔 100
幼儿@@ 100
溴@@ 100
LO@@ 100
伽 100
阔@@ 100
7.7 100
pa@@ 100
Fa@@ 100
1952 100
雄 100
DA@@ 100
瑜@@ 100
507 100
掀@@ 100
溪 100
胀 100
辖@@ 100
ara 100
ric@@ 100
利益@@ 100
肪@@ 100
袭@@ 100
驱逐@@ 100
aya 100
ie 100
锻@@ 100
拱@@ 100
捣@@ 100
CO2 100
Te@@ 100
dy 100
虹 100
掺@@ 100
讲习@@ 100
大西@@ 100
ham 100
ate@@ 100
赋@@ 100
res@@ 100
men@@ 100
洄@@ 100
玉 100
323 100
莲 100
Ltd 100
asp 100
坎 100
谜 100
Nic@@ 100
引人@@ 100
武装@@ 100
OEWG 100
会儿 100
祥@@ 100
0.4 100
么@@ 100
烫 100
MC 100
侈@@ 100
友好@@ 100
1718 100
1947 100
增长@@ 100
悼@@ 100
猩 100
MSP 100
澳大利@@ 100
You@@ 100
掠 100
950 100
ty 100
对性 100
捐 100
膝 100
难民@@ 100
660 100
ers 100
喂养 100
HRI 100
窝@@ 100
蠢@@ 100
违 100
惰 100
FA@@ 100
335 100
ess@@ 100
尔多@@ 100
疹 100
喉 100
ans 100
35@@ 100
慌@@ 100
梭 100
腿@@ 100
24.@@ 100
mail 100
之三 100
喂@@ 100
髦 100
乃@@ 100
凤@@ 100
睁@@ 100
掏@@ 100
ban@@ 100
蚀@@ 100
..@@ 100
崖 100
NG@@ 100
呵 100
杭@@ 100
紊@@ 100
镶@@ 100
69@@ 100
Gi@@ 100
bl@@ 100
瞧@@ 100
钚 100
弧@@ 100
ann@@ 100
制性 100
ISO 100
哭@@ 100
510 100
rez 100
IF@@ 100
KP 100
晨@@ 100
铸 100
卡塔@@ 100
彬@@ 100
Fed 100
640 100
° 100
SP@@ 100
甘 100
317 100
斥@@ 100
饶@@ 100
Kam@@ 100
烁 100
聋@@ 100
选举@@ 100
han 100
鸦 100
375 100
9.4 100
doc@@ 100
327 100
ger 100
﹐ 100
Com@@ 100
蚂@@ 100
珀 100
绵 100
羡@@ 100
CR@@ 100
嘉 100
骼 100
7.8 100
Ger@@ 100
～ 100
Sect 100
共处 100
访者 100
Ge@@ 100
誓 100
佐 100
列颠 100
安哥@@ 100
忆@@ 100
捞 100
64@@ 100
7.9 100
ski 100
0.6 100
5935 100
来文@@ 100
爸@@ 100
蟹 100
Far@@ 100
悖 100
敌对@@ 100
相当@@ 100
5.9 100
National 100
搏 100
珀@@ 100
情况@@ 100
MI 100
au 100
Sim@@ 100
par@@ 100
宰@@ 100
屯@@ 100
括号 100
秦@@ 100
berg 100
淘@@ 100
瑰@@ 100
9.2 100
CF@@ 100
GE@@ 100
旨@@ 100
Hol@@ 100
ane 100
紧张@@ 100
腕 100
490 100
某种@@ 100
琐@@ 100
骆@@ 100
328 100
僧@@ 100
勃勃 100
挑 100
破坏@@ 100
钝 100
EL@@ 100
š 100
狠@@ 100
321 100
Kh@@ 100
3.9 100
新加@@ 100
逾@@ 100
uc@@ 100
ira 100
esa 100
620 100
Mus@@ 100
ab 100
帆 100
歉@@ 100
踪 100
逛 100
Mer@@ 100
渺@@ 100
罗马@@ 100
驼 100
焊 100
1737 100
矫@@ 100
720 100
att@@ 100
铐 100
慕@@ 100
346 100
Chi@@ 100
煎@@ 100
缅@@ 100
AI 100
髓@@ 100
law 100
烹@@ 100
妨@@ 100
朱 100
萌@@ 100
per@@ 100
症@@ 100
POPRC 100
在乎 100
322 100
毅@@ 100
钾 100
Mad@@ 100
PO@@ 100
簧 100
棵@@ 100
竣@@ 100
魏@@ 100
337 100
痒 100
︰ 100
盲 100
览@@ 100
345 100
University 100
sc@@ 100
奴@@ 100
Ban@@ 100
屉 100
健康@@ 100
吞 100
嚷 100
所在@@ 100
66@@ 100
葱 100
迫切@@ 100
Lin@@ 100
喘@@ 100
徐@@ 100
援助@@ 100
Shi@@ 100
324 100
丙 100
昌@@ 100
Abdul@@ 100
彻底@@ 100
oun@@ 100
0.8 100
000@@ 100
99.@@ 100
窥@@ 100
粘 100
EM 100
眠@@ 100
ran@@ 100
真实@@ 100
斐@@ 100
驴 100
从业@@ 100
橱@@ 100
谎@@ 100
Pa@@ 100
冉@@ 100
姚@@ 100
弟 100
稠@@ 100
闪 100
Che@@ 100
bo 100
852 100
Mil@@ 100
反对@@ 100
立陶@@ 100
遏@@ 100
券@@ 100
329 100
Pl@@ 100
寥@@ 100
Ash@@ 100
CS 100
hal@@ 100
养老@@ 100
昔@@ 100
SPLOS 100
宋@@ 100
Pro 100
盈 100
RO@@ 100
扁@@ 100
8.6 100
婆@@ 100
溺@@ 100
邪@@ 100
56@@ 100
凋@@ 100
侨@@ 100
疫@@ 100
ef@@ 100
袍 100
国集团 100
产地 100
人权@@ 100
任何@@ 100
纬 100
蛛 100
垮 100
纤@@ 100
AU 100
BS 100
拮@@ 100
趋 100
IA 100
屠@@ 100
币@@ 100
朽 100
狡@@ 100
睫 100
WTO 100
芦@@ 100
贝尔@@ 100
ica 100
玩笑 100
354 100
406 100
da@@ 100
慰@@ 100
zi@@ 100
未有 100
TC 100
渠 100
寂 100
Abdel@@ 100
晃@@ 100
樱@@ 100
ca 100
嵌 100
摩洛@@ 100
残疾@@ 100
Corp 100
信用@@ 100
酿 100
饿@@ 100
336 100
③ 100
don 100
ps 100
AN 100
TP 100
腻 100
ick@@ 100
谚@@ 100
fa 100
fa@@ 100
呃 100
档@@ 100
稼 100
僻 100
坪 100
基金@@ 100
逗@@ 100
ft 100
弧 100
348 100
Mohammad 100
椎 100
糊 100
袜@@ 100
tt@@ 100
崇 100
Je@@ 100
630 100
• 100
行动@@ 100
331 100
guez 100
慰 100
匙 100
TE@@ 100
ju@@ 100
ous@@ 100
鄙 100
滔@@ 100
351 100
del@@ 100
泳 100
洽@@ 100
您@@ 100
MA@@ 100
添 100
渥 100
via 100
臣@@ 100
览会 100
AIG 100
26.@@ 100
SAT 100
暨 100
疾 100
盎@@ 100
Cam@@ 100
XVII 100
ye 100
侈 100
屈 100
稽 100
抉@@ 100
TS 100
搏@@ 100
衰 100
349 100
乾@@ 100
庞@@ 100
骇@@ 100
Nor@@ 100
XML 100
绸 100
Fer@@ 100
Paul 100
730 100
Windows 100
呵@@ 100
漠化 100
44@@ 100
Bur@@ 100
埔 100
得起 100
收款 100
580 100
enn@@ 100
1612 100
加拿大@@ 100
暇 100
悦@@ 100
603 100
ela 100
贯 100
路易@@ 100
Bou@@ 100
乒@@ 100
享 100
惩 100
宏 100
绸@@ 100
570 100
Ti@@ 100
熄@@ 100
匪 100
孵@@ 100
La 100
灶 100
篡@@ 100
寸@@ 100
Richard 100
伊尔 100
22.@@ 100
bar@@ 100
愉@@ 100
独 100
鸽@@ 100
Ju@@ 100
110.@@ 100
哩 100
大气@@ 100
den 100
引力 100
GA 100
426 100
撇@@ 100
返 100
可能@@ 100
334 100
347 100
诅@@ 100
1353 100
Ibrahim 100
all 100
ant 100
动产 100
惫 100
姨@@ 100
嫁 100
捏@@ 100
皱 100
依法@@ 100
net 100
366 100
AB 100
少数@@ 100
斯堡 100
ey 100
剖 100
棚@@ 100
煮@@ 100
颗@@ 100
冤@@ 100
耕 100
6.9 100
兜@@ 100
RS 100
赎 100
疵 100
筋@@ 100
墅 100
甄@@ 100
键@@ 100
喔 100
弟@@ 100
661 100
悄 100
腥 100
溶 100
钦 100
Bas@@ 100
匿 100
撑@@ 100
俊 100
琼 100
＋ 100
参 100
奥地@@ 100
岂 100
膀@@ 100
ga@@ 100
肚@@ 100
0.2 100
栅 100
sk@@ 100
凄@@ 100
碧@@ 100
捧 100
陡@@ 100
骤@@ 100
IE 100
ten@@ 100
多元@@ 100
尽全力 100
届@@ 100
旨 100
浦@@ 100
DC@@ 100
680 100
Pi@@ 100
嗜@@ 100
忍 100
590 100
Nations 100
Ver@@ 100
凑@@ 100
唇 100
峙 100
时性 100
瀑@@ 100
355 100
ISBA 100
债务@@ 100
兄@@ 100
匀 100
购买@@ 100
cl@@ 100
堪 100
莲@@ 100
格林@@ 100
631 100
而易@@ 100
藤 100
46@@ 100
拢 100
SD@@ 100
432 100
Mun@@ 100
st 100
凝 100
Mas@@ 100
不下 100
灌 100
牺@@ 100
竹 100
374 100
天文@@ 100
葡@@ 100
mar 100
ian 100
伊斯兰@@ 100
Val@@ 100
dr@@ 100
332 100
学金 100
籽 100
缉 100
vo 100
At@@ 100
NGO 100
Er@@ 100
塞尔@@ 100
威士@@ 100
逮捕@@ 100
43@@ 100
肽 100
Mac 100
徵@@ 100
谁@@ 100
497 100
陪@@ 100
ER 100
奸@@ 100
RA 100
印机 100
笛 100
达尔@@ 100
394 100
瞎@@ 100
XVI 100
ks 100
趁@@ 100
Google 100
509 100
替代@@ 100
碍 100
茄@@ 100
sky 100
华盛@@ 100
牟@@ 100
ita 100
℃ 100
啥 100
醋 100
1200 100
人力@@ 100
秃@@ 100
肴 100
45@@ 100
hou@@ 100
ino 100
怯 100
拇@@ 100
炒@@ 100
zi 100
341 100
猴 100
不足@@ 100
盾@@ 100
罹@@ 100
364 100
ire 100
XXI 100
淀 100
糟@@ 100
嗅@@ 100
翰 100
夸 100
徘@@ 100
蹂@@ 100
343 100
Bra@@ 100
矩@@ 100
拓 100
哮@@ 100
胀率 100
言之 100
356 100
Min@@ 100
ant@@ 100
产阶级 100
晰@@ 100
8.7 100
有利@@ 100
馨 100
无家可@@ 100
覆盖@@ 100
03@@ 100
履行@@ 100
蕾 100
8.8 100
徊 100
梵@@ 100
稽@@ 100
353 100
IL@@ 100
砍 100
谟 100
MP@@ 100
珍 100
IBM 100
the@@ 100
垮@@ 100
751 100
che@@ 100
坚持@@ 100
1929 100
剔@@ 100
412 100
EM@@ 100
敷@@ 100
结婚@@ 100
桨 100
迦 100
伙@@ 100
就是@@ 100
茫@@ 100
415 100
1624 100
爪@@ 100
352 100
77@@ 100
妖@@ 100
Ag@@ 100
玫@@ 100
锚@@ 100
344 100
伊斯@@ 100
秽 100
雕 100
茜 100
385 100
催化@@ 100
475 100
XIX 100
760 100
媚 100
100@@ 100
414 100
kov 100
灼@@ 100
稣@@ 100
躏 100
绒@@ 100
Inter@@ 100
SB 100
笨 100
姊@@ 100
纱@@ 100
ill 100
绣 100
任务@@ 100
扶 100
381 100
690 100
BO@@ 100
que 100
姿 100
椰@@ 100
焕@@ 100
DA 100
芒@@ 100
躯@@ 100
gen@@ 100
大战 100
迭 100
371 100
Mac@@ 100
Mah@@ 100
弓 100
敛 100
PLC 100
乓@@ 100
860 100
My@@ 100
阁@@ 100
610 100
Law 100
US 100
危地@@ 100
幅@@ 100
约束@@ 100
计数 100
AS 100
TP@@ 100
伯利@@ 100
Ale@@ 100
gl@@ 100
402 100
AG@@ 100
示威@@ 100
锚 100
OS 100
age 100
GGE 100
yan 100
357 100
ij@@ 100
驾 100
Sha 100
涩 100
Has@@ 100
ac 100
动物@@ 100
孽 100
溜 100
Hassan 100
val@@ 100
sch@@ 100
LC 100
布罗@@ 100
487 100
503 100
Hal@@ 100
fe@@ 100
气候@@ 100
赵@@ 100
毯@@ 100
适 100
372 100
386 100
mann 100
敏感@@ 100
339 100
417 100
疚 100
董 100
359 100
裸 100
一小@@ 100
_@@ 100
ach 100
ú 100
权人 100
488 100
缔@@ 100
美利坚合众@@ 100
虏 100
亨 100
LL 100
XXIX 100
短期内 100
泌@@ 100
私营@@ 100
Ke@@ 100
SB@@ 100
渣@@ 100
Gra@@ 100
mer 100
蒙特@@ 100
422 100
沙特@@ 100
熏@@ 100
ast@@ 100
━ 100
BP 100
仙 100
Em@@ 100
olo@@ 100
黯@@ 100
ick 100
lic@@ 100
373 100
锰 100
423 100
CEO 100
CM 100
ish 100
吵 100
389 100
413 100
KB 100
犬@@ 100
耽@@ 100
408 100
hk 100
靶@@ 100
416 100
PCNICC 100
恕 100
KO@@ 100
薇 100
国内@@ 100
蛇@@ 100
382 100
FS 100
Tor@@ 100
吾@@ 100
弦@@ 100
招待@@ 100
议事@@ 100
XXVI 100
ff 100
棋@@ 100
肖 100
阿鲁@@ 100
橱 100
蠕@@ 100
je@@ 100
通报@@ 100
东道@@ 100
删@@ 100
魂@@ 100
358 100
唾@@ 100
铬 100
客观@@ 100
袒 100
吊 100
436 100
臂@@ 100
Dar@@ 100
od@@ 100
瘘@@ 100
AA 100
akh@@ 100
俟 100
405 100
9.6 100
tin@@ 100
巴勒@@ 100
醛 100
1572 100
亥@@ 100
363 100
456 100
ot 100
tan@@ 100
adi@@ 100
ons 100
垦 100
风险@@ 100
咙 100
经常@@ 100
鸿@@ 100
ecosoc 100
368 100
毯 100
涅 100
宅 100
2025 100
Docs 100
Ny@@ 100
986 100
般@@ 100
ado 100
ales 100
二氧化@@ 100
熬 100
Robert 100
mu@@ 100
波斯@@ 100
纵 100
毙 100
民国 100
if@@ 100
窍 100
Ed@@ 100
侄@@ 100
辖 100
FD@@ 100
拙 100
酋 100
Ca@@ 100
si 100
ura 100
唉 100
428 100
厄瓜多@@ 100
外国@@ 100
渍 100
锈 100
Bal@@ 100
Tar@@ 100
哑@@ 100
喷 100
369 100
柔 100
362 100
辙 100
鹅@@ 100
her 100
巷 100
渊 100
窑 100
342 100
her@@ 100
ong@@ 100
懒 100
377 100
439 100
Af@@ 100
min@@ 100
克罗@@ 100
巡逻@@ 100
Hus@@ 100
刮 100
54@@ 100
For@@ 100
撼 100
棺@@ 100
392 100
sen@@ 100
红新@@ 100
ç 100
发表@@ 100
亚太经@@ 100
疮 100
镀 100
Kim 100
MBA 100
凿@@ 100
筝 100
443 100
珂 100
411 100
EX 100
普林@@ 100
噩@@ 100
愁@@ 100
10.1 100
PE@@ 100
illa 100
莱德 100
合理@@ 100
1907 100
383 100
May@@ 100
蹈@@ 100
Gon@@ 100
ack@@ 100
ent 100
mm 100
突 100
512 100
× 100
Ki@@ 100
栗 100
Facebook 100
lah 100
sh 100
è 100
万国@@ 100
379 100
committee 100
涡 100
ris@@ 100
怂@@ 100
斯加 100
徽 100
狮@@ 100
碘 100
＝ 100
Un@@ 100
塌@@ 100
镁 100
Maria 100
ance 100
cia 100
ena 100
卧 100
窘@@ 100
贞@@ 100
1559 100
Az@@ 100
呕@@ 100
弘@@ 100
逻@@ 100
361 100
404 100
up@@ 100
抬 100
拾@@ 100
聋 100
薯@@ 100
Khan 100
慌 100
距@@ 100
孜@@ 100
慨 100
any@@ 100
ao 100
衬 100
贺 100
25.@@ 100
CST 100
Don 100
red@@ 100
坑@@ 100
扁 100
睹 100
蔓@@ 100
World 100
ord@@ 100
恿 100
解释@@ 100
XI 100
陪审@@ 100
0.9 100
ds 100
趾 100
陵 100
颅@@ 100
XIV 100
榜@@ 100
菇 100
391 100
Mak@@ 100
殖 100
10.2 100
允@@ 100
娘@@ 100
403 100
IR 100
塞尔维@@ 100
殊 100
Kafr 100
MD@@ 100
ster 100
产值 100
剔 100
N1 100
gan@@ 100
韧 100
Alma 100
vel@@ 100
燥 100
鄙@@ 100
501 100
485 100
vic 100
萃@@ 100
435 100
哈拉 100
珥 100
艳@@ 100
Kal@@ 100
胺@@ 100
Luis 100
俊@@ 100
约翰@@ 100
ber 100
臀@@ 100
蜗@@ 100
谓@@ 100
ore 100
谊 100
疏 100
蓬 100
郭@@ 100
Pol@@ 100
眉 100
ce@@ 100
天然@@ 100
纺@@ 100
De 100
HSP 100
囱 100
437 100
Mur@@ 100
发布@@ 100
Bor@@ 100
XIII 100
截 100
沌 100
438 100
Jabal 100
烛@@ 100
457 100
Pal@@ 100
黎巴@@ 100
蜡@@ 100
407 100
Au@@ 100
垄@@ 100
讽 100
12.5 100
478 100
巢@@ 100
521 100
华尔@@ 100
淤@@ 100
藤@@ 100
wi@@ 100
彰@@ 100
痴 100
罩@@ 100
骄@@ 100
409 100
NA 100
摧@@ 100
馏 100
ain@@ 100
CS@@ 100
毗@@ 100
邸 100
摔 100
高速@@ 100
Shu@@ 100
ze 100
宏观@@ 100
适用@@ 100
LA 100
Naqurah 100
PaperSmart 100
ere 100
Ben 100
CA 100
RE 100
iro 100
倚@@ 100
瘟@@ 100
1521 100
973 100
isa 100
捡 100
揽 100
Lau@@ 100
恳 100
蜡 100
1503 100
UNCTAD 100
rel@@ 100
ova 100
伞@@ 100
吝@@ 100
绊@@ 100
哑 100
氨 100
378 100
Del@@ 100
no 100
拉丁@@ 100
煽@@ 100
磺 100
馈@@ 100
525 100
甫 100
贫民@@ 100
崎@@ 100
锤 100
ario 100
he 100
暂 100
纳尔 100
anda 100
双重@@ 100
455 100
帕拉 100
洒@@ 100
Sol@@ 100
DC2 100
She@@ 100
⑶ 100
419 100
XVIII 100
for@@ 100
1930 100
418 100
洲@@ 100
424 100
if 100
娇@@ 100
堤@@ 100
09@@ 100
ardo 100
376 100
715 100
→ 100
弓@@ 100
咳 100
规范@@ 100
444 100
柿 100
421 100
咽@@ 100
惨 100
杏@@ 100
芝@@ 100
477 100
CRIC 100
ver 100
Pan@@ 100
bin 100
倡@@ 100
朋@@ 100
je 100
除此@@ 100
SU@@ 100
445 100
Shar@@ 100
mon@@ 100
爪 100
采取@@ 100
颤 100
Jam@@ 100
俭 100
涤 100
Mic@@ 100
侯 100
切实@@ 100
巫 100
429 100
生育@@ 100
Can@@ 100
可预@@ 100
海事@@ 100
络 100
Sab@@ 100
hy@@ 100
定期@@ 100
433 100
实质@@ 100
CI@@ 100
hol@@ 100
9.7 100
Carlos 100
add@@ 100
lez 100
尽量@@ 100
Ter@@ 100
him@@ 100
嗡@@ 100
嫌 100
ini 100
ä 100
嘘 100
民间@@ 100
Sil@@ 100
疤 100
葵@@ 100
蝙@@ 100
FO@@ 100
Mag@@ 100
渴@@ 100
辉@@ 100
864 100
Char@@ 100
栽 100
8.9 100
介绍@@ 100
栖 100
395 100
Ara@@ 100
tar 100
吨@@ 100
醋@@ 100
AR 100
栈 100
483 100
red 100
拥 100
汹@@ 100
篱@@ 100
乌兹别@@ 100
趁 100
颂@@ 100
č 100
屁 100
pe 100
姐 100
柏 100
湄@@ 100
Mari@@ 100
UNA@@ 100
弛 100
多数@@ 100
RP@@ 100
噪@@ 100
玷@@ 100
荃@@ 100
Ap@@ 100
唆 100
噬 100
饵 100
挠 100
酝@@ 100
2.0 100
垢 100
注意@@ 100
姜@@ 100
assi@@ 100
pu@@ 100
论会 100
BA 100
唇@@ 100
姬 100
ell 100
周转@@ 100
夷@@ 100
贤@@ 100
Pri@@ 100
mat@@ 100
pa 100
Sul@@ 100
yn@@ 100
沐@@ 100
牡@@ 100
ila 100
酯@@ 100
\ 100
冕 100
印第@@ 100
惮 100
咪 100
海地区 100
润滑@@ 100
皿 100
ise 100
ola 100
㈧ 100
晰 100
AK 100
tis 100
凳 100
朵@@ 100
烷@@ 100
谊@@ 100
帧 100
TV 100
苑 100
San 100
ji@@ 100
land 100
冯@@ 100
忱 100
踏 100
鸥 100
亚太@@ 100
移动@@ 100
傲 100
广泛@@ 100
所罗@@ 100
碘@@ 100
des@@ 100
鳄@@ 100
OP 100
jo@@ 100
枯 100
钛 100
ja@@ 100
虹@@ 100
谬@@ 100
Yu@@ 100
ade@@ 100
捆 100
aa 100
奎 100
膛 100
002 100
1.0 100
br@@ 100
喃 100
1953 100
gn@@ 100
tra@@ 100
恨@@ 100
中非@@ 100
孢@@ 100
199@@ 100
Hab@@ 100
廷@@ 100
诀@@ 100
AD 100
匈牙@@ 100
後@@ 100
抖@@ 100
橘@@ 100
靴@@ 100
Maj@@ 100
Martin 100
惑@@ 100
ting 100
主导@@ 100
嬉@@ 100
斯洛文@@ 100
裹 100
Des@@ 100
dri@@ 100
哺乳@@ 100
圳@@ 100
Ado@@ 100
awa 100
叭 100
喋@@ 100
瑕@@ 100
NBA 100
怕@@ 100
汶@@ 100
莽 100
dis@@ 100
Fl@@ 100
ow@@ 100
蒜 100
潭 100
鹿@@ 100
佣@@ 100
癫@@ 100
荫@@ 100
蹦@@ 100
mer@@ 100
伙伴@@ 100
剃@@ 100
吉尔@@ 100
HS 100
碗@@ 100
筹 100
洽 100
芽@@ 100
闸 100
AF@@ 100
ith 100
Rad@@ 100
丐 100
年龄@@ 100
阿卜@@ 100
Ras@@ 100
XXVII 100
ek@@ 100
符@@ 100
纺织@@ 100
Hay@@ 100
寡 100
Tra@@ 100
Phone 100
XII 100
emb@@ 100
ment 100
ite 100
她@@ 100
懦@@ 100
Hi@@ 100
ade 100
炒 100
CB@@ 100
und@@ 100
EP 100
lin@@ 100
sp@@ 100
枢 100
栓@@ 100
霸 100
AT 100
Tr@@ 100
ath@@ 100
篷 100
螺 100
庞 100
感染@@ 100
65@@ 100
9.8 100
Cal@@ 100
cc@@ 100
哼 100
涤@@ 100
SG 100
The@@ 100
ok@@ 100
11.1 100
DCP 100
PL 100
Thomas 100
mi 100
Ｏ 100
CAC 100
葛 100
溅 100
ind@@ 100
咀 100
Ir@@ 100
禽 100
out 100
乖@@ 100
缕 100
锤@@ 100
Bri@@ 100
Dep@@ 100
ace 100
ida 100
盏 100
权力@@ 100
檬@@ 100
Ari@@ 100
癖 100
跤 100
饶 100
ero 100
梭@@ 100
靴 100
惜@@ 100
spir@@ 100
岳 100
贤 100
BDE 100
documents 100
钙@@ 100
ame@@ 100
无论@@ 100
刃 100
Ci@@ 100
Sali@@ 100
釜@@ 100
Development 100
HT@@ 100
New 100
ran 100
崔@@ 100
馈 100
ol 100
Bak@@ 100
XXV 100
叮@@ 100
Bl@@ 100
era 100
撰@@ 100
LIS@@ 100
Lee 100
腊 100
Maz@@ 100
析@@ 100
痹 100
讳 100
Br@@ 100
Gab@@ 100
reg@@ 100
甩@@ 100
斧@@ 100
苷 100
赋 100
Abdul 100
Wil@@ 100
gar@@ 100
sha@@ 100
厌 100
袜 100
July 100
畔 100
让人 100
忆 100
蛛@@ 100
ａ 100
78@@ 100
Lar@@ 100
cha@@ 100
军用@@ 100
失踪@@ 100
酱@@ 100
iz 100
倾销 100
梢 100
IPO 100
SH@@ 100
叨 100
ML 100
Mel@@ 100
XXX 100
缪@@ 100
菊@@ 100
awa@@ 100
痰 100
粤@@ 100
鳍 100
卒 100
Wa@@ 100
轧 100
馅@@ 100
alo@@ 100
ret@@ 100
DT@@ 100
荆@@ 100
阁 100
Ky@@ 100
ndez 100
瘘 100
of@@ 100
制定@@ 100
弗兰@@ 100
鼎@@ 100
ain 100
歪@@ 100
笆 100
PR 100
dro@@ 100
gra@@ 100
尺@@ 100
绌 100
11.2 100
贱 100
赦 100
踝 100
腺癌 100
Convention 100
iii 100
猾 100
vo@@ 100
睬 100
肋@@ 100
＇ 100
合组织 100
Andre@@ 100
Antonio 100
JP 100
Khan@@ 100
乍@@ 100
妳 100
肇@@ 100
9.9 100
imana 100
∕ 100
溉@@ 100
谜@@ 100
负担@@ 100
俾@@ 100
翅 100
藻@@ 100
驭 100
lu@@ 100
妒@@ 100
扳@@ 100
坚 100
&@@ 100
懊@@ 100
斯坦共和国 100
lo 100
匿@@ 100
筒@@ 100
缆@@ 100
UR 100
mb@@ 100
狙@@ 100
驴@@ 100
Fu@@ 100
蚕@@ 100
转录 100
镉 100
BBC 100
eli@@ 100
rou@@ 100
哎@@ 100
昌 100
驰@@ 100
Vo@@ 100
ho 100
ori@@ 100
昼@@ 100
XXVIII 100
ava 100
几内亚@@ 100
膨@@ 100
韵@@ 100
ole 100
叙利@@ 100
盒@@ 100
AM 100
CB 100
泵@@ 100
骚 100
HR 100
ly@@ 100
夕 100
榄 100
睁 100
躯 100
Stanley 100
募 100
坠 100
拣@@ 100
梨 100
究@@ 100
Gal@@ 100
贱@@ 100
inf@@ 100
卤@@ 100
拾 100
Bro@@ 100
咀@@ 100
铭@@ 100
Sachs 100
PP@@ 100
iss@@ 100
绷@@ 100
袖 100
News 100
pre@@ 100
盯@@ 100
BWC 100
玛丽@@ 100
SS@@ 100
囤@@ 100
代办 100
淫 100
滕 100
蝠 100
受灾@@ 100
爱尔@@ 100
衍 100
ef 100
拌@@ 100
June 100
az 100
bert 100
ech@@ 100
傅 100
尼科@@ 100
砷 100
well 100
仰 100
Ah@@ 100
Mul@@ 100
Wi@@ 100
aki 100
har 100
轰 100
AG 100
Pra@@ 100
sel@@ 100
泼@@ 100
披 100
鹦@@ 100
ili@@ 100
kh@@ 100
侠 100
抄 100
佛罗@@ 100
RI 100
wan 100
wi 100
蒋@@ 100
van@@ 100
唔 100
妓@@ 100
捡@@ 100
pp 100
Dj@@ 100
稚 100
施加@@ 100
骚@@ 100
Cho@@ 100
Tri@@ 100
赴@@ 100
ON@@ 100
建立@@ 100
痊@@ 100
闸@@ 100
犀@@ 100
甩 100
James 100
滤 100
郎@@ 100
up 100
铭 100
dep@@ 100
翠@@ 100
Joseph 100
Institute 100
扭 100
跪 100
Van 100
hel 100
年人 100
永 100
逛@@ 100
Cla@@ 100
允 100
崎 100
铵 100
且@@ 100
销商 100
Mit@@ 100
BE@@ 100
锥 100
Company 100
GPS 100
UF@@ 100
如说 100
岂@@ 100
敞 100
胱 100
阪 100
mil@@ 100
加勒@@ 100
勺 100
斋@@ 100
Mahmoud 100
Tal@@ 100
ser@@ 100
委内瑞@@ 100
淋 100
美联@@ 100
颖@@ 100
圣多@@ 100
汽 100
砾 100
蝗@@ 100
霞 100
uk 100
弈 100
荫 100
鳞@@ 100
CRPD 100
Say@@ 100
that 100
暑 100
涵 100
同酬 100
陕@@ 100
Kan@@ 100
拦 100
Office 100
dia 100
ist@@ 100
af 100
du 100
诞 100
雇佣@@ 100
Tom@@ 100
kin 100
慨@@ 100
表现@@ 100
跋@@ 100
玄@@ 100
Sin@@ 100
ini@@ 100
府@@ 100
渗 100
羔 100
Ｔ 100
遥 100
贝利 100
27.@@ 100
zz@@ 100
榈@@ 100
檬 100
睾@@ 100
Cu@@ 100
IE@@ 100
oun 100
唑 100
扯@@ 100
胚@@ 100
唆@@ 100
消极@@ 100
蛮@@ 100
琪 100
ati 100
ail@@ 100
aim@@ 100
per 100
塞浦路斯@@ 100
鹰@@ 100
March 100
XXIII 100
cu@@ 100
咯 100
惰@@ 100
紧迫@@ 100
Abd@@ 100
inter@@ 100
大陆@@ 100
杠 100
{ 100
呋@@ 100
紫 100
一步@@ 100
奠@@ 100
波利@@ 100
烫@@ 100
聆@@ 100
饲@@ 100
国公司 100
妓 100
榴@@ 100
荒 100
蚊 100
ki@@ 100
sta 100
甸 100
眨@@ 100
ep 100
橇 100
罕@@ 100
铲@@ 100
韵 100
Jan@@ 100
咕@@ 100
殉@@ 100
渝 100
let 100
事会 100
熬@@ 100
菠@@ 100
躺@@ 100
ABC 100
ml 100
庙@@ 100
炽@@ 100
砸@@ 100
can 100
汪@@ 100
MP 100
ue 100
蘑@@ 100
Jab@@ 100
Š 100
吟 100
捞@@ 100
嚣 100
雏@@ 100
din@@ 100
ss 100
Kon@@ 100
Rights 100
TA 100
eng 100
ster@@ 100
继续@@ 100
殊@@ 100
ile 100
虐@@ 100
} 100
April 100
Le 100
Por@@ 100
den@@ 100
哈马 100
燥@@ 100
岳@@ 100
Nab@@ 100
Pr@@ 100
ich@@ 100
澈 100
缆 100
羟@@ 100
热烈@@ 100
蝶@@ 100
诬@@ 100
幌@@ 100
荐@@ 100
迥@@ 100
#@@ 100
pr@@ 100
蛋白@@ 100
uk@@ 100
war@@ 100
作出@@ 100
佬 100
撑 100
EU 100
哄 100
63@@ 100
jo 100
uel 100
蔗 100
咄@@ 100
哲 100
忏@@ 100
窄@@ 100
鉴 100
col@@ 100
ves 100
碟@@ 100
Mig@@ 100
Sk@@ 100
fo@@ 100
挨 100
Bay@@ 100
PM 100
Paul@@ 100
gh 100
ron@@ 100
吉布@@ 100
贞 100
Kat@@ 100
zo 100
Mot@@ 100
Smith 100
ford 100
ony 100
萃 100
Global 100
憎 100
ment@@ 100
ms 100
Capital 100
GU@@ 100
刘 100
咆@@ 100
渲@@ 100
茱@@ 100
鞍@@ 100
Bon@@ 100
SW@@ 100
痫 100
跻@@ 100
钩@@ 100
Han@@ 100
奄@@ 100
棘 100
沾 100
Sen@@ 100
ays 100
犹 100
筷@@ 100
Kra@@ 100
Zi@@ 100
暮@@ 100
生殖@@ 100
绰@@ 100
ven 100
氓 100
Research 100
che 100
惶@@ 100
搁@@ 100
my 100
卉 100
皈@@ 100
蠢 100
ase 100
乖 100
帽@@ 100
hr 100
哄@@ 100
唠@@ 100
锯 100
靡 100
鸦@@ 100
麻醉@@ 100
Fran@@ 100
楷@@ 100
IV@@ 100
掩 100
钓 100
ow 100
决书 100
哎 100
慷@@ 100
芝 100
褪@@ 100
Rumaysh 100
SR@@ 100
din 100
ney 100
午 100
娱 100
孩 100
陵@@ 100
DI 100
SM 100
asa 100
ris 100
sk 100
姿@@ 100
消息@@ 100
眩@@ 100
PH@@ 100
stan@@ 100
武库 100
Dan@@ 100
Hy@@ 100
bah 100
啦@@ 100
柑@@ 100
瞪@@ 100
ET@@ 100
Nu@@ 100
砰 100
allah 100
浊 100
蔡@@ 100
萎@@ 100
魄 100
Dra@@ 100
Mis@@ 100
啡 100
妄 100
宵 100
爽@@ 100
价值@@ 100
Nik@@ 100
sy@@ 100
戚@@ 100
Cas@@ 100
ass 100
96@@ 100
November 100
Tall 100
徵 100
bel 100
建议@@ 100
朦@@ 100
沦@@ 100
俚@@ 100
则@@ 100
噪 100
痉@@ 100
Saf@@ 100
aga 100
tel 100
uni@@ 100
疽 100
纾 100
VA 100
钞 100
Es@@ 100
矢 100
谐 100
MS@@ 100
ung@@ 100
ul 100
桔@@ 100
穗 100
菊 100
Fre@@ 100
御 100
拽 100
觅 100
鞘 100
You 100
tor 100
公用@@ 100
吼@@ 100
在案 100
Abdullah 100
Fe@@ 100
SAICM 100
SE 100
斩@@ 100
溯 100
Goldman 100
Lyn@@ 100
hman 100
绍@@ 100
SAP 100
婉 100
眷@@ 100
翩@@ 100
aka 100
hn@@ 100
携 100
渎@@ 100
Win@@ 100
its 100
巷@@ 100
玲 100
dan@@ 100
old 100
ron 100
烬 100
矛@@ 100
萧@@ 100
Pre@@ 100
拼 100
渐 100
稀 100
绚@@ 100
ice 100
勉 100
歇尔 100
紊 100
Tom 100
On@@ 100
RT 100
Ric@@ 100
ard@@ 100
ors 100
Bus@@ 100
Mary 100
鲑@@ 100
los 100
互 100
几内@@ 100
加拉@@ 100
际@@ 100
Syl@@ 100
We 100
峭 100
瘾@@ 100
铀@@ 100
CON@@ 100
Charles 100
HR@@ 100
gan 100
丧 100
杉 100
碑@@ 100
Ya@@ 100
ss@@ 100
寨 100
肛@@ 100
粥 100
翔@@ 100
萨尔@@ 100
蝎@@ 100
音机 100
鹉 100
22@@ 100
GIS 100
醇@@ 100
CR 100
碾@@ 100
Dou@@ 100
ore@@ 100
再生@@ 100
瑙@@ 100
膏@@ 100
酌@@ 100
AH@@ 100
LCA 100
fi 100
晴 100
橄@@ 100
蹄 100
kin@@ 100
娴@@ 100
烙@@ 100
DS 100
MAR@@ 100
aj@@ 100
乾 100
感到@@ 100
谅 100
踊@@ 100
RM@@ 100
Yo@@ 100
Ou@@ 100
崩 100
私有@@ 100
稚@@ 100
菱 100
Ali@@ 100
Kho@@ 100
Wol@@ 100
rit@@ 100
哮 100
瞪 100
蹲 100
姨 100
ations 100
啮@@ 100
懂@@ 100
曹@@ 100
IO@@ 100
娥 100
蜒 100
MT@@ 100
ling 100
嘶@@ 100
坟@@ 100
him 100
之以@@ 100
圭@@ 100
糙@@ 100
谕 100
ee 100
慧@@ 100
挛 100
捏 100
ODP 100
hel@@ 100
缓冲@@ 100
小组@@ 100
晤@@ 100
陋@@ 100
孝@@ 100
逗 100
George 100
Mam@@ 100
舵 100
bal@@ 100
嫖@@ 100
蹄@@ 100
Ａ 100
Silva 100
缄@@ 100
IL 100
ald 100
妃 100
常任@@ 100
改革@@ 100
测器 100
筛 100
脓@@ 100
DE 100
淌 100
澜 100
瘠 100
辟 100
May 100
December 100
witter 100
Jenn@@ 100
art 100
sur@@ 100
舅@@ 100
董@@ 100
贿@@ 100
Programme 100
嘱@@ 100
营商 100
钳 100
Jul@@ 100
Petro@@ 100
dra@@ 100
Im@@ 100
Ja@@ 100
曙@@ 100
DLDD 100
Tur@@ 100
enko 100
笛@@ 100
茵 100
讥@@ 100
风雨 100
WFP 100
Mir@@ 100
SD 100
les 100
趴@@ 100
一点@@ 100
亵 100
olo 100
惋@@ 100
粪 100
赚@@ 100
Hen@@ 100
冲突@@ 100
帅@@ 100
05@@ 100
had 100
镖 100
88@@ 100
催 100
挚@@ 100
窍@@ 100
翠 100
仲@@ 100
裤@@ 100
Ze@@ 100
傀@@ 100
婉@@ 100
yo 100
意志@@ 100
ld@@ 100
倾 100
哟 100
毅 100
75@@ 100
98@@ 100
War@@ 100
iri 100
⑷ 100
歹@@ 100
颜 100
里兰@@ 100
anz@@ 100
pi@@ 100
tos 100
α 100
仆@@ 100
揍 100
Fi@@ 100
mo 100
保加@@ 100
劈@@ 100
勾 100
次世界大战 100
胞 100
Juan 100
Martin@@ 100
chi@@ 100
ous 100
图书@@ 100
奥运@@ 100
敷 100
и 100
妹@@ 100
摩托@@ 100
窖 100
谍@@ 100
躬 100
90@@ 100
屿@@ 100
拙@@ 100
殖民化 100
February 100
IM 100
WS@@ 100
湍@@ 100
螨 100
IB@@ 100
Kab@@ 100
aba 100
kha@@ 100
吉尔吉@@ 100
Ma 100
SAR 100
tur@@ 100
胧 100
饷 100
oni 100
ê 100
格鲁吉@@ 100
湛 100
蚤 100
eu 100
吗@@ 100
箴 100
Hg 100
ene 100
柳 100
汶 100
瞥 100
Med@@ 100
Ur@@ 100
ory 100
span 100
迎 100
预警@@ 100
Li 100
Thom@@ 100
ush@@ 100
祷 100
峡 100
檀@@ 100
邑 100
需求@@ 100
FA 100
Kor@@ 100
ami@@ 100
with 100
宠 100
殆@@ 100
Ji@@ 100
UL@@ 100
eva 100
眩 100
陶 100
飘 100
September 100
爲 100
蒸 100
Raf@@ 100
Sy@@ 100
TE 100
满意@@ 100
ath 100
ding 100
布雷@@ 100
die 100
presidency 100
印第安@@ 100
坍@@ 100
憩 100
AWG 100
Kin@@ 100
chinese 100
攫@@ 100
焉 100
絮@@ 100
逞 100
Bag@@ 100
Pat@@ 100
Pu@@ 100
Tam@@ 100
October 100
Ty@@ 100
yer 100
抒@@ 100
滋 100
翘@@ 100
哥伦@@ 100
idi 100
嘎@@ 100
螂 100
rey 100
媒@@ 100
彗@@ 100
负债@@ 100
跪@@ 100
OR 100
yn 100
陨@@ 100
CI 100
TH@@ 100
姑 100
GO@@ 100
Lan@@ 100
Omar 100
ry@@ 100
Brothers 100
Rom@@ 100
ens@@ 100
悟@@ 100
汐 100
腱 100
蟾@@ 100
问责@@ 100
Dis@@ 100
Lehman 100
NP@@ 100
bel@@ 100
撤 100
正常@@ 100
纫 100
August 100
Notes 100
Ye@@ 100
夭@@ 100
机会@@ 100
纶 100
Il@@ 100
ca@@ 100
fren@@ 100
笋 100
维尔@@ 100
pp@@ 100
中东@@ 100
叔@@ 100
绽@@ 100
CE 100
腊@@ 100
Management 100
Mark 100
呻@@ 100
PP 100
ack 100
aut 100
ci 100
屑@@ 100
悠 100
瓷 100
脆@@ 100
陀 100
Jacqu@@ 100
Den@@ 100
INF@@ 100
sti@@ 100
主义@@ 100
伎@@ 100
瞎 100
绎 100
DO@@ 100
SL@@ 100
瞰 100
靶 100
Hussein 100
煎 100
Bad@@ 100
HFC 100
NO 100
嘈@@ 100
榨@@ 100
rec@@ 100
密克罗尼@@ 100
gen 100
猥@@ 100
避 100
DGACM 100
OD@@ 100
PL@@ 100
oud 100
荐 100
IPSAS 100
amp 100
haz@@ 100
亚历@@ 100
Nas@@ 100
nes 100
厥 100
颁 100
bar 100
排放@@ 100
芙 100
iza 100
Net 100
ey@@ 100
lie 100
公正@@ 100
朝鲜民主主义@@ 100
滕@@ 100
痘 100
＂ 100
怡 100
玻利@@ 100
Had@@ 100
Hor@@ 100
ine@@ 100
net@@ 100
ood 100
tor@@ 100
昼 100
涝 100
腓@@ 100
通货@@ 100
ure 100
ush 100
忿@@ 100
翅@@ 100
蒲@@ 100
EN 100
ame 100
括@@ 100
日常@@ 100
茂 100
诞@@ 100
黛 100
Bern@@ 100
Internet 100
萎 100
萤@@ 100
侏@@ 100
起诉@@ 100
ami 100
蜿@@ 100
Ev@@ 100
Fernan@@ 100
wan@@ 100
宋 100
Financial 100
ares 100
ny 100
tri@@ 100
yl@@ 100
Brown 100
ella 100
gr@@ 100
Committee 100
熙@@ 100
褶@@ 100
重于 100
Bay 100
GM 100
厦@@ 100
大会@@ 100
至关@@ 100
衅@@ 100
William 100
渔 100
ist 100
帖@@ 100
挚 100
禅@@ 100
American 100
yi 100
病率 100
蔗@@ 100
Hum@@ 100
amb@@ 100
chi 100
枚@@ 100
鹤 100
吾 100
08@@ 100
㈨ 100
加尔 100
喃@@ 100
Rec@@ 100
ck 100
hen@@ 100
san@@ 100
峻@@ 100
簇 100
簸 100
Singh 100
hor@@ 100
ë 100
曳 100
牠 100
ader 100
ation@@ 100
tic@@ 100
删 100
窜 100
葵 100
Cl@@ 100
press 100
彼 100
颓@@ 100
咖@@ 100
咯@@ 100
掳 100
Alex@@ 100
ess 100
耻@@ 100
耿@@ 100
RD 100
幔 100
庚 100
Bat@@ 100
OK 100
gel 100
ple@@ 100
por@@ 100
凸 100
砌 100
Jal@@ 100
Mol@@ 100
Mou@@ 100
fin@@ 100
jan 100
way@@ 100
民用@@ 100
PRE@@ 100
oh@@ 100
眷 100
芥@@ 100
anga 100
憧@@ 100
搁 100
牙买@@ 100
lin 100
刃@@ 100
ties 100
国际劳工@@ 100
芙@@ 100
99@@ 100
Hel@@ 100
停车@@ 100
翁@@ 100
﹝ 100
PE 100
ison 100
燔 100
疤@@ 100
酚@@ 100
Human 100
Kom@@ 100
car@@ 100
哗@@ 100
爷@@ 100
Victor 100
吼 100
January 100
VC 100
糕@@ 100
FC 100
厨 100
媲@@ 100
谭@@ 100
76@@ 100
ashi 100
ora 100
shi@@ 100
酰 100
ut 100
恍@@ 100
CF 100
Raj@@ 100
墩 100
dou@@ 100
兢@@ 100
厕 100
ste@@ 100
恭 100
萨卡 100
蜍 100
□ 100
合众@@ 100
嚏 100
邓 100
驼@@ 100
oma 100
叁 100
恰 100
所得@@ 100
搅 100
机器@@ 100
蛮 100
Fo@@ 100
aria 100
cri@@ 100
夥@@ 100
颌@@ 100
Association 100
Limited 100
ema 100
蹒@@ 100
迹@@ 100
ery 100
克罗地@@ 100
啬 100
地中@@ 100
憬 100
者之间 100
Ker@@ 100
lan 100
人民共和国 100
颌 100
na@@ 100
懈 100
BI 100
愧@@ 100
砌@@ 100
裙@@ 100
ED 100
mad 100
ns 100
丈 100
睿@@ 100
诲 100
+@@ 100
JS@@ 100
cor@@ 100
ni 100
thy 100
β 100
熨@@ 100
Citigroup 100
Kir@@ 100
Net@@ 100
SI 100
pen@@ 100
受益@@ 100
睛 100
纺 100
羔@@ 100
讼 100
宴@@ 100
目的@@ 100
脾@@ 100
芯@@ 100
闩 100
AU@@ 100
But@@ 100
Ren@@ 100
涸 100
淑@@ 100
裹@@ 100
ED@@ 100
挥 100
珈 100
dic@@ 100
ei 100
ence 100
ona 100
昔 100
Bir@@ 100
Tim@@ 100
ello 100
慑@@ 100
梨@@ 100
Vol@@ 100
ies 100
国际货币@@ 100
腮@@ 100
裳 100
饺@@ 100
Rus@@ 100
tion@@ 100
傅@@ 100
加利@@ 100
喻@@ 100
塘@@ 100
灸 100
熏 100
America 100
sun@@ 100
罔@@ 100
奴隶@@ 100
疆 100
锂 100
asser 100
fo 100
Commission 100
als 100
nez 100
伤性 100
斐 100
﹞ 100
Jack 100
Uni@@ 100
冯 100
甸@@ 100
羚@@ 100
茅 100
tine 100
疼@@ 100
詹 100
谣 100
Daniel 100
Kas@@ 100
out@@ 100
ston 100
tel@@ 100
秆 100
种族@@ 100
诫 100
TO@@ 100
eman 100
und 100
克兰@@ 100
est 100
孀 100
舟@@ 100
 100
Men@@ 100
Rab@@ 100
Stan@@ 100
浇 100
磺@@ 100
蔽@@ 100
赤 100
Fal@@ 100
Mill@@ 100
Sou@@ 100
Tan@@ 100
拱 100
Jor@@ 100
iv 100
不论@@ 100
漩@@ 100
猿 100
OM 100
ys 100
琪@@ 100
锦 100
gs 100
穴@@ 100
络@@ 100
bay@@ 100
烁@@ 100
ens 100
ik@@ 100
tions 100
世界大战 100
吟@@ 100
喀 100
寝@@ 100
常规@@ 100
笞 100
钾@@ 100
REDD 100
tar@@ 100
揉@@ 100
Os@@ 100
瞻@@ 100
蜷@@ 100
tina 100
惬@@ 100
揉 100
熵 100
89@@ 100
STA@@ 100
ten 100
塞拉@@ 100
孚 100
agu@@ 100
蔬@@ 100
ast 100
贪 100
EL 100
hur@@ 100
ima 100
人权宣言 100
否@@ 100
帷@@ 100
法院@@ 100
Ann@@ 100
萝 100
Tel@@ 100
俘 100
惇 100
迅 100
颅 100
ito 100
sion 100
win 100
咐 100
枫@@ 100
预防@@ 100
Web@@ 100
ther 100
ty@@ 100
信服 100
拂@@ 100
硒 100
轭 100
Bh@@ 100
eri 100
var@@ 100
比绍 100
蔚@@ 100
Flo@@ 100
Tha@@ 100
ky 100
就此@@ 100
琢@@ 100
纷 100
谛 100
Ped@@ 100
abl@@ 100
CH 100
Kel@@ 100
Manuel 100
ota 100
制度@@ 100
跚 100
Henry 100
anne 100
悍@@ 100
撮 100
篱 100
Gonz@@ 100
ICC 100
Chris@@ 100
Sum@@ 100
sal@@ 100
ted 100
菲律@@ 100
webcast 100
屎 100
Ray@@ 100
til@@ 100
帚 100
瘫 100
GE 100
Lam@@ 100
Law@@ 100
槟 100
涛@@ 100
豌@@ 100
上所述 100
斧 100
雹 100
鞠@@ 100
dal 100
啼@@ 100
睫@@ 100
被告@@ 100
垒@@ 100
慧 100
窟 100
领土@@ 100
羽 100
bur@@ 100
dpa 100
曰 100
杠@@ 100
elle 100
hid 100
ud 100
炊@@ 100
腋@@ 100
Alexander 100
In 100
拣 100
许可@@ 100
Johnson 100
LE 100
Pierre 100
able 100
mor@@ 100
po 100
珊 100
疱@@ 100
Cy@@ 100
ME 100
wh@@ 100
愕 100
羁@@ 100
Fat@@ 100
aff@@ 100
锣@@ 100
SNA 100
Sheikh 100
ars 100
don@@ 100
侮@@ 100
儒 100
滩@@ 100
Susan 100
ics 100
洼 100
蔼 100
货物@@ 100
Dav@@ 100
cel@@ 100
桂 100
EX@@ 100
MB 100
ome@@ 100
沫 100
钳@@ 100
HC@@ 100
Ol@@ 100
Suppl 100
hn 100
pres@@ 100
之为 100
安第@@ 100
株@@ 100
痕@@ 100
霜@@ 100
ｂ 100
.@@ 100
Gro@@ 100
Hil@@ 100
OECD 100
ace@@ 100
cel 100
孟加拉@@ 100
宣 100
摈@@ 100
椒@@ 100
磐@@ 100
Air@@ 100
sia 100
吁@@ 100
瞌@@ 100
硕 100
诧@@ 100
年度@@ 100
旳 100
眶 100
萨拉@@ 100
Euro@@ 100
Sel@@ 100
Zu@@ 100
ska 100
吴 100
逸@@ 100
Jan 100
zu@@ 100
措@@ 100
邪 100
便利@@ 100
岔@@ 100
鞭 100
ges 100
槟@@ 100
爹 100
诽@@ 100
髋@@ 100
ICTR 100
Tak@@ 100
缤@@ 100
觅@@ 100
dam 100
圃 100
Gen@@ 100
Merr@@ 100
ori 100
ula 100
侥@@ 100
岭@@ 100
懈@@ 100
吱@@ 100
四届 100
苏里@@ 100
馁 100
tro@@ 100
uma 100
马来@@ 100
Oli@@ 100
SO 100
Wat@@ 100
ico 100
嗦 100
秤 100
绊 100
谤@@ 100
arri@@ 100
ble 100
men 100
yu@@ 100
凰 100
斯达@@ 100
格兰 100
耍@@ 100
逮@@ 100
躁@@ 100
DP@@ 100
Park 100
姗@@ 100
怯@@ 100
橘 100
ude 100
一次@@ 100
永久@@ 100
PRO@@ 100
VE@@ 100
sman 100
汞@@ 100
玻@@ 100
蛎 100
解除@@ 100
˙ 100
土库@@ 100
摩纳@@ 100
舔 100
CU@@ 100
Dom@@ 100
Fund 100
dy@@ 100
pan@@ 100
sat 100
怡@@ 100
箔 100
form@@ 100
wal@@ 100
ž 100
阿塞拜疆@@ 100
NC 100
Nov@@ 100
SEC 100
肃 100
French 100
nan@@ 100
Str@@ 100
enti@@ 100
sche 100
war 100
珊@@ 100
萦@@ 100
elec@@ 100
rer 100
拴 100
龟@@ 100
兜 100
兮 100
巅@@ 100
怠 100
悬 100
蚓 100
铰@@ 100
Kaz@@ 100
dan 100
ku 100
ren 100
rence 100
翌@@ 100
艰 100
阂 100
Ga@@ 100
ally 100
同仁 100
呐 100
煞@@ 100
疟 100
ONUB 100
from 100
sec@@ 100
戊@@ 100
Bab@@ 100
Cher@@ 100
Council 100
ee@@ 100
tin 100
yo@@ 100
⑤ 100
儡 100
沧@@ 100
79@@ 100
Ok@@ 100
Simon 100
anni@@ 100
屡 100
睑 100
Business 100
Chan@@ 100
Jim 100
way 100
妥@@ 100
廖@@ 100
鸽 100
Cab@@ 100
搂 100
JP@@ 100
NPC 100
WHO 100
tak@@ 100
遐@@ 100
Bet@@ 100
EF 100
ex 100
gio 100
嘟@@ 100
揣@@ 100
根据@@ 100
缭@@ 100
WE@@ 100
book 100
you 100
拭 100
秩@@ 100
len 100
勋 100
燕 100
铣@@ 100
dings 100
呜@@ 100
噜 100
楔@@ 100
荔@@ 100
Microsoft 100
PO 100
op 100
恙 100
挪 100
杉@@ 100
洼@@ 100
磅@@ 100
鱿@@ 100
鲨 100
鼹@@ 100
Cro@@ 100
Don@@ 100
Eu@@ 100
jar 100
渠@@ 100
盔@@ 100
腕@@ 100
赁@@ 100
air 100
④ 100
扛 100
ROM 100
sian 100
tha 100
猴@@ 100
钼 100
ITC 100
ben@@ 100
心脏@@ 100
意味@@ 100
蹲@@ 100
Bil@@ 100
New@@ 100
ear@@ 100
悚@@ 100
戊 100
枕 100
琵@@ 100
舍尔 100
蟑@@ 100
讫 100
趾@@ 100
霆 100
BR@@ 100
Journal 100
泣 100
窦 100
籽@@ 100
GB@@ 100
ano@@ 100
焰@@ 100
can@@ 100
jah 100
sson 100
Word 100
eda 100
sis 100
啶 100
耸 100
虞 100
补助@@ 100
铲 100
Clar@@ 100
Gor@@ 100
Shan@@ 100
pos@@ 100
恤@@ 100
索赔@@ 100
Fon@@ 100
Marie 100
air@@ 100
枷@@ 100
犊 100
87@@ 100
Corporation 100
span@@ 100
嗅 100
歉 100
肋 100
菩@@ 100
1.15 100
NS 100
PIC 100
岖 100
茁@@ 100
ric 100
咸 100
孢 100
栩@@ 100
梗 100
芜 100
镰@@ 100
 100
Services 100
ments 100
僧 100
庇 100
胳@@ 100
鳏@@ 100
VO@@ 100
development 100
stat@@ 100
沉积@@ 100
缪 100
脾 100
蛾 100
Som@@ 100
ture 100
踩@@ 100
Luc@@ 100
拧@@ 100
议会@@ 100
FM 100
委员@@ 100
蜥@@ 100
Canal 100
Daily 100
Dam@@ 100
Geneva 100
丫@@ 100
叔 100
描 100
里程@@ 100
Fri@@ 100
Kou@@ 100
QU@@ 100
non 100
TF 100
竿@@ 100
腌@@ 100
篝@@ 100
襟@@ 100
辟@@ 100
stein 100
俱 100
吧@@ 100
惭@@ 100
毫 100
茸 100
谚 100
贩卖@@ 100
ON 100
yev 100
Gre@@ 100
创始@@ 100
目标@@ 100
踵@@ 100
Kit@@ 100
姜 100
Andrew 100
Sec@@ 100
president 100
掸@@ 100
瞻 100
BT 100
European 100
Patrick 100
esti@@ 100
嫉@@ 100
桅@@ 100
泻@@ 100
Ph@@ 100
fre@@ 100
ial 100
inger 100
vil@@ 100
四分@@ 100
潦@@ 100
矛 100
舵@@ 100
TO 100
chil@@ 100
僻@@ 100
眨 100
西亚@@ 100
PN@@ 100
卦 100
蕴 100
07@@ 100
Adam 100
asi 100
bro@@ 100
mg 100
咕 100
歪 100
移民@@ 100
穆斯@@ 100
蒿@@ 100
钨 100
Alber@@ 100
MB@@ 100
Pen@@ 100
完整@@ 100
痢@@ 100
胱@@ 100
闯 100
鸿 100
Ly@@ 100
PK@@ 100
School 100
sp 100
勿@@ 100
悴 100
然不同 100
TT 100
ram 100
sub@@ 100
盹 100
遏 100
Dal@@ 100
Lou@@ 100
treaties 100
劾 100
含水@@ 100
稠 100
竿 100
肚 100
嘎 100
巴布@@ 100
悍 100
既往 100
赘 100
rique 100
传染@@ 100
妞 100
孪@@ 100
葱@@ 100
钝@@ 100
Gil@@ 100
para 100
坝@@ 100
苔 100
Hun@@ 100
Trans@@ 100
aly@@ 100
law@@ 100
una 100
usu@@ 100
Asia 100
Van@@ 100
钛@@ 100
Dun@@ 100
day 100
舒 100
Helen 100
Lab@@ 100
mad@@ 100
峭@@ 100
巨 100
憔@@ 100
晋 100
祀 100
镁@@ 100
Dec@@ 100
bal 100
吏 100
骂@@ 100
Bah@@ 100
Vladimir 100
ther@@ 100
寝 100
搐 100
赦@@ 100
SM@@ 100
Securities 100
king 100
彭 100
忡 100
沫@@ 100
自足 100
苟@@ 100
Cru@@ 100
Dor@@ 100
Fel@@ 100
York 100
划署 100
剥 100
徐 100
惶 100
注目 100
蚯@@ 100
黑塞@@ 100
DM 100
ban 100
bank 100
international 100
kel 100
pol@@ 100
彷@@ 100
莹 100
Bec@@ 100
榈 100
Air 100
Centre 100
Francisco 100
Africa 100
Lev@@ 100
刨@@ 100
唬 100
牵 100
锌@@ 100
ERP 100
Frank 100
Yam@@ 100
Ｂ 100
Gaz@@ 100
Patric@@ 100
哗 100
忡@@ 100
慎 100
法索 100
贸易组织 100
轩@@ 100
RU@@ 100
ater@@ 100
chan@@ 100
esh 100
iti 100
wart 100
书记@@ 100
佼@@ 100
占领@@ 100
斤 100
矗@@ 100
Isa@@ 100
Sup@@ 100
卯 100
蜕@@ 100
邱@@ 100
龈 100
Sun 100
主持@@ 100
瘤@@ 100
竞 100
Fin@@ 100
ifer 100
硼@@ 100
簇@@ 100
蜴 100
Michel@@ 100
Ob@@ 100
cr@@ 100
mit@@ 100
仕@@ 100
通行@@ 100
遂@@ 100
EU@@ 100
HA 100
Id@@ 100
ner@@ 100
paper@@ 100
蕊 100
Engineering 100
FDI 100
Pel@@ 100
WA 100
庇@@ 100
攒 100
澡@@ 100
琥@@ 100
肘@@ 100
舷 100
He 100
Reg@@ 100
Ve@@ 100
acc@@ 100
kins 100
web 100
袱 100
Santa 100
bas@@ 100
dec@@ 100
vol 100
厢@@ 100
怠@@ 100
炙@@ 100
焰 100
窑@@ 100
Investment 100
Women 100
僵 100
淬@@ 100
馏@@ 100
First 100
LOS 100
Nat@@ 100
ative 100
暧@@ 100
窦@@ 100
Fun@@ 100
ste 100
uti@@ 100
克劳 100
婿 100
捧@@ 100
镯 100
Organization 100
Sur@@ 100
Rol@@ 100
惫@@ 100
鲤@@ 100
ODS 100
ates 100
俺 100
椅@@ 100
钮 100
Cur@@ 100
PM@@ 100
ero@@ 100
fu@@ 100
汁@@ 100
竖 100
绥@@ 100
聪 100
锂@@ 100
into 100
履 100
disarmament 100
Cap@@ 100
Dem@@ 100
Jon@@ 100
avi@@ 100
off 100
ua 100
ze@@ 100
壕 100
督 100
葫@@ 100
min 100
吡@@ 100
秃 100
秒@@ 100
﹑ 100
Serge@@ 100
any 100
une 100
当今@@ 100
Der@@ 100
PD 100
bil@@ 100
ifa 100
mond 100
sul@@ 100
⑸ 100
挠@@ 100
撬@@ 100
斤@@ 100
苍 100
AV@@ 100
Cat@@ 100
ML@@ 100
hon@@ 100
ks@@ 100
拧 100
lit@@ 100
媚@@ 100
cher 100
mes 100
oto 100
right 100
俸 100
啤@@ 100
aw 100
yan@@ 100
呐@@ 100
虾@@ 100
Stephen 100
ese 100
依存 100
兔@@ 100
茉@@ 100
踌@@ 100
Sp@@ 100
anna 100
char@@ 100
Á 100
尧@@ 100
潜 100
rac@@ 100
央@@ 100
毕 100
礁@@ 100
馑 100
侦察@@ 100
嘱 100
徇@@ 100
诅 100
踱@@ 100
Naz@@ 100
Op@@ 100
pat@@ 100
嗤@@ 100
疟@@ 100
簿@@ 100
绣@@ 100
茧 100
Davi@@ 100
Space 100
mun@@ 100
nan 100
帝汶 100
臆@@ 100
蔼@@ 100
zer 100
盏@@ 100
Bis@@ 100
GH@@ 100
Sand@@ 100
hat@@ 100
捂@@ 100
胀@@ 100
John@@ 100
焚 100
狐 100
砾@@ 100
诫@@ 100
ET 100
Kur@@ 100
stri@@ 100
啪 100
续性 100
郑 100
雄心@@ 100
Fra@@ 100
Gran@@ 100
搀@@ 100
潇@@ 100
褒@@ 100
Jones 100
yen 100
今天@@ 100
发援 100
昧@@ 100
筏 100
贯性 100
Ｗ 100
COM@@ 100
IOC 100
fl@@ 100
ã 100
吻@@ 100
妊@@ 100
榨 100
瞥@@ 100
筐 100
糕 100
绅 100
Bun@@ 100
ary@@ 100
manu@@ 100
們 100
槽@@ 100
硼 100
铬@@ 100
ｉ 100
SF 100
Sun@@ 100
What 100
ger@@ 100
get 100
啸@@ 100
Edward 100
dar@@ 100
梳 100
BL@@ 100
Mes@@ 100
Sam 100
戈尔@@ 100
篪 100
践@@ 100
龋 100
Bre@@ 100
Bru@@ 100
Jer@@ 100
dio 100
els 100
vic@@ 100
东南@@ 100
格达 100
碌@@ 100
oms 100
★ 100
敛@@ 100
酐 100
Ｃ 100
ok 100
圣马@@ 100
 100
06@@ 100
RB@@ 100
TC@@ 100
port@@ 100
敕@@ 100
鳞 100
Pic@@ 100
State 100
Williams 100
ap 100
枣 100
迂@@ 100
Tol@@ 100
aci@@ 100
剽@@ 100
dge 100
ww@@ 100
侍 100
弥 100
赘@@ 100
Economic 100
States 100
Taylor 100
over@@ 100
ustin 100
噶@@ 100
缎 100
阑@@ 100
ning 100
周期@@ 100
奥林匹@@ 100
性恋 100
苣 100
螃@@ 100
誊@@ 100
马斯 100
鹏 100
Young 100
eu@@ 100
kg 100
ï 100
凹 100
坞 100
纲@@ 100
胁@@ 100
迸@@ 100
Christop@@ 100
Pas@@ 100
ser 100
tan 100
嬷 100
审查@@ 100
Alan 100
dow@@ 100
ili 100
Fil@@ 100
iti@@ 100
shi 100
Bol@@ 100
Oc@@ 100
ele 100
err@@ 100
uro@@ 100
朔@@ 100
 100
UND@@ 100
§ 100
俏 100
布什@@ 100
Nav@@ 100
achi@@ 100
sin@@ 100
thi@@ 100
à 100
不大@@ 100
卢旺@@ 100
姻 100
定书 100
薛@@ 100
锰@@ 100
GN@@ 100
ICCPR 100
LB 100
yi@@ 100
芦 100
dor@@ 100
sic@@ 100
奄 100
姐@@ 100
涕@@ 100
盥@@ 100
粥@@ 100
HK@@ 100
Nar@@ 100
TRA@@ 100
pt 100
ray 100
ws 100
最大@@ 100
林顿 100
特派@@ 100
舅 100
蹈 100
Exchange 100
Scot@@ 100
fan 100
橙 100
alo 100
俣 100
害人 100
SG@@ 100
sts 100
胚 100
芝加@@ 100
Federal 100
LT@@ 100
yes 100
晾@@ 100
瑙 100
CAS 100
Francis 100
alia 100
sla@@ 100
坛@@ 100
栗@@ 100
榴 100
舆@@ 100
鹫 100
NASA 100
ood@@ 100
吁 100
湘@@ 100
澄@@ 100
着眼@@ 100
穗@@ 100
膳 100
Ken@@ 100
Stra@@ 100
挑战@@ 100
豁@@ 100
Energy 100
Leon@@ 100
TN@@ 100
eed 100
ink 100
lau@@ 100
off@@ 100
欺 100
II@@ 100
ITA@@ 100
ces 100
cho@@ 100
lor@@ 100
rent 100
伶@@ 100
卓 100
苇 100
莺 100
Ul@@ 100
晦@@ 100
羹 100
asc@@ 100
ication 100
lim@@ 100
port 100
多斯 100
熔 100
骇 100
Tun@@ 100
dol@@ 100
duc@@ 100
捅 100
Bran@@ 100
gar 100
hom@@ 100
spirit 100
㈩ 100
拂 100
咎 100
寐@@ 100
掳@@ 100
炖@@ 100
蛤@@ 100
钮@@ 100
isi 100
rob@@ 100
star 100
ville 100
■ 100
哝 100
蹋 100
Center 100
Hon@@ 100
gi 100
圭 100
棘@@ 100
翡@@ 100
谤 100
釉@@ 100
Costa 100
ria 100
旷 100
淹 100
繁 100
颚 100
DD@@ 100
SY@@ 100
atin@@ 100
泞 100
DF 100
Day@@ 100
Virginia 100
犁 100
Philip@@ 100
lish 100
sar@@ 100
匕@@ 100
扉 100
斌 100
沸 100
瞭@@ 100
辗@@ 100
Stat@@ 100
哼@@ 100
憾 100
赃@@ 100
Reserve 100
Service 100
rich 100
七届 100
嗪 100
瞅 100
瞒 100
胫@@ 100
阮@@ 100
鳕@@ 100
Louis 100
tho@@ 100
who 100
倘@@ 100
炳@@ 100
焙 100
犁@@ 100
蟹@@ 100
2008@@ 100
LD 100
Les@@ 100
NU@@ 100
ator 100
ite@@ 100
lam 100
pec@@ 100
bra@@ 100
burg 100
not 100
╱ 100
啸 100
Donald 100
Protocol 100
tre@@ 100
俭@@ 100
汕@@ 100
淮@@ 100
癖@@ 100
翘 100
锭 100
low@@ 100
ock 100
兴奋@@ 100
Aug@@ 100
Ghan@@ 100
Ran@@ 100
Sub@@ 100
hai 100
勤人员 100
枉@@ 100
眺@@ 100
锢 100
Mau@@ 100
mp@@ 100
脐@@ 100
Dur@@ 100
field 100
ind 100
more 100
sor@@ 100
‰ 100
檐 100
缎@@ 100
靡@@ 100
APEC 100
albe@@ 100
学前@@ 100
瀚 100
禀@@ 100
禅 100
EEC 100
GNI 100
Gol@@ 100
Mach@@ 100
atar 100
bun@@ 100
嗜 100
妖 100
崽 100
袄 100
bie 100
ll 100
my@@ 100
ø 100
攒@@ 100
蹑@@ 100
边境@@ 100
amp@@ 100
awi 100
htt@@ 100
than 100
娠@@ 100
安提@@ 100
榻 100
菱@@ 100
酶@@ 100
Len@@ 100
Wor@@ 100
aire 100
ones 100
吠 100
坚定@@ 100
HO@@ 100
PB@@ 100
Trading 100
uli@@ 100
扩 100
邃 100
ERS 100
Son@@ 100
Tem@@ 100
咧@@ 100
嚷@@ 100
婊@@ 100
岔 100
拘 100
熙 100
獭 100
资讯@@ 100
Riy@@ 100
ae 100
aret 100
str 100
γ 100
纤 100
脯 100
蛀@@ 100
Bul@@ 100
DI@@ 100
Res@@ 100
Star@@ 100
cil 100
ement 100
前所@@ 100
潢 100
艾哈迈@@ 100
HD 100
cen@@ 100
dez 100
pson 100
厩 100
沼 100
Christian 100
PI 100
qui@@ 100
sul 100
兮@@ 100
冤 100
榆@@ 100
赵 100
ｃ 100
Lim@@ 100
committees 100
捐助@@ 100
逢@@ 100
鼎 100
NL 100
ines 100
tive 100
坤 100
汪 100
浩 100
们@@ 100
侬 100
瓣@@ 100
绍 100
Chris 100
Comm@@ 100
tw@@ 100
卒@@ 100
禾 100
缅甸@@ 100
苷@@ 100
FP 100
kar@@ 100
劈 100
叛乱@@ 100
吕 100
慑 100
筵@@ 100
饥 100
las 100
穹@@ 100
霾 100
Nag@@ 100
Ven@@ 100
Vic@@ 100
bor@@ 100
ele@@ 100
tim@@ 100
work 100
叼 100
吱 100
学率 100
惚 100
Cer@@ 100
euro@@ 100
olu@@ 100
win@@ 100
殴 100
缅 100
蜚@@ 100
Steve 100
let@@ 100
sil@@ 100
励 100
瘸@@ 100
荚 100
袤 100
达成@@ 100
Gr@@ 100
bon@@ 100
嗒 100
笃@@ 100
铂 100
Gri@@ 100
Py@@ 100
avier 100
ters 100
纫@@ 100
asp@@ 100
bri@@ 100
tic 100
use 100
嘻@@ 100
多边@@ 100
鹤@@ 100
多巴哥 100
浚 100
Point 100
Report 100
Ron@@ 100
nation@@ 100
tal@@ 100
倦@@ 100
南斯拉夫@@ 100
Sta@@ 100
凳@@ 100
CAR@@ 100
athan 100
su 100
匣@@ 100
诘@@ 100
EG@@ 100
ancy 100
ato 100
ert 100
pri@@ 100
vin@@ 100
勉@@ 100
密集@@ 100
為 100
瑕 100
装箱 100
躬@@ 100
鞑@@ 100
骷@@ 100
Obama 100
榷 100
蒜@@ 100
魁 100
Hotel 100
NP 100
ago@@ 100
mud 100
ois 100
zon 100
俏@@ 100
哆@@ 100
姬@@ 100
彬 100
敝 100
莅@@ 100
IK@@ 100
ders 100
➢ 100
庇护@@ 100
Cra@@ 100
Land@@ 100
Pla@@ 100
Stu@@ 100
equ@@ 100
东南亚@@ 100
焙@@ 100
莴@@ 100
蓿 100
讹@@ 100
rup@@ 100
嫂 100
涟@@ 100
特网 100
By@@ 100
ion 100
lar@@ 100
lec@@ 100
ree 100
孳@@ 100
笺 100
蘸 100
负责@@ 100
Gul@@ 100
Marg@@ 100
Pow@@ 100
ion@@ 100
rap@@ 100
娼@@ 100
帘@@ 100
恬@@ 100
辆@@ 100
Av@@ 100
Hill 100
Philip 100
Republic 100
Street 100
ated 100
ins 100
倔@@ 100
厥@@ 100
械@@ 100
裕@@ 100
蹭 100
铢 100
￡ 100
Ama@@ 100
Let 100
eline 100
ign@@ 100
ille 100
ken 100
坟 100
恣@@ 100
猝@@ 100
茵@@ 100
襟 100
USA 100
哒 100
奥巴@@ 100
赈@@ 100
Pur@@ 100
WS 100
sn@@ 100
勺@@ 100
噬@@ 100
矣 100
sid@@ 100
呕 100
溅@@ 100
瓦纳 100
苟 100
藜 100
酮@@ 100
 100
One 100
report 100
嘀@@ 100
攀 100
磕@@ 100
HCFC 100
ING 100
PU@@ 100
hard 100
san 100
tec@@ 100
叽@@ 100
咱@@ 100
姻@@ 100
婶 100
氦 100
臼 100
艘@@ 100
Ot@@ 100
Rev@@ 100
bec@@ 100
cm 100
一整@@ 100
理查@@ 100
赊@@ 100
GA@@ 100
Yes 100
冕@@ 100
坷 100
Ｓ 100
Chin@@ 100
DD 100
bol@@ 100
ear 100
iss 100
kan 100
tal 100
vis@@ 100
侵 100
枞@@ 100
禄 100
簧@@ 100
莽@@ 100
醛@@ 100
Gl@@ 100
bs 100
fac@@ 100
kra@@ 100
stone 100
批准@@ 100
殡@@ 100
浊@@ 100
电联 100
腈 100
FCs 100
Sig@@ 100
UK 100
Union 100
bin@@ 100
line 100
体化 100
楠@@ 100
窿 100
苜@@ 100
茸@@ 100
贮 100
ici@@ 100
lad@@ 100
ond 100
玲@@ 100
鞍 100
Sem@@ 100
Wilson 100
ank 100
aux 100
yar@@ 100
侦 100
掐@@ 100
Pacific 100
dd@@ 100
sad 100
鄂@@ 100
Elizabeth 100
Lib@@ 100
judic@@ 100
丈@@ 100
啃 100
孺 100
忽 100
Ful@@ 100
TEC 100
Vill@@ 100
ult 100
祢 100
AA@@ 100
挽 100
杏 100
羧@@ 100
﹣ 100
Foundation 100
拭@@ 100
谭 100
hap@@ 100
斓 100
腓 100
Pot@@ 100
Sarah 100
treaty 100
因于 100
廿@@ 100
惟 100
漪 100
秸@@ 100
线图 100
酋长国 100
Bill 100
Mid@@ 100
ington 100
nam@@ 100
sim@@ 100
tes 100
搓 100
斯洛@@ 100
桁@@ 100
瞳@@ 100
LS 100
That 100
bul@@ 100
多巴@@ 100
窜@@ 100
Geor@@ 100
Vil@@ 100
倘 100
扒@@ 100
扪 100
牒 100
腆 100
铆@@ 100
Environment 100
Sor@@ 100
South 100
Yahoo 100
sou@@ 100
wer 100
扛@@ 100
烃@@ 100
狄 100
釉 100
鳗@@ 100
Est@@ 100
Kim@@ 100
King 100
met 100
qi@@ 100
喽 100
撼@@ 100
獾 100
蓉 100
ESA 100
Than@@ 100
was 100
苛 100
诙@@ 100
镶 100
 100
Boo@@ 100
low 100
锄@@ 100
Pac@@ 100
TL 100
nie 100
sm@@ 100
stra@@ 100
民主共和国 100
爱沙@@ 100
讽@@ 100
act 100
dle 100
ech 100
ram@@ 100
個 100
怜 100
炯@@ 100
蹦 100
霹@@ 100
FM@@ 100
LU@@ 100
MIN@@ 100
Rio 100
ix 100
太平洋@@ 100
斋 100
灼 100
瘢@@ 100
藓 100
Dr 100
sol@@ 100
篷@@ 100
翱@@ 100
摄 100
猕@@ 100
疙@@ 100
Partners 100
Wh@@ 100
bat@@ 100
gue 100
屹@@ 100
毡 100
蛙@@ 100
髅 100
麟 100
oth 100
倪 100
卿 100
美利@@ 100
茹@@ 100
CDM 100
Eli@@ 100
FF 100
aqu@@ 100
azz@@ 100
mid@@ 100
ordon 100
屯 100
搪@@ 100
汝@@ 100
FE@@ 100
Pop@@ 100
gas 100
nel 100
ref@@ 100
set 100
wood 100
熨 100
镣 100
Jac@@ 100
Mike 100
Trade 100
ope 100
poli@@ 100
spe@@ 100
一夫@@ 100
涯 100
渤@@ 100
瘪 100
罄 100
蚁@@ 100
Ang@@ 100
Ann 100
Ce@@ 100
Green@@ 100
Persons 100
滓 100
豚@@ 100
198@@ 100
Abbas 100
Ele@@ 100
London 100
Policy 100
Pos@@ 100
Sat@@ 100
ume 100
wit@@ 100
殃 100
论性 100
Gold@@ 100
媳@@ 100
Dar 100
bit@@ 100
ext 100
快速@@ 100
炔 100
禧 100
绢 100
褥@@ 100
轶@@ 100
Equ@@ 100
Sw@@ 100
Tony 100
vel 100
ware 100
won 100
wor@@ 100
氡 100
筹备@@ 100
辄 100
SOA 100
tra 100
哉 100
澎@@ 100
疮@@ 100
ene@@ 100
ker@@ 100
sin 100
坪@@ 100
歧 100
湛@@ 100
祷@@ 100
蜻@@ 100
鲍 100
 100
Harry 100
Kw@@ 100
Merc@@ 100
Press 100
Royal 100
Vis@@ 100
ea@@ 100
ses 100
time 100
馅 100
Health 100
Rem@@ 100
Washington 100
Yan@@ 100
anu@@ 100
cre@@ 100
喙 100
嚣@@ 100
桶@@ 100
漾 100
绯@@ 100
踉@@ 100
ICT 100
POL 100
Tre@@ 100
fer 100
ome 100
pour 100
sey 100
sir 100
茬 100
Power 100
Social 100
Spanish 100
峻 100
跛@@ 100
靖 100
City 100
DH 100
Fur@@ 100
PAR@@ 100
dos 100
dur@@ 100
啉 100
猬 100
箍 100
诵@@ 100
How@@ 100
Om@@ 100
erto 100
itt@@ 100
嘲 100
搜 100
窟@@ 100
IF 100
Jud@@ 100
发现@@ 100
扪@@ 100
拎 100
沪 100
瘩 100
祛@@ 100
蔓 100
贻@@ 100
辈@@ 100
钡 100
Bla@@ 100
Hong 100
Kun@@ 100
eld 100
women 100
上述@@ 100
芹@@ 100
觑 100
颐@@ 100
Chan 100
HO 100
Ho 100
sit@@ 100
stan 100
绷 100
Anton@@ 100
Shari@@ 100
− 100
仕 100
袁@@ 100
驶 100
Credit 100
sion@@ 100
亭@@ 100
眯@@ 100
蹊@@ 100
钠@@ 100
Pap@@ 100
猿@@ 100
谧 100
谩@@ 100
Associ@@ 100
Chen 100
Pil@@ 100
ea 100
gro@@ 100
sw@@ 100
朋 100
雌 100
AW@@ 100
Gir@@ 100
WH@@ 100
anci@@ 100
ffe@@ 100
onia 100
sum@@ 100
tun@@ 100
yl 100
窘 100
箴@@ 100
踝@@ 100
Cel@@ 100
Milan 100
Sea 100
秦 100
蚕 100
遢 100
邋@@ 100
酌 100
ound 100
凤 100
赫勒@@ 100
Cre@@ 100
Micro@@ 100
Plan@@ 100
West 100
abil@@ 100
ality 100
ania 100
key 100
lam@@ 100
ual 100
zy 100
¾ 100
信仰@@ 100
啜@@ 100
粱 100
鸵@@ 100
GR@@ 100
Tay@@ 100
cy 100
冀 100
哩@@ 100
萍 100
骡@@ 100
about 100
fon@@ 100
hus@@ 100
吠@@ 100
荟 100
蹩@@ 100
通知@@ 100
Direc@@ 100
WMO 100
log@@ 100
咭 100
布隆迪@@ 100
廓@@ 100
魅@@ 100
East 100
Franc@@ 100
abad 100
bre 100
cul@@ 100
fun@@ 100
僭 100
湮@@ 100
蔬 100
钨@@ 100
FR@@ 100
bia 100
zer@@ 100
恪@@ 100
瑜 100
疹@@ 100
瞄@@ 100
Dha@@ 100
HK 100
Legal 100
Roc@@ 100
UNDP 100
anit@@ 100
gers 100
vica 100
俐 100
娼 100
斟@@ 100
舷@@ 100
Hou@@ 100
Hur@@ 100
cy@@ 100
ded@@ 100
ose 100
tia 100
val 100
唯 100
喀麦@@ 100
巩@@ 100
枣@@ 100
瞒@@ 100
豹@@ 100
钒 100
黝@@ 100
Wang 100
gang 100
gre@@ 100
ink@@ 100
ug 100
利息@@ 100
溃 100
特许@@ 100
House 100
Media 100
Mob@@ 100
Reuters 100
UNODC 100
end 100
彦 100
索托 100
腼@@ 100
钵 100
钽 100
Haz@@ 100
Institu@@ 100
TU@@ 100
柚@@ 100
檐@@ 100
瞩 100
笃 100
Ｍ 100
ile@@ 100
nar@@ 100
plo@@ 100
可靠@@ 100
樟@@ 100
漂 100
芪 100
Department 100
Domin@@ 100
Elec@@ 100
ais 100
car 100
rights 100
ship 100
洙 100
疣 100
碧 100
秤@@ 100
腑 100
诺斯@@ 100
靖@@ 100
KO 100
Science 100
evi@@ 100
hem 100
hin@@ 100
ket 100
tag@@ 100
ust 100
wal 100
會 100
棕 100
蔷@@ 100
骏@@ 100
HL 100
Rep@@ 100
gy@@ 100
hard@@ 100
ret 100
⑹ 100
撮@@ 100
艾哈@@ 100
邝@@ 100
MAN@@ 100
ady 100
have 100
nes@@ 100
scar 100
來 100
共体 100
芸@@ 100
Consul@@ 100
Mrs 100
ier 100
sus 100
乌干@@ 100
扒 100
癣 100
经社@@ 100
蜓 100
cal@@ 100
eller 100
leg@@ 100
meetings 100
偎 100
摺 100
漱@@ 100
瘀 100
葺 100
讼@@ 100
gui 100
oul@@ 100
sit 100
体上 100
姥@@ 100
直布罗@@ 100
锹 100
Agenda 100
Phil@@ 100
hide 100
hum@@ 100
lock 100
med@@ 100
文森特 100
日制 100
桎@@ 100
蹬 100
Abra@@ 100
Lum@@ 100
Rou@@ 100
stro@@ 100
修正@@ 100
梏 100
涓@@ 100
珊瑚@@ 100
痤@@ 100
邂@@ 100
Brun@@ 100
Projects 100
ander 100
eth@@ 100
ox@@ 100
set@@ 100
stitu@@ 100
uro 100
朽@@ 100
经纪@@ 100
获取@@ 100
酣@@ 100
Arthur 100
Soci@@ 100
Spe@@ 100
ide 100
〖 100
妾 100
懦 100
祟 100
An 100
ason 100
ide@@ 100
len@@ 100
rem@@ 100
soc@@ 100
uck 100
厮@@ 100
必不可@@ 100
搂@@ 100
灶@@ 100
禧@@ 100
臃@@ 100
褪 100
Ministry 100
ote 100
熄 100
话说 100
Qa@@ 100
lon@@ 100
ward 100
wo@@ 100
嬷@@ 100
惴@@ 100
挟 100
掺 100
AI@@ 100
DR 100
Nel@@ 100
ats 100
栋@@ 100
槌 100
赤道@@ 100
骋 100
Mr@@ 100
ls 100
mis@@ 100
ook 100
ple 100
smar@@ 100
tz 100
恢@@ 100
渥@@ 100
窥 100
萘@@ 100
衫@@ 100
 100
Gall@@ 100
Sus@@ 100
acy 100
arib@@ 100
sein 100
son@@ 100
Hot@@ 100
Vie@@ 100
ites 100
壕@@ 100
桩@@ 100
楞@@ 100
相关@@ 100
赃 100
跆@@ 100
Hass@@ 100
Leg@@ 100
news 100
squ@@ 100
〗 100
勘 100
咪@@ 100
寥 100
枉 100
钥@@ 100
Mobile 100
Standard 100
assa@@ 100
cher@@ 100
ffic@@ 100
册@@ 100
坊@@ 100
坯@@ 100
婶@@ 100
袒@@ 100
魇 100
Action 100
Valen@@ 100
ical 100
佃@@ 100
戳@@ 100
琌 100
璀@@ 100
葡 100
蕃@@ 100
酵 100
霓@@ 100
Assembly 100
Def@@ 100
Dol@@ 100
Neg@@ 100
alle@@ 100
ings 100
mark 100
onom@@ 100
ph 100
ule 100
仑@@ 100
周知 100
峦 100
戛@@ 100
攥 100
Act 100
Bam@@ 100
Fac@@ 100
Xi@@ 100
tics 100
ving 100
º 100
侮 100
壤@@ 100
汛 100
酥 100
gir@@ 100
heed 100
space 100
ts@@ 100
旭@@ 100
负面@@ 100
 100
Open@@ 100
RF 100
ego 100
gol@@ 100
may@@ 100
啥@@ 100
惦@@ 100
撕 100
歼@@ 100
纾@@ 100
耙 100
辫@@ 100
阿卜耶@@ 100
Ｎ 100
AIDS 100
IU@@ 100
against 100
but 100
mel 100
nam 100
rat 100
匠@@ 100
啰 100
殃@@ 100
洛杉@@ 100
蹴@@ 100
逅 100
郝@@ 100
靓@@ 100
box 100
human 100
mal@@ 100
rid@@ 100
佛得@@ 100
昙@@ 100
纭 100
雳 100
Bob 100
OS@@ 100
med 100
sto@@ 100
vers@@ 100
羟 100
闺@@ 100
驹 100
Jes@@ 100
凛@@ 100
寨@@ 100
溥@@ 100
镍@@ 100
麝@@ 100
Cen@@ 100
Central 100
Jane 100
Out@@ 100
Rel@@ 100
丸@@ 100
冀@@ 100
叩@@ 100
垦@@ 100
廊@@ 100
札@@ 100
禾@@ 100
虱 100
Zh@@ 100
世贸@@ 100
炖 100
铎 100
铛 100
sof@@ 100
tors 100
vit@@ 100
五届 100
內 100
荨@@ 100
薰@@ 100
鹑 100
﹕ 100
AND 100
chron@@ 100
圭亚@@ 100
孝 100
褶 100
邹@@ 100
魄@@ 100
Ｇ 100
Ｐ 100
Maur@@ 100
fol@@ 100
peri@@ 100
哺 100
楠 100
雁 100
Ｈ 100
ｅ 100
GENERAL 100
Justice 100
Moun@@ 100
ages 100
ards 100
利比@@ 100
太平@@ 100
安道@@ 100
漓@@ 100
矶@@ 100
置信 100
褛 100
IDA 100
hat 100
ket@@ 100
疡@@ 100
鳃 100
ICE 100
IPS 100
Rap@@ 100
Review 100
far@@ 100
gun@@ 100
※ 100
冶 100
剌 100
昵@@ 100
穹 100
药物@@ 100
Chem@@ 100
Ori@@ 100
溺 100
脐 100
轩 100
锆 100
Dat@@ 100
FF@@ 100
loy@@ 100
onn@@ 100
哇@@ 100
菅@@ 100
蚜@@ 100
Cri@@ 100
Protection 100
sic 100
切尔诺@@ 100
呱@@ 100
撇 100
芹 100
萧 100
褴@@ 100
迄 100
Eg@@ 100
Fol@@ 100
Industries 100
amy 100
evo 100
ity@@ 100
oli@@ 100
soci@@ 100
very 100
刨 100
唧@@ 100
啻 100
愉 100
掣@@ 100
疝 100
眸 100
耘 100
酥@@ 100
驮 100
acional 100
had@@ 100
nec@@ 100
sand@@ 100
zo@@ 100
布宜诺斯艾@@ 100
志愿@@ 100
朔 100
歹 100
沓 100
狭 100
躇 100
France 100
SCO 100
UNO@@ 100
cap@@ 100
hen 100
home 100
mag@@ 100
rice 100
stabl@@ 100
zh@@ 100
â 100
人道@@ 100
原子能@@ 100
淆@@ 100
蝉 100
酪@@ 100
Kaf@@ 100
MAT@@ 100
Party 100
Public 100
Pun@@ 100
erts 100
iles 100
ism 100
lett 100
埠 100
桅 100
缸@@ 100
褥 100
Feder@@ 100
Type 100
ied 100
sem@@ 100
xon 100
ym@@ 100
卡因 100
咱 100
羁 100
Sud@@ 100
Victoria 100
day@@ 100
fe 100
multimedia 100
world@@ 100
孰@@ 100
熠@@ 100
Resources 100
Technology 100
ayed 100
iner 100
omen@@ 100
search 100
work@@ 100
恸 100
挟@@ 100
涎@@ 100
Joe 100
Kis@@ 100
Rac@@ 100
UNICEF 100
alli@@ 100
bet@@ 100
cer@@ 100
year@@ 100
刁@@ 100
嚎@@ 100
媳 100
楣 100
渍@@ 100
缰@@ 100
腥@@ 100
Ｄ 100
ams 100
icle 100
sign@@ 100
惺@@ 100
格鲁@@ 100
Bud@@ 100
Grand 100
Ow@@ 100
Star 100
bian 100
hot@@ 100
lim 100
run@@ 100
利昂 100
咫@@ 100
垠 100
琦 100
璨 100
阿尔及@@ 100
鳟@@ 100
Index 100
Loc@@ 100
NT@@ 100
inson 100
wil@@ 100
Č 100
ぃ 100
桔 100
琶@@ 100
甫@@ 100
羚 100
锑 100
陡 100
As 100
Fish@@ 100
agen 100
erti@@ 100
lay@@ 100
mel@@ 100
・ 100
不久@@ 100
匣 100
煞 100
董事@@ 100
鼬 100
Green 100
ound@@ 100
叨@@ 100
啪@@ 100
嗣 100
涎 100
烘 100
萨摩@@ 100
钎@@ 100
骏 100
System 100
Zim@@ 100
agg@@ 100
arm@@ 100
lik@@ 100
sten 100
匙@@ 100
嘟 100
晖 100
楷 100
蛹 100
鞠 100
Apple 100
Security 100
兢 100
斯里兰@@ 100
杭 100
膦 100
虱@@ 100
Amen@@ 100
Glob@@ 100
Swe@@ 100
嚼@@ 100
日内瓦@@ 100
石蜡 100
ILO 100
ating 100
dit 100
imp@@ 100
sie 100
which 100
仲 100
收益@@ 100
鬣@@ 100
Cle@@ 100
Economics 100
Jose@@ 100
PF 100
Steel 100
Techn@@ 100
one@@ 100
publications 100
亢@@ 100
匍@@ 100
堰 100
掣 100
湃 100
潭@@ 100
煌 100
螯@@ 100
骰@@ 100
Albert 100
Arab 100
Intern@@ 100
Tro@@ 100
dre@@ 100
oa 100
pers 100
啄@@ 100
摹 100
薇@@ 100
踮@@ 100
Bot@@ 100
Information 100
age@@ 100
ax 100
bre@@ 100
riya 100
丁斯 100
诣 100
阿卜杜@@ 100
鼾 100
Fig@@ 100
HU@@ 100
JI 100
North 100
Publ@@ 100
Trust 100
cit@@ 100
ette 100
ht@@ 100
壑 100
翩 100
蝠@@ 100
鳄 100
鹌@@ 100
Abu@@ 100
ION 100
Santiago 100
Secretary 100
akh 100
arid 100
atur@@ 100
wel@@ 100
寮 100
怦@@ 100
毛里求@@ 100
甙 100
皙 100
踞 100
boy 100
public 100
aud 100
ded 100
guil@@ 100
intern@@ 100
itch@@ 100
tric 100
yp@@ 100
◆ 100
冢 100
利尔 100
妨 100
旭 100
玻 100
蔻 100
鹭 100
isl@@ 100
uss 100
侠@@ 100
堰@@ 100
巍@@ 100
瓢@@ 100
麋@@ 100
Bac@@ 100
Peo@@ 100
dem@@ 100
first 100
liver 100
vol@@ 100
呜 100
巅 100
缀@@ 100
脲 100
蓓@@ 100
迄@@ 100
Conference 100
IO 100
Kenne@@ 100
Society 100
UNV 100
Zhang 100
hun@@ 100
oul 100
water 100
剃 100
嗝 100
巾@@ 100
糠 100
耿 100
Land 100
There 100
feren@@ 100
loc@@ 100
啬@@ 100
嘘@@ 100
恺@@ 100
琉@@ 100
IAEA 100
Pay@@ 100
Switzerland 100
dom@@ 100
ox 100
Ş 100
俨@@ 100
捻 100
羡 100
遛@@ 100
Jim@@ 100
ake 100
lay 100
nor@@ 100
ques 100
vis 100
撩@@ 100
瘙@@ 100
絮 100
钶 100
铉 100
DG@@ 100
Do 100
Sc@@ 100
Yu 100
ache 100
met@@ 100
tem@@ 100
try 100
壶@@ 100
迩 100
隼 100
Hom@@ 100
relating 100
row 100
▲ 100
啃@@ 100
崔 100
恃@@ 100
摁 100
擂 100
脓 100
蟋@@ 100
Saudi 100
Sing@@ 100
ants 100
dad 100
has@@ 100
how 100
嘻 100
屿 100
曦 100
曹 100
烛 100
粕 100
粟@@ 100
 100
Rot@@ 100
enger 100
enni@@ 100
stable 100
vir@@ 100
ô 100
卫者 100
呛 100
哈根 100
Case 100
Centr@@ 100
Kong 100
UNIDO 100
bus@@ 100
fir@@ 100
hand@@ 100
mic@@ 100
sal 100
喏 100
弭 100
怖 100
琢 100
野生@@ 100
ｄ 100
M23 100
lat@@ 100
rev@@ 100
ways 100
yed 100
侵权@@ 100
密斯 100
弘 100
蟀 100
谦 100
驿@@ 100
Ｉ 100
CPC 100
ager 100
gie 100
啾 100
弛@@ 100
荼 100
西比 100
GEN@@ 100
Liu 100
Sir 100
amen@@ 100
comp@@ 100
ely 100
enh@@ 100
oper@@ 100
tt 100
zy@@ 100
俞@@ 100
匐 100
啼 100
奕 100
妃@@ 100
娇 100
揪@@ 100
此机会 100
牲 100
龛 100
India 100
aid 100
io@@ 100
lex 100
〞 100
鸠 100
Court 100
Frank@@ 100
MAN 100
bus 100
cases 100
data 100
pace 100
rad@@ 100
sam@@ 100
± 100
Ö 100
′ 100
刽@@ 100
喱 100
垩 100
婢@@ 100
崧 100
攘 100
研讨@@ 100
莞 100
蟆 100
镣@@ 100
Foreign 100
Mini@@ 100
Saint 100
vision 100
喳 100
麼 100
Cou@@ 100
Forum 100
Status 100
Tin@@ 100
see 100
唧 100
拴@@ 100
掏 100
瘀@@ 100
Poli@@ 100
ask@@ 100
national 100
poly@@ 100
stre@@ 100
stu@@ 100
view 100
咋 100
圣马力@@ 100
崭@@ 100
空局 100
肼 100
近几@@ 100
Mass@@ 100
ante 100
fra@@ 100
gres@@ 100
jec@@ 100
ouse 100
prin@@ 100
② 100
伫@@ 100
卢森@@ 100
夯@@ 100
婷 100
戟 100
更生 100
结核@@ 100
缜@@ 100
蜗 100
蜢 100
谄@@ 100
边缘@@ 100
遵 100
雁@@ 100
Finance 100
MDG 100
Que@@ 100
bn 100
kes 100
nal 100
ogo 100
sy 100
愣 100
腌 100
蒿 100
LR 100
entr@@ 100
ool 100
ton@@ 100
夭 100
忻@@ 100
揪 100
搔 100
特立尼@@ 100
DPI 100
UNC@@ 100
Youn@@ 100
emp@@ 100
has 100
plan 100
ses@@ 100
she@@ 100
sho@@ 100
喹 100
妒 100
崽@@ 100
捣 100
桦@@ 100
沦 100
蕨@@ 100
貂 100
Affairs 100
Inte@@ 100
Liber@@ 100
nu@@ 100
pha 100
Ž 100
厘 100
噻@@ 100
坳 100
嫦@@ 100
澜@@ 100
盂 100
耦 100
馨@@ 100
Dan 100
Dre@@ 100
ISA@@ 100
Lon@@ 100
ato@@ 100
chem@@ 100
mber 100
ology 100
pon@@ 100
六届 100
叭@@ 100
感器 100
裘@@ 100
锻 100
驯 100
Agency 100
All 100
Art 100
Cot@@ 100
Khar@@ 100
ago 100
aren 100
dat@@ 100
estin@@ 100
het 100
she 100
哽@@ 100
巴巴@@ 100
枭 100
特里亚 100
瞄 100
砰@@ 100
膺 100
Nacional 100
leg 100
rel 100
wn 100
苞@@ 100
谙 100
CEB 100
CPR 100
Rw@@ 100
Time 100
look 100
should 100
人人@@ 100
昵 100
沪@@ 100
缛@@ 100
Korea 100
Vienna 100
bad 100
cent 100
佯@@ 100
奕@@ 100
樽 100
缕@@ 100
蚱@@ 100
ACC 100
Advis@@ 100
Christ@@ 100
Cir@@ 100
Dr@@ 100
Europe 100
rena 100
serv@@ 100
smart 100
苞 100
钽@@ 100
雍@@ 100
CW 100
ECE 100
Hall 100
Los 100
Marine 100
anti@@ 100
cop@@ 100
ever@@ 100
mou@@ 100
潺@@ 100
蝎 100
讷@@ 100
UD@@ 100
rig@@ 100
多米@@ 100
幽 100
忐@@ 100
秧@@ 100
糠@@ 100
讪 100
铯 100
馒@@ 100
ECA 100
IPC 100
alk@@ 100
咏@@ 100
毂 100
睽@@ 100
貂@@ 100
隧@@ 100
CTBT 100
DER 100
People 100
Systems 100
wish 100
加勒比@@ 100
薰 100
跄 100
镳 100
ｎ 100
Turk@@ 100
Wel@@ 100
mens 100
techn@@ 100
呱 100
寰 100
揽@@ 100
撵@@ 100
琶 100
睽 100
莫桑比@@ 100
遮 100
靼@@ 100
鸠@@ 100
Barack 100
Foc@@ 100
acti@@ 100
aly 100
垛 100
奥林@@ 100
粹 100
霖 100
顷@@ 100
ｏ 100
Cris@@ 100
IZ@@ 100
Japan 100
Oil 100
arian 100
endo@@ 100
ross 100
stat 100
wat@@ 100
μ 100
忒 100
擒@@ 100
暹@@ 100
桦 100
薛 100
辘 100
魏 100
Ear@@ 100
aco 100
ako 100
cat@@ 100
didn 100
棠 100
甥 100
鄂 100
....@@ 100
Benjamin 100
Dow@@ 100
ECB 100
Grou@@ 100
Johan@@ 100
SAS 100
Vin@@ 100
cur@@ 100
ean 100
ique 100
you@@ 100
涯@@ 100
炬@@ 100
畸 100
翰@@ 100
膀 100
Electr@@ 100
Insurance 100
Life 100
Wit@@ 100
erc@@ 100
iden@@ 100
mas 100
second 100
than@@ 100
tran@@ 100
world 100
吸毒@@ 100
嘧@@ 100
壹@@ 100
Shel@@ 100
arre@@ 100
aus@@ 100
rella 100
trans@@ 100
吭@@ 100
噁 100
晦 100
烩 100
聂@@ 100
豫 100
跛 100
默德 100
Geo@@ 100
Mont@@ 100
Road 100
aul 100
bad@@ 100
bis 100
gle 100
ika 100
ski@@ 100
Ć 100
吭 100
嘿@@ 100
崖@@ 100
涝@@ 100
腭@@ 100
芜@@ 100
jin 100
lines 100
over 100
post@@ 100
say 100
tou@@ 100
咏 100
惘 100
棱 100
沥 100
腭 100
荟@@ 100
197@@ 100
Book 100
Cap 100
dam@@ 100
ece 100
mac@@ 100
mit 100
sell 100
卤 100
咋@@ 100
唁 100
啊@@ 100
髻 100
ign 100
rol@@ 100
session 100
‛ 100
厦 100
槿@@ 100
渭@@ 100
湎 100
破产@@ 100
蔡 100
霄@@ 100
黜 100
Food 100
GEF 100
GNP 100
Industrial 100
Nou@@ 100
Oh 100
Tru@@ 100
UNHCR 100
by@@ 100
cer 100
э 100
剿 100
啄 100
尹@@ 100
巿 100
彝@@ 100
胁 100
邵@@ 100
郭 100
鳕 100
Ｅ 100
African 100
Fam@@ 100
ao@@ 100
jur@@ 100
kets 100
obl@@ 100
web@@ 100
乞 100
厕@@ 100
在实践@@ 100
幺 100
昭 100
汀@@ 100
浣@@ 100
羯@@ 100
贬 100
鲱@@ 100
Angel@@ 100
MDGs 100
Network 100
Syn@@ 100
bul 100
cal 100
sel 100
″ 100
⑥ 100
掷@@ 100
榔 100
自给@@ 100
英译@@ 100
茎@@ 100
蛊@@ 100
隙@@ 100
Ath@@ 100
tus 100
♦ 100
摧 100
琅@@ 100
祠 100
糜@@ 100
绎@@ 100
臀 100
补救@@ 100
镛 100
隅 100
 100
Chung 100
Explo@@ 100
Ford 100
Prin@@ 100
Tow@@ 100
bet 100
ord 100
tures 100
嘶 100
汲@@ 100
甾@@ 100
荞@@ 100
阉@@ 100
黏 100
Acti@@ 100
Cop@@ 100
Imp@@ 100
Project 100
bed 100
bud@@ 100
far 100
gor@@ 100
ller 100
ype 100
孤 100
拈@@ 100
攘@@ 100
茜@@ 100
逮 100
阮 100
零零@@ 100
颞@@ 100
Mee@@ 100
Up@@ 100
ful@@ 100
ikh 100
mir@@ 100
releases 100
run 100
this 100
tol@@ 100
Ⅱ 100
仗@@ 100
侃@@ 100
樊@@ 100
渺 100
矽@@ 100
砜 100
臻 100
铈 100
鹊 100
Are@@ 100
Catherine 100
Unit 100
hua 100
idad 100
ining 100
onga 100
training 100
ular 100
⑺ 100
分之二 100
叮 100
嗖 100
姊 100
恢 100
梧 100
谅@@ 100
贼@@ 100
鞣@@ 100
Children 100
Paris 100
bit 100
coordination 100
敖@@ 100
桨@@ 100
森特 100
痒@@ 100
科索@@ 100
褐 100
诿 100
Islam 100
Islam@@ 100
Me 100
ail 100
bag@@ 100
enda 100
mini@@ 100
sight 100
壹 100
悸 100
柿@@ 100
漓 100
袍@@ 100
锶 100
闽@@ 100
阡@@ 100
Jur@@ 100
Studies 100
gal 100
gam@@ 100
medi@@ 100
party 100
sco@@ 100
同工@@ 100
痣 100
饲 100
ICA 100
Lit@@ 100
McC@@ 100
Pres@@ 100
Sey@@ 100
Ten@@ 100
inte@@ 100
ols 100
spec@@ 100
struc@@ 100
喳@@ 100
垣 100
妩@@ 100
格陵@@ 100
肱@@ 100
Hai@@ 100
Log@@ 100
ability 100
bury 100
ering 100
nat@@ 100
主权@@ 100
彤 100
桐@@ 100
诩 100
颐 100
Environmental 100
aim 100
hoo 100
亚哥 100
叁@@ 100
拚@@ 100
搔@@ 100
FTA 100
Mess@@ 100
Minister 100
Wen@@ 100
come 100
int@@ 100
rest 100
vey 100
丫 100
姥 100
疸 100
箕 100
腻@@ 100
觎 100
霰@@ 100
Not@@ 100
REN@@ 100
content 100
gg@@ 100
only 100
rati@@ 100
will 100
弈@@ 100
桐 100
瘫@@ 100
秽@@ 100
辘@@ 100
麓 100
Canada 100
Nan@@ 100
acle 100
shop 100
sure 100
测性 100
生人 100
砷@@ 100
篡 100
鼾@@ 100
Contrac@@ 100
UNESCO 100
White 100
Yang 100
ades 100
bis@@ 100
ll@@ 100
嗡 100
惕@@ 100
枸@@ 100
沈 100
滥 100
痘@@ 100
经济合作@@ 100
翟@@ 100
College 100
LDC 100
Permanent 100
ane@@ 100
mul@@ 100
掸 100
枫 100
藩@@ 100
讷 100
躇@@ 100
Ball@@ 100
Bush 100
DV@@ 100
Delta 100
Nation@@ 100
Song 100
UT@@ 100
ambi@@ 100
ax@@ 100
cli@@ 100
new 100
ours 100
俑 100
俑@@ 100
寅 100
幌 100
潺 100
焉@@ 100
蝌@@ 100
鑫 100
霎@@ 100
马尔代@@ 100
Eng@@ 100
Goo@@ 100
Tob@@ 100
action 100
form 100
now 100
od 100
reports 100
亢 100
榛@@ 100
津巴布@@ 100
癫 100
蚪 100
袅@@ 100
跷@@ 100
Vincent 100
bou@@ 100
goo@@ 100
sle@@ 100
ull 100
冽 100
忖 100
拗 100
氩 100
瞠@@ 100
麸@@ 100
Nur@@ 100
Super@@ 100
back 100
house 100
儡@@ 100
协助@@ 100
吮@@ 100
挛@@ 100
暮 100
粽@@ 100
轿@@ 100
邢@@ 100
骸@@ 100
 100
Code 100
app@@ 100
rak@@ 100
居高@@ 100
幔@@ 100
忑@@ 100
捎 100
汹 100
狈 100
And 100
Jesus 100
acqu@@ 100
pl 100
sl@@ 100
博物@@ 100
合实际 100
呤 100
奚@@ 100
帜 100
煲 100
玺 100
萼 100
逍@@ 100
鬃@@ 100
Cour@@ 100
Inter 100
Pho@@ 100
idi@@ 100
ough 100
policy 100
冗 100
囔 100
媛 100
憋@@ 100
极其@@ 100
瘟 100
矜@@ 100
觊@@ 100
阿拉木@@ 100
CFC 100
Communications 100
ational 100
eco 100
fat 100
ight 100
nei@@ 100
rea@@ 100
respon@@ 100
◎ 100
哌@@ 100
成千@@ 100
Director 100
Integr@@ 100
MEN@@ 100
OF 100
Oper@@ 100
itation 100
lun@@ 100
奠 100
擎@@ 100
瑟夫 100
矸@@ 100
莎白 100
跷 100
踹 100
Brit@@ 100
Coun@@ 100
Ec@@ 100
INTER@@ 100
Mission 100
Part@@ 100
Sm@@ 100
WC 100
Yun@@ 100
adj@@ 100
cs 100
enna 100
glob@@ 100
here@@ 100
internation@@ 100
jer@@ 100
ld 100
tica 100
tier 100
top@@ 100
uru 100
vina 100
倌 100
嘌@@ 100
布林@@ 100
疲 100
箔@@ 100
糯@@ 100
缚 100
膊@@ 100
讳@@ 100
霭 100
Cs 100
aser 100
cial 100
ener@@ 100
illi@@ 100
ily 100
spo@@ 100
岖@@ 100
搽 100
淳@@ 100
2.45 100
Board 100
Muham@@ 100
ght 100
ken@@ 100
status 100
vie@@ 100
兀 100
娱@@ 100
徙 100
撬 100
海洛@@ 100
秸 100
蒂纳 100
蜱 100
集会@@ 100
鬃 100
Hand@@ 100
IFRS 100
Slo@@ 100
ball 100
cam@@ 100
clu@@ 100
oody 100
ress 100
偕@@ 100
岐@@ 100
British 100
Lis@@ 100
Medic@@ 100
Reli@@ 100
eria 100
晾 100
砧@@ 100
绺 100
芥 100
飙 100
Education 100
Invest@@ 100
Red 100
dil@@ 100
eter 100
life 100
oran@@ 100
慵@@ 100
耶路撒@@ 100
蓖@@ 100
蝉@@ 100
钯 100
Construction 100
Mom@@ 100
Sit@@ 100
VIS@@ 100
system 100
tory 100
不移 100
吮 100
纳税@@ 100
茹 100
蜃@@ 100
诏@@ 100
铍 100
骤 100
IOM 100
NC@@ 100
Nam 100
Sant@@ 100
inv@@ 100
isco 100
侃 100
喀里多尼亚 100
氰 100
滇@@ 100
煌@@ 100
璜 100
缇 100
虔 100
诃@@ 100
钵@@ 100
Chil@@ 100
Climate 100
NAL 100
TH 100
To 100
ange 100
ging 100
gun 100
libr@@ 100
mig@@ 100
寇 100
肇事@@ 100
螨@@ 100
螳@@ 100
迪瓦 100
Ass@@ 100
Avenue 100
Moz@@ 100
nd 100
rs 100
said 100
wide 100
å 100
娟 100
寓 100
梧@@ 100
混凝@@ 100
漉 100
牦@@ 100
蕉@@ 100
锄 100
Wong 100
erra 100
other 100
pop@@ 100
tam@@ 100
tical 100
噼@@ 100
孰 100
愚 100
裘 100
踱 100
醺 100
ｔ 100
Indi@@ 100
Kennedy 100
Paulo 100
ana@@ 100
inde@@ 100
sing 100
thal 100
舀 100
苇@@ 100
辰@@ 100
ｓ 100
ARD 100
BY 100
Club 100
IPCC 100
Iran 100
WIPO 100
amoun@@ 100
arm 100
bey@@ 100
feedback 100
fr@@ 100
hil@@ 100
mal 100
part@@ 100
side 100
sum 100
tional 100
別 100
桉@@ 100
楂 100
炯 100
煅@@ 100
缥@@ 100
讬 100
霄 100
 100
Ｆ 100
Aar@@ 100
Anti@@ 100
Beijing 100
Flor@@ 100
Long 100
Ox@@ 100
hold 100
kil@@ 100
lif@@ 100
smo@@ 100
▪ 100
交道 100
唷 100
埃塞@@ 100
杞@@ 100
腮 100
髁 100
McCain 100
dev@@ 100
fif@@ 100
gal@@ 100
oy@@ 100
posi@@ 100
务部 100
戾 100
约法 100
荪 100
镭 100
鹃 100
ECO@@ 100
IES 100
Labour 100
cou@@ 100
default 100
hell 100
shan 100
岑 100
箫 100
葆 100
铣 100
镕@@ 100
阱 100
Gener@@ 100
Roo@@ 100
TER@@ 100
gon 100
worth 100
yet 100
揩 100
瞟 100
祗 100
蝇@@ 100
襄@@ 100
ESCR 100
Roman 100
Tok@@ 100
UNE@@ 100
case 100
date 100
place 100
册子 100
口头@@ 100
嗖@@ 100
栈@@ 100
湘 100
裴@@ 100
赝@@ 100
龋@@ 100
Chall@@ 100
Doc@@ 100
Post@@ 100
Sr@@ 100
atu 100
obs 100
É 100
⑻ 100
匡@@ 100
呢@@ 100
斩 100
珑 100
缦 100
芋@@ 100
锲@@ 100
马达加@@ 100
Bureau 100
For 100
Indu@@ 100
aliz@@ 100
gic 100
ius 100
pir@@ 100
rene 100
stal 100
vere@@ 100
呗 100
孜 100
幂 100
浑 100
疽@@ 100
癞@@ 100
Fas@@ 100
Peace 100
Poly@@ 100
Price 100
YP 100
anti 100
mus@@ 100
tian 100
娓@@ 100
疥@@ 100
皎@@ 100
瞬 100
蒋 100
镐 100
Main@@ 100
bell 100
bon 100
eds 100
itor 100
jum@@ 100
nor 100
pra@@ 100
tain 100
uman 100
傢 100
列支敦士@@ 100
姚 100
矶 100
耷@@ 100
邱 100
铋 100
骼@@ 100
AO 100
HF 100
Tin 100
gues 100
isk 100
ject 100
les@@ 100
media 100
oria 100
杂项@@ 100
FOR@@ 100
Ibra@@ 100
Western 100
demo@@ 100
m2 100
嫂@@ 100
峋 100
嶙@@ 100
弩@@ 100
徨 100
楞 100
沁@@ 100
漉@@ 100
砼 100
糖尿@@ 100
胰 100
醺@@ 100
釜 100
Smart 100
ater 100
chin@@ 100
gui@@ 100
gy 100
lot@@ 100
new@@ 100
夥 100
嬗@@ 100
擘 100
磊 100
祁@@ 100
莹@@ 100
锗 100
Man 100
Over@@ 100
Paper 100
Viol@@ 100
Work 100
board 100
proc@@ 100
race 100
table 100
third 100
watch 100
加共和国 100
呎 100
娶@@ 100
徕 100
氓@@ 100
炬 100
疱 100
硂 100
诧 100
鳌 100
龚@@ 100
Black 100
Investments 100
POL@@ 100
Regional 100
UT 100
Vir@@ 100
aine 100
inc@@ 100
lement 100
oline 100
plan@@ 100
vy 100
怅 100
捎@@ 100
烙 100
膈 100
遁@@ 100
首脑@@ 100
鲈@@ 100
Administration 100
Brig@@ 100
Broad@@ 100
Building 100
Export 100
GAT@@ 100
Nev@@ 100
ador 100
away 100
bay 100
bot@@ 100
etr@@ 100
sb 100
yana 100
俩@@ 100
咔@@ 100
孱@@ 100
挎@@ 100
搓@@ 100
缈 100
菁 100
蜀@@ 100
Access 100
Deb@@ 100
List 100
Pak@@ 100
abe@@ 100
fat@@ 100
indi@@ 100
main 100
ove 100
ping 100
stor@@ 100
thing 100
亘@@ 100
伙人 100
分辨@@ 100
巳 100
眺 100
镓 100
Clo@@ 100
Home 100
Jak@@ 100
Lima 100
Prince 100
bra 100
exi@@ 100
rat@@ 100
under 100
嚎 100
寇@@ 100
综 100
缔 100
遨@@ 100
酊@@ 100
Add@@ 100
Dak@@ 100
GRA@@ 100
Lat@@ 100
ODA 100
Respon@@ 100
bas 100
bir@@ 100
may 100
pro 100
pur 100
que@@ 100
service 100
sons 100
stry 100
憋 100
持久@@ 100
棺 100
毛里塔@@ 100
泣@@ 100
脖@@ 100
薮 100
闰@@ 100
阪@@ 100
Medi@@ 100
She 100
abor@@ 100
led@@ 100
lice 100
ness 100
part 100
rul@@ 100
咧 100
帑 100
樱 100
樵@@ 100
苹 100
蛆 100
逞@@ 100
靼 100
韶@@ 100
鲭 100
＠ 100
Ad 100
Day 100
Government 100
Oxford 100
VER@@ 100
Wu 100
ches 100
clo@@ 100
desk 100
lor 100
phy 100
point 100
刹 100
匝@@ 100
唑@@ 100
徜@@ 100
狎@@ 100
砺 100
谑 100
鲁特 100
Asian 100
Mem@@ 100
Spi@@ 100
Tran@@ 100
events 100
fil@@ 100
fri@@ 100
idal 100
oe 100
pel@@ 100
tain@@ 100
坍 100
姗 100
搡 100
沂@@ 100
磊@@ 100
磡 100
蚝 100
鳌@@ 100
Criminal 100
Dig@@ 100
Grant 100
Main 100
Sym@@ 100
atory 100
ght@@ 100
ides 100
庐@@ 100
沛@@ 100
篓 100
阄 100
Chinese 100
Fir@@ 100
HCH 100
Inno@@ 100
SER@@ 100
Stre@@ 100
Times 100
boo@@ 100
but@@ 100
contr@@ 100
fel@@ 100
mon 100
sive 100
west 100
免权 100
匈@@ 100
坩@@ 100
悯@@ 100
惆@@ 100
所罗门@@ 100
桡@@ 100
汰@@ 100
绞 100
蛀 100
醌 100
铌 100
铠@@ 100
Crime 100
Scho@@ 100
Transnational 100
cro@@ 100
fal@@ 100
online 100
tre 100
udi 100
ved 100
大马@@ 100
挞 100
汝 100
芩 100
蚤@@ 100
蜇 100
迴 100
雯 100
abo@@ 100
achs 100
eme@@ 100
ful 100
good 100
log 100
pin@@ 100
prom@@ 100
range 100
site 100
tis@@ 100
zin@@ 100
廖 100
泾@@ 100
理所@@ 100
筐@@ 100
蛾@@ 100
蹶@@ 100
马绍@@ 100
2006@@ 100
Buil@@ 100
Corpor@@ 100
Econom@@ 100
ific@@ 100
kit 100
咚 100
庶 100
煦 100
罂@@ 100
PACE 100
UNCCD 100
concerning 100
cot@@ 100
dem 100
fund 100
saying 100
tiz@@ 100
之急 100
处死刑 100
孟 100
彪@@ 100
掐 100
摞 100
波罗的@@ 100
糜 100
肽@@ 100
Economy 100
Emer@@ 100
Real 100
So 100
Well 100
bridge 100
help 100
lands 100
reli@@ 100
rit 100
social 100
trade 100
恺 100
抯 100
波罗@@ 100
海盗@@ 100
淅@@ 100
爹@@ 100
琅 100
祟@@ 100
荆 100
钍 100
锇 100
霞@@ 100
Jackson 100
King@@ 100
Mexico 100
Pan 100
Spr@@ 100
change 100
eth 100
iter@@ 100
kers 100
organ@@ 100
sor 100
usti@@ 100
vor@@ 100
√ 100
刍@@ 100
埚 100
札 100
痂 100
瘁 100
砥@@ 100
羯 100
說 100
践 100
跺 100
Enterprise 100
High 100
Industry 100
LEG 100
Trin@@ 100
Tw@@ 100
WM@@ 100
cap 100
ced 100
eye 100
here 100
ital 100
ith@@ 100
mani@@ 100
ting@@ 100
啁@@ 100
揣 100
桁 100
榕@@ 100
狒 100
蒲 100
赂@@ 100
赈 100
酩@@ 100
铤@@ 100
阜@@ 100
Annex 100
Guid@@ 100
Tang 100
dum 100
each 100
nic@@ 100
sty@@ 100
tern 100
Ø 100
卟 100
垩@@ 100
悼 100
斯德哥尔@@ 100
理事@@ 100
谆@@ 100
门户@@ 100
飙@@ 100
Bom@@ 100
Guar@@ 100
MIC@@ 100
OE@@ 100
Regi@@ 100
agre@@ 100
cat 100
isc@@ 100
ob 100
works 100
巡 100
殓 100
氦@@ 100
相比@@ 100
赅 100
鹳 100
Alliance 100
Blue 100
Room 100
adm@@ 100
bag 100
hem@@ 100
lear@@ 100
velop@@ 100
岬 100
町 100
痔@@ 100
茴@@ 100
莞@@ 100
虞@@ 100
蚌 100
赫勒 100
Joint 100
Palace 100
Relations 100
Sami 100
Technologies 100
add 100
bab@@ 100
bes 100
business 100
dence 100
fur@@ 100
occ@@ 100
onal 100
恕@@ 100
捶@@ 100
掂@@ 100
杳@@ 100
洱@@ 100
绽 100
辐 100
郡@@ 100
颞 100
馀@@ 100
Aud@@ 100
Australia 100
Sof@@ 100
acts 100
export 100
gent 100
vian 100
xi 100
凰@@ 100
尧 100
徉 100
捻@@ 100
淖 100
睾 100
砝@@ 100
讧 100
Vlad@@ 100
Water@@ 100
Yor@@ 100
bodies 100
inst@@ 100
Ⅰ 100
儆@@ 100
兀@@ 100
噗 100
嚓 100
埔@@ 100
殷 100
氙@@ 100
滔 100
狒@@ 100
苄 100
鹏@@ 100
Appl@@ 100
Bang@@ 100
Bonn 100
Jacob 100
Manu@@ 100
down 100
emer@@ 100
fam@@ 100
iter 100
leum 100
lion 100
take 100
ute 100
vil 100
啡@@ 100
因果@@ 100
惭 100
柑 100
柚 100
瑶@@ 100
皑 100
Commercial 100
Countries 100
Division 100
Ever@@ 100
NEPAD 100
Puerto 100
Stock 100
did@@ 100
gou 100
mers 100
tie 100
turi 100
uck@@ 100
а 100
咦 100
暨@@ 100
粟 100
绰 100
赣@@ 100
连串 100
Bret@@ 100
Document 100
Fore@@ 100
IU 100
River 100
emin@@ 100
fan@@ 100
hol 100
oh 100
尓 100
峨@@ 100
愣@@ 100
槐 100
炊 100
燊 100
犷 100
豺@@ 100
＞ 100
Authority 100
Change 100
Child 100
Han 100
It@@ 100
Quar@@ 100
Scotland 100
Water 100
Willi@@ 100
abeth 100
ental 100
ever 100
fer@@ 100
gur@@ 100
kara 100
ops 100
pan 100
pul@@ 100
国际海事@@ 100
国际贸易@@ 100
堑 100
暇@@ 100
狈@@ 100
矗 100
祇 100
秉 100
筏@@ 100
肓 100
邯@@ 100
锣 100
Ｘ 100
ｒ 100
Note 100
core 100
eg 100
imir 100
information 100
not@@ 100
tex 100
tter 100
​ 100
啧@@ 100
存者 100
戚 100
杞 100
膊 100
萼@@ 100
蟒@@ 100
诚地 100
诟@@ 100
趸 100
辫 100
鳖 100
Bangladesh 100
Democratic 100
Federation 100
Lord 100
Offic@@ 100
Salvador 100
atic 100
aut@@ 100
list 100
peace 100
top 100
克什@@ 100
席会议 100
彦@@ 100
撅 100
蟒 100
Port 100
Shanghai 100
Tit@@ 100
global 100
hand 100
sixth 100
于此 100
喵 100
宕 100
戎 100
铿@@ 100
髂 100
Congo 100
Data 100
Lin 100
arma@@ 100
atis@@ 100
gli@@ 100
head 100
ked 100
know 100
los@@ 100
rid 100
ş 100
博茨@@ 100
富尔 100
尊重@@ 100
峨 100
痫@@ 100
颧@@ 100
鹭@@ 100
Abdu@@ 100
Comp@@ 100
FAR@@ 100
Georgi@@ 100
Indigenous 100
MY@@ 100
UNFPA 100
issues 100
land@@ 100
rea 100
剁 100
吆@@ 100
噎 100
幂@@ 100
惺 100
涣@@ 100
腈@@ 100
芭 100
茧@@ 100
這@@ 100
铂@@ 100
﹒ 100
2.30 100
Cay@@ 100
Good 100
Lic@@ 100
MER@@ 100
Millennium 100
NAP 100
Pit@@ 100
Private 100
Secretariat 100
bio@@ 100
ills 100
project 100
⑦ 100
亥 100
佝@@ 100
当事@@ 100
摹@@ 100
璇 100
眯 100
靛@@ 100
颠 100
饯 100
饺 100
DDT 100
IDS 100
Men 100
Model 100
Mutual 100
Overseas 100
Putin 100
health 100
library 100
meeting 100
mend@@ 100
sav@@ 100
state 100
urs 100
力支持 100
叟 100
國 100
坂@@ 100
榄@@ 100
涧 100
特立@@ 100
讣@@ 100
铵@@ 100
鹃@@ 100
麸 100
child 100
def@@ 100
ete 100
fic@@ 100
inter 100
long 100
ological 100
position 100
shit 100
ssi@@ 100
tered 100
under@@ 100
一览@@ 100
伱 100
摺@@ 100
時@@ 100
磋 100
籁 100
芮 100
莪 100
镊@@ 100
镌@@ 100
IOS 100
Kig@@ 100
Kuwait 100
NAT@@ 100
Uz@@ 100
ells 100
elo@@ 100
ems 100
ime 100
iry 100
iso@@ 100
kes@@ 100
sortium 100
佔 100
宙 100
沐 100
灿 100
炫 100
瑶 100
钧 100
隋@@ 100
魅 100
124@@ 100
Germany 100
Great 100
Tele@@ 100
arran@@ 100
hael 100
quick@@ 100
umb@@ 100
vens 100
wave 100
唛 100
懑 100
榉 100
潍@@ 100
脲@@ 100
蜥 100
辕@@ 100
＜ 100
Finan@@ 100
Special 100
Suc@@ 100
cape 100
ency 100
ilian 100
itch 100
loo@@ 100
lot 100
omin@@ 100
vac@@ 100
won@@ 100
ā 100
孚@@ 100
掮@@ 100
淤 100
胥 100
腱@@ 100
蓟 100
褓 100
铰 100
髌@@ 100
鳗 100
Autom@@ 100
Now 100
Sustainable 100
cle 100
others 100
shu@@ 100
syn@@ 100
ė 100
忒@@ 100
戋 100
擞 100
泯@@ 100
痼@@ 100
痿 100
裱 100
跺@@ 100
饵@@ 100
Cape 100
Wan 100
ils 100
lip 100
mood 100
pur@@ 100
tall 100
word 100
對 100
庐 100
毡@@ 100
汛@@ 100
沽 100
臼@@ 100
觐 100
阎@@ 100
Contracting 100
Officer 100
Son 100
cury 100
stam@@ 100
ying 100
卢西亚 100
啤 100
娄@@ 100
布隆@@ 100
弋 100
氚 100
沽@@ 100
穦 100
筲@@ 100
胍 100
芮@@ 100
谀@@ 100
間 100
Agr@@ 100
Americ@@ 100
Cambridge 100
Community 100
England 100
How 100
Lu 100
Miss 100
anch@@ 100
mine 100
wards 100
佤@@ 100
印度尼@@ 100
嫉 100
岱 100
璧 100
葆@@ 100
蜈@@ 100
诮 100
Can 100
Hong@@ 100
Mai 100
cas@@ 100
dom 100
done@@ 100
eries 100
files 100
force 100
import 100
mental 100
note 100
office 100
sea 100
yang 100
嫣@@ 100
浃@@ 100
箍@@ 100
膛@@ 100
蓦@@ 100
鳟 100
Columbia 100
Go 100
Inv@@ 100
LAC 100
OHCHR 100
Universal 100
bean 100
education 100
fro@@ 100
ones@@ 100
onna 100
pil@@ 100
town 100
tual 100
đ 100
不用@@ 100
实现@@ 100
新几内亚 100
焕 100
皑@@ 100
眶@@ 100
纂@@ 100
臊 100
萸 100
訇 100
鞘@@ 100
Eastern 100
Initiative 100
Pear@@ 100
Series 100
alth 100
big 100
bura 100
indu@@ 100
mas@@ 100
sex 100
tom 100
刈 100
嗎 100
槲@@ 100
胄 100
舶@@ 100
螈 100
鲑 100
Alg@@ 100
Bio@@ 100
Cust@@ 100
Jin@@ 100
Moham@@ 100
Nin@@ 100
PER@@ 100
Peoples 100
Plan 100
Ps 100
Why 100
YO@@ 100
eing 100
ende@@ 100
ept@@ 100
gay 100
hit 100
iel 100
less 100
rant 100
steel 100
uri@@ 100
wing 100
偎@@ 100
堕 100
妍 100
氙 100
沁 100
沓@@ 100
瘸 100
蚣 100
襁@@ 100
遽 100
阿塞@@ 100
麒@@ 100
Commun@@ 100
Harvard 100
IMO 100
ITU 100
Jordan 100
Premi@@ 100
aires 100
bio 100
bour@@ 100
fifth 100
pic@@ 100
pping 100
rain 100
star@@ 100
tty 100
亘 100
宕@@ 100
扈 100
波多@@ 100
烽@@ 100
碴 100
绮@@ 100
联合共和国 100
蛤 100
贲@@ 100
ｍ 100
Cooperation 100
FOR 100
Israel 100
Manager 100
Multi@@ 100
Pier@@ 100
Tai@@ 100
adem@@ 100
layer 100
live 100
phan@@ 100
publ@@ 100
sab@@ 100
sted 100
there 100
vations 100
viol@@ 100
xim@@ 100
yers 100
塞舌@@ 100
砧 100
聚力 100
胭@@ 100
脆弱@@ 100
Fire@@ 100
Gene@@ 100
Kingdom 100
Poor 100
Russian 100
Sierra 100
TED 100
account 100
ads 100
code 100
compl@@ 100
dong 100
light 100
mission 100
parti@@ 100
plus 100
tube 100
∙ 100
妳@@ 100
搀 100
枷 100
牍 100
硝 100
羰@@ 100
联盟@@ 100
胛@@ 100
骶 100
CISG 100
Documents 100
Reduction 100
SID@@ 100
Trafficking 100
arbit@@ 100
istan 100
jet 100
mee@@ 100
oods 100
pin 100
pli@@ 100
sing@@ 100
urban@@ 100
┱ 100
唉@@ 100
噱@@ 100
戎@@ 100
燎@@ 100
禀 100
菸 100
部长@@ 100
鍊 100
韭@@ 100
鹊@@ 100
鹬 100
AMI@@ 100
Madrid 100
NAM 100
Workers 100
dian 100
ego@@ 100
gender 100
support 100
傍 100
加达 100
咙@@ 100
囗 100
氩@@ 100
汰 100
睿 100
阈 100
Arch@@ 100
Control 100
Proce@@ 100
Ref@@ 100
Sla@@ 100
Tex@@ 100
between 100
cep@@ 100
cin@@ 100
cure 100
ede 100
nia 100
nit@@ 100
ples 100
thu@@ 100
user 100
⑼ 100
上万 100
乓 100
佰@@ 100
叽 100
栀@@ 100
淬 100
萌 100
蹉@@ 100
钹 100
马耳@@ 100
 100
Banking 100
Enter@@ 100
Kash@@ 100
Proc@@ 100
Solomon 100
deb@@ 100
justice 100
lake 100
orial 100
pol 100
undi 100
what 100
⑽ 100
俯 100
偕 100
囿@@ 100
巍 100
拉脱@@ 100
梵 100
灸@@ 100
碉@@ 100
竺@@ 100
臻@@ 100
蒽@@ 100
蝗 100
褂 100
雏 100
CESCR 100
Labor@@ 100
Open 100
Phar@@ 100
Publications 100
agon@@ 100
periodic 100
stal@@ 100
think 100
ump 100
丶 100
伎 100
倩@@ 100
炜 100
莓@@ 100
铟 100
Boli@@ 100
Jack@@ 100
Ocean 100
Phy@@ 100
ator@@ 100
bru@@ 100
fem@@ 100
gad@@ 100
jun@@ 100
pas@@ 100
pd@@ 100
portal 100
ries 100
shall 100
喹@@ 100
拄@@ 100
螯 100
赭@@ 100
遁 100
顽 100
龊 100
龌@@ 100
Commerce 100
Gender 100
Refugees 100
Statistics 100
Treaty 100
ecu@@ 100
environment 100
ize 100
mill@@ 100
oman 100
put 100
ried 100
tru@@ 100
two 100
Ñ 100
娄 100
嵴 100
楔 100
澍 100
猷 100
瓦努阿@@ 100
矾 100
麾@@ 100
ｌ 100
ｐ 100
Back@@ 100
Hav@@ 100
Partnership 100
See 100
Solid@@ 100
Steph@@ 100
UNF@@ 100
airy 100
avo@@ 100
eless 100
ept 100
mind 100
missions 100
rane 100
sty 100
tax@@ 100
when 100
ğ 100
ㄓ 100
匾 100
擒 100
秧 100
約 100
绦@@ 100
胫 100
蝮@@ 100
飕 100
 100
＃ 100
CCA 100
Hiz@@ 100
Rs 100
adv@@ 100
asse 100
ather 100
bom@@ 100
dum@@ 100
eman@@ 100
ghts 100
hair 100
kn@@ 100
lab@@ 100
nest 100
they 100
was@@ 100
为重要 100
岑@@ 100
弹道@@ 100
玄 100
稼@@ 100
绉 100
隧 100
Os 100
Total 100
UNCT 100
Youth 100
acker 100
arch@@ 100
email 100
ential 100
eve 100
inet 100
ishing 100
lac@@ 100
pal@@ 100
person@@ 100
phen@@ 100
play 100
pot 100
sional 100
tle 100
夙@@ 100
恃 100
扦@@ 100
暄 100
柬@@ 100
淑 100
畴 100
磕 100
跄@@ 100
钕 100
鹉@@ 100
＄ 100
Fem@@ 100
Lay@@ 100
Love 100
Ping 100
alization 100
berry 100
bid 100
hop 100
like 100
sten@@ 100
剁@@ 100
椿 100
璶 100
痔 100
讹 100
钼@@ 100
鲶@@ 100
 100
﹚ 100
Aid 100
Analy@@ 100
Argentina 100
Develop@@ 100
Kiv@@ 100
Nig@@ 100
Products 100
Qi@@ 100
act@@ 100
alan 100
bic@@ 100
centr@@ 100
countries 100
dex 100
invest 100
once 100
rom@@ 100
speci@@ 100
呷 100
憨@@ 100
淮 100
珐@@ 100
衙@@ 100
迳@@ 100
骶@@ 100
麟@@ 100
Fair 100
Free@@ 100
GNSS 100
Off@@ 100
Parties 100
Singapore 100
atis 100
bly 100
moun@@ 100
pse 100
pun@@ 100
qual@@ 100
their 100
哔 100
擂@@ 100
蛰@@ 100
诘 100
Austria 100
Bar 100
Chap@@ 100
ICT@@ 100
Ki 100
Nature 100
Palais 100
Sri 100
Work@@ 100
aker 100
amin 100
geo@@ 100
gn 100
group 100
his 100
inhe@@ 100
iring 100
kina 100
last 100
mot@@ 100
protection 100
tail 100
them 100
vention 100
不负@@ 100
哌 100
掬 100
狰@@ 100
矾@@ 100
蚜 100
袅 100
髋 100
鬈 100
Is 100
Navi@@ 100
Sic@@ 100
Spring 100
Valley 100
ble@@ 100
cent@@ 100
cra@@ 100
dic 100
maj@@ 100
name 100
outi 100
pm 100
quality 100
soo@@ 100
tes@@ 100
侄 100
圄 100
捶 100
撷@@ 100
救护@@ 100
泮 100
涮 100
璃 100
皓 100
篙 100
识字@@ 100
谛@@ 100
龚 100
 100
Civil 100
DL@@ 100
SUR 100
ames 100
apo@@ 100
cell@@ 100
diction 100
economic 100
elles 100
ming 100
people 100
stru@@ 100
ubl@@ 100
were 100
Ü 100
ⅹ 100
写信@@ 100
呀@@ 100
琛 100
禄@@ 100
藜@@ 100
黍 100
Camp 100
Dutch 100
Ouag@@ 100
Prof@@ 100
Section 100
Wu@@ 100
band 100
bol 100
foc@@ 100
gram 100
legal 100
order 100
organ 100
paper 100
power 100
section 100
stock 100
tom@@ 100
ules 100
ural 100
ı 100
俺@@ 100
啰@@ 100
怦 100
懵@@ 100
抡 100
撵 100
擤 100
汾@@ 100
熠 100
狞 100
痍 100
蒡 100
蝽 100
飕@@ 100
鲷 100
黔@@ 100
﹖ 100
Digital 100
Id 100
Ira@@ 100
Northern 100
Pers@@ 100
Rumay@@ 100
Tali@@ 100
adou@@ 100
bers 100
eland 100
enza 100
green 100
shar@@ 100
tings 100
too 100
р 100
傣@@ 100
克力 100
囹@@ 100
殒@@ 100
殴@@ 100
比性 100
焓 100
羌@@ 100
蚴 100
袂 100
馥@@ 100
Continental 100
President 100
SOC 100
bran@@ 100
bush 100
face 100
fran@@ 100
glo@@ 100
pris@@ 100
ぐ 100
凛 100
匈 100
址@@ 100
墩@@ 100
硖 100
绶@@ 100
艮@@ 100
虫剂 100
蝾@@ 100
遛 100
鑫@@ 100
镂@@ 100
ｈ 100
High@@ 100
Tren@@ 100
been 100
electoral 100
even 100
ths 100
Ç 100
е 100
◇ 100
佑@@ 100
佻 100
冥 100
啕@@ 100
時 100
曳@@ 100
汐@@ 100
皓@@ 100
硷 100
螟 100
還@@ 100
酊 100
骁@@ 100
Bagh@@ 100
Chile 100
Introduction 100
Sci@@ 100
Shen@@ 100
research 100
sali@@ 100
vari@@ 100
xy 100
俪 100
加迪@@ 100
愆 100
戍@@ 100
朊 100
柩 100
氖 100
犸@@ 100
百慕@@ 100
纰@@ 100
蒺@@ 100
蚌@@ 100
蜀 100
蝓 100
Force 100
Islamic 100
Maritime 100
Organized 100
Roma 100
bles 100
hic@@ 100
ium 100
lab 100
mod@@ 100
omen 100
sters 100
urin@@ 100
掴 100
斟 100
濑@@ 100
盹@@ 100
眸@@ 100
簌@@ 100
耆@@ 100
舐 100
蛞@@ 100
衅 100
镎 100
飒@@ 100
﹙ 100
Belgium 100
Clinton 100
Cross 100
Discrimination 100
Fro@@ 100
Future 100
Harb@@ 100
Mater@@ 100
Panel 100
Rome 100
Self 100
athle@@ 100
aud@@ 100
dium 100
ean@@ 100
human@@ 100
nom@@ 100
sth 100
syl@@ 100
uan 100
vers 100
zen 100
倏@@ 100
倡 100
坤@@ 100
娴 100
我爱@@ 100
氪 100
燧@@ 100
脯@@ 100
舔@@ 100
钧@@ 100
陇@@ 100
鹕 100
黠 100
CCC 100
Egypt 100
Executive 100
Independent 100
Moon 100
care 100
cle@@ 100
drag 100
feed 100
fur 100
hang 100
mir 100
night 100
ologi@@ 100
real 100
rop@@ 100
special 100
xi@@ 100
呦 100
咩 100
喱@@ 100
壬@@ 100
憩@@ 100
捍@@ 100
掰 100
桀@@ 100
棗 100
沒 100
癸@@ 100
碞 100
谴@@ 100
閒 100
Amer@@ 100
Chel@@ 100
Cuba 100
Framework 100
Lake 100
Tribunal 100
coa 100
comple@@ 100
gri@@ 100
ission 100
nin@@ 100
pel 100
ò 100
劵 100
噎@@ 100
意识@@ 100
簌 100
蕈 100
蚱 100
铑 100
镭@@ 100
隽@@ 100
ACA@@ 100
Assessment 100
Be 100
Import 100
Radio 100
Sciences 100
Source 100
Suppress 100
Torture 100
Tour@@ 100
Transport 100
UP 100
ance@@ 100
axy 100
bli@@ 100
craft 100
did 100
dish 100
doesn 100
echn@@ 100
ession 100
fec@@ 100
prac@@ 100
rd 100
sales 100
tability 100
Τ 100
呸 100
捲 100
洪都@@ 100
莠@@ 100
讓 100
诛@@ 100
谙@@ 100
驭@@ 100
鹈@@ 100
 100
Article 100
Especially 100
IAL 100
Island 100
Mars 100
Prevent 100
TEC@@ 100
Zhou 100
arti@@ 100
atri@@ 100
available 100
dus 100
hot 100
ourg 100
secretariat 100
services 100
vul@@ 100
with@@ 100
咎@@ 100
哧 100
嗬 100
姣 100
庚@@ 100
彪 100
悚 100
晷 100
浜 100
滂@@ 100
笵 100
芷 100
荚@@ 100
莘@@ 100
莱坞 100
踵 100
锉 100
鲈 100
Chief 100
Estate 100
Lucia 100
Marshall 100
Organisation 100
Ozone 100
Punish 100
Reports 100
Survey 100
allow 100
asser@@ 100
head@@ 100
modi@@ 100
money 100
mur@@ 100
pac@@ 100
roll 100
supplementing 100
tell@@ 100
thor@@ 100
try@@ 100
vill@@ 100
咚@@ 100
垣@@ 100
彀 100
捂 100
掀 100
炙 100
瓮 100
碇 100
磐 100
蜷 100
 100
Aires 100
If 100
Market 100
My 100
Olymp@@ 100
Organiz@@ 100
Speci@@ 100
They 100
Travel 100
conven@@ 100
gene 100
ids 100
items 100
roc@@ 100
text 100
year 100
佘@@ 100
叵@@ 100
圣地@@ 100
婷@@ 100
弩 100
抠 100
畦 100
禁毒@@ 100
羿 100
Academy 100
Environ@@ 100
Free 100
PRK 100
Third 100
Yi 100
accreditation 100
bac@@ 100
body 100
eas@@ 100
elessness 100
hall@@ 100
high 100
lag 100
lea@@ 100
liz@@ 100
par 100
post 100
quet 100
sury 100
tware 100
vice 100
where 100
仟 100
埗 100
婀@@ 100
撂@@ 100
杈 100
漱 100
澄 100
犀 100
甬@@ 100
癸 100
科特@@ 100
蓟@@ 100
蔑@@ 100
蠡 100
該 100
轼 100
逍遥@@ 100
锵 100
闆 100
馋 100
鬓@@ 100
 100
Forest 100
Mex@@ 100
Moscow 100
also 100
ashed 100
ball@@ 100
batch 100
hex@@ 100
oke 100
page 100
pages 100
pay@@ 100
protocol 100
吋 100
娑 100
怆 100
怔 100
毙@@ 100
璐 100
耦@@ 100
苄@@ 100
靓 100
Big 100
California 100
Cred@@ 100
End 100
Friends 100
LEX 100
Study 100
Two 100
food 100
ises 100
istic 100
lou@@ 100
map 100
mem@@ 100
shell 100
shot 100
thers 100
thri@@ 100
î 100
出发@@ 100
剿@@ 100
喇 100
嗑 100
壑@@ 100
嫔 100
小小@@ 100
揄 100
桡 100
榭@@ 100
淇 100
炳 100
焖 100
犄@@ 100
葩 100
蛭 100
镧 100
隽 100
 100
CIS 100
Chur@@ 100
Colombia 100
Comple@@ 100
Educ@@ 100
Guidelines 100
ICSC 100
Less@@ 100
Master 100
Program@@ 100
Protec@@ 100
SEC@@ 100
SOM 100
Scientific 100
Texas 100
Umoja 100
active 100
after 100
ense 100
ensu@@ 100
hoc 100
mans 100
phone 100
т 100
发挥@@ 100
好了 100
寐 100
张正义 100
徳 100
怅@@ 100
烊 100
竣 100
筷 100
铧 100
ATION 100
Afric@@ 100
Buenos 100
Chr@@ 100
Lus@@ 100
Ming 100
Technical 100
UNFCCC 100
activities 100
aged 100
ante@@ 100
edi@@ 100
erals 100
fy 100
give 100
liber@@ 100
nee@@ 100
pit@@ 100
ring 100
ures 100
噜@@ 100
垢@@ 100
捋 100
教科@@ 100
昴 100
晌 100
桓 100
榫 100
碲 100
碾 100
秩 100
蕨 100
虏@@ 100
蜊 100
衆 100
襄 100
飚 100
Abid@@ 100
Growth 100
POS 100
Works 100
adic 100
ask 100
atim 100
kid@@ 100
pus 100
reless 100
safe@@ 100
ward@@ 100
о 100
从来@@ 100
伺 100
协商@@ 100
啷 100
噶 100
杵 100
殆 100
發@@ 100
莨@@ 100
袁 100
轿 100
鳐 100
Meeting 100
On 100
RAL 100
Second 100
Tong 100
Working 100
acher 100
building 100
dir@@ 100
outh 100
rot@@ 100
some 100
test 100
ure@@ 100
version 100
央 100
奂 100
姣@@ 100
婢 100
揶@@ 100
柞@@ 100
筱@@ 100
耙@@ 100
苯丙@@ 100
螅 100
迪西 100
铒 100
颏 100
麂@@ 100
 100
﹡ 100
Euro 100
Kore@@ 100
Lead@@ 100
Little 100
Non 100
Organ@@ 100
Primary 100
[...]
