<pad> 100
<eos> 100
<unk> 100
the 100
of 100
, 100
. 100
and 100
to 100
in 100
a 100
for 100
@-@ 100
on 100
that 100
) 100
( 100
is 100
with 100
by 100
as 100
be 100
/ 100
it 100
at 100
was 100
are 100
&quot; 100
its 100
&apos;s 100
: 100
or 100
from 100
; 100
this 100
an 100
have 100
not 100
I 100
United 100
has 100
their 100
which 100
all 100
Nations 100
you 100
will 100
Committee 100
also 100
had 100
been 100
General 100
he 100
were 100
international 100
other 100
States 100
we 100
should 100
development 100
would 100
they 100
his 100
countries 100
but 100
rights 100
report 100
- 100
such 100
one 100
Council 100
more 100
under 100
can 100
work 100
women 100
1 100
human 100
there 100
including 100
information 100
support 100
national 100
resolution 100
out 100
into 100
State 100
? 100
up 100
new 100
these 100
made 100
if 100
Assembly 100
no 100
2 100
time 100
through 100
implementation 100
some 100
people 100
those 100
well 100
system 100
between 100
any 100
so 100
session 100
Government 100
activities 100
A 100
Secretary 100
3 100
who 100
may 100
per 100
against 100
my 100
about 100
Convention 100
two 100
country 100
when 100
Commission 100
our 100
law 100
than 100
your 100
article 100
could 100
only 100
do 100
use 100
her 100
them 100
economic 100
security 100
meeting 100
measures 100
first 100
children 100
said 100
shall 100
cooperation 100
she 100
number 100
during 100
$ 100
International 100
efforts 100
programme 100
organizations 100
level 100
over 100
&apos; 100
4 100
resources 100
draft 100
financial 100
5 100
need 100
year 100
cent 100
right 100
Conference 100
Mr. 100
take 100
what 100
non 100
regional 100
years 100
process 100
must 100
social 100
provide 100
further 100
most 100
b 100
order 100
many 100
public 100
services 100
The 100
&apos;t 100
10 100
issues 100
management 100
ensure 100
Republic 100
members 100
Development 100
assistance 100
within 100
based 100
Security 100
party 100
6 100
me 100
after 100
make 100
being 100
un@@ 100
world 100
provided 100
Rights 100
while 100
paragraph 100
health 100
Group 100
developing 100
like 100
areas 100
education 100
re@@ 100
decision 100
staff 100
related 100
important 100
China 100
period 100
Office 100
programmes 100
Special 100
part 100
relevant 100
where 100
agenda 100
before 100
both 100
action 100
see 100
however 100
training 100
political 100
particular 100
held 100
how 100
policy 100
since 100
following 100
now 100
7 100
S@@ 100
review 100
legal 100
persons 100
among 100
protection 100
three 100
adopted 100
Human 100
in@@ 100
him 100
high 100
effective 100
situation 100
parties 100
very 100
taken 100
community 100
President 100
capacity 100
continue 100
way 100
item 100
used 100
December 100
each 100
8 100
peace 100
same 100
global 100
15 100
access 100
regard 100
set 100
C 100
i 100
working 100
without 100
role 100
12 100
special 100
recommendations 100
us 100
established 100
d 100
s 100
reports 100
good 100
progress 100
data 100
accordance 100
9 100
respect 100
E 100
life 100
Organization 100
present 100
e 100
30 100
technical 100
case 100
nuclear 100
11 100
2008 100
2005 100
because 100
Member 100
end 100
view 100
local 100
long 100
2006 100
place 100
full 100
gender 100
million 100
Africa 100
Programme 100
20 100
violence 100
June 100
just 100
cases 100
budget 100
necessary 100
trade 100
did 100
basis 100
Board 100
14 100
possible 100
2010 100
&#91; 100
2007 100
area 100
2009 100
institutions 100
building 100
groups 100
even 100
policies 100
increase 100
general 100
control 100
appropriate 100
needs 100
s@@ 100
then 100
2004 100
t 100
13 100
B@@ 100
upon 100
! 100
available 100
A@@ 100
specific 100
day 100
meetings 100
developed 100
field 100
&#93; 100
consideration 100
proposed 100
second 100
region 100
group 100
P@@ 100
include 100
given 100
water 100
18 100
government 100
T@@ 100
still 100
Parties 100
current 100
es 100
project 100
July 100
African 100
concerned 100
G@@ 100
-- 100
provisions 100
issue 100
World 100
2011 100
society 100
South 100
16 100
total 100
able 100
note 100
D@@ 100
National 100
term 100
change 100
military 100
L@@ 100
continued 100
o 100
future 100
er 100
F@@ 100
M@@ 100
various 100
plan 100
child 100
much 100
know 100
2003 100
account 100
S 100
framework 100
considered 100
address 100
different 100
noted 100
sector 100
promote 100
ing 100
levels 100
Social 100
required 100
2000 100
European 100
sustainable 100
particularly 100
therefore 100
importance 100
last 100
E@@ 100
2002 100
ed 100
help 100
technology 100
Court 100
k@@ 100
own 100
delegation 100
Economic 100
major 100
October 100
conflict 100
civil 100
17 100
requirements 100
September 100
Fund 100
above 100
d@@ 100
participation 100
Department 100
H@@ 100
go 100
several 100
II 100
men 100
2012 100
does 100
addition 100
operations 100
family 100
man 100
service 100
additional 100
age 100
population 100
results 100
conditions 100
projects 100
poverty 100
November 100
another 100
19 100
authorities 100
means 100
21 100
humanitarian 100
N@@ 100
submitted 100
small 100
2001 100
Secretariat 100
private 100
31 100
business 100
get 100
bodies 100
police 100
impact 100
according 100
ation 100
25 100
C@@ 100
market 100
May 100
making 100
New 100
key 100
R@@ 100
agencies 100
result 100
every 100
Law 100
o@@ 100
towards 100
.@@ 100
food 100
March 100
approach 100
document 100
land 100
al 100
Working 100
attention 100
whether 100
t@@ 100
research 100
weapons 100
K@@ 100
e@@ 100
environment 100
third 100
personnel 100
systems 100
22 100
y 100
question 100
status 100
better 100
organization 100
risk 100
Union 100
representatives 100
y@@ 100
person 100
discrimination 100
application 100
increased 100
agreed 100
Mission 100
growth 100
care 100
down 100
concern 100
24 100
member 100
ate 100
Governments 100
taking 100
statement 100
force 100
Women 100
received 100
especially 100
1999 100
domestic 100
establishment 100
improve 100
cost 100
context 100
costs 100
rule 100
give 100
23 100
fully 100
W@@ 100
resolutions 100
2013 100
January 100
April 100
study 100
monitoring 100
mandate 100
might 100
don 100
provision 100
requests 100
called 100
g@@ 100
request 100
rules 100
next 100
requested 100
concerning 100
best 100
problems 100
ting 100
reporting 100
quality 100
existing 100
five 100
rate 100
Chinese 100
consider 100
representative 100
adoption 100
less 100
c@@ 100
recent 100
comprehensive 100
back 100
environmental 100
main 100
four 100
legislation 100
come 100
great 100
free 100
large 100
table 100
ers 100
due 100
coordination 100
common 100
production 100
a@@ 100
Action 100
1998 100
% 100
terms 100
contained 100
responsibility 100
put 100
Protocol 100
Rapporteur 100
dis@@ 100
foreign 100
regarding 100
standards 100
strengthen 100
treatment 100
become 100
fact 100
justice 100
subject 100
found 100
often 100
26 100
procedures 100
funds 100
expressed 100
example 100
off 100
energy 100
included 100
Affairs 100
criminal 100
f@@ 100
governmental 100
Executive 100
already 100
5@@ 100
ts 100
de@@ 100
least 100
relating 100
implement 100
amount 100
response 100
administrative 100
27 100
post 100
mechanisms 100
space 100
together 100
challenges 100
principles 100
p@@ 100
follow 100
reported 100
P 100
significant 100
days 100
am 100
income 100
agreement 100
b@@ 100
Declaration 100
practices 100
form 100
develop 100
armed 100
provides 100
thus 100
High 100
think 100
28 100
i@@ 100
state 100
4@@ 100
America 100
analysis 100
investment 100
line 100
problem 100
performance 100
w@@ 100
en@@ 100
here 100
took 100
ted 100
too 100
school 100
yet 100
strengthening 100
providing 100
Act 100
de 100
UNDP 100
n@@ 100
Ministry 100
addressed 100
h@@ 100
assessment 100
contributions 100
power 100
decisions 100
planning 100
obligations 100
led 100
past 100
position 100
No. 100
early 100
lack 100
date 100
light 100
an@@ 100
strategy 100
entitled 100
having 100
ated 100
l@@ 100
practice 100
today 100
mission 100
decided 100
indigenous 100
old 100
actions 100
annex 100
February 100
paper 100
employment 100
section 100
cultural 100
August 100
matter 100
equipment 100
Advisory 100
al@@ 100
meet 100
regular 100
let 100
notes 100
m 100
u@@ 100
want 100
m@@ 100
around 100
effect 100
consultations 100
value 100
interest 100
inter 100
reform 100
always 100
29 100
using 100
Palestinian 100
annual 100
establish 100
O@@ 100
office 100
although 100
7@@ 100
needed 100
documents 100
low 100
others 100
victims 100
economy 100
F 100
open 100
East 100
secretariat 100
focus 100
ar@@ 100
terrorism 100
point 100
self 100
prevention 100
matters 100
on@@ 100
&apos;@@ 100
ating 100
Arab 100
disarmament 100
certain 100
body 100
knowledge 100
commitment 100
say 100
objective 100
equality 100
initiatives 100
J@@ 100
little 100
forces 100
missions 100
company 100
basic 100
Asia 100
individual 100
L.@@ 100
property 100
again 100
peacekeeping 100
statements 100
laws 100
v@@ 100
crime 100
few 100
k 100
joint 100
letter 100
living 100
responsible 100
funding 100
experience 100
clear 100
never 100
author 100
promotion 100
young 100
Israel 100
plans 100
dialogue 100
official 100
Service 100
list 100
6@@ 100
expected 100
50 100
Centre 100
please 100
serious 100
far 100
priority 100
organized 100
ch@@ 100
prevent 100
arms 100
home 100
course 100
III 100
it@@ 100
operational 100
acts 100
para 100
trafficking 100
greater 100
communication 100
until 100
money 100
To 100
D 100
achieve 100
months 100
once 100
strategic 100
reduction 100
natural 100
con@@ 100
workers 100
potential 100
evaluation 100
peoples 100
discussion 100
promoting 100
delegations 100
supported 100
principle 100
Iraq 100
sexual 100
procedure 100
recommendation 100
financing 100
changes 100
Representative 100
partners 100
higher 100
involved 100
8@@ 100
B 100
* 100
exchange 100
I@@ 100
previous 100
V@@ 100
steps 100
Central 100
u 100
recommended 100
nature 100
affected 100
l 100
forms 100
crisis 100
g 100
HIV 100
Ms. 100
carried 100
cannot 100
biennium 100
find 100
violations 100
st@@ 100
awareness 100
1997 100
purpose 100
strategies 100
60 100
Director 100
3@@ 100
er@@ 100
agreements 100
ti@@ 100
rural 100
forward 100
girls 100
1996 100
co@@ 100
approved 100
look 100
c 100
&apos;m 100
officials 100
r@@ 100
treaty 100
climate 100
currently 100
American 100
six 100
essential 100
implemented 100
facilities 100
overall 100
understanding 100
issued 100
products 100
U@@ 100
call 100
mechanism 100
limited 100
enhance 100
done 100
40 100
red 100
implementing 100
Bank 100
increasing 100
experts 100
why 100
2014 100
opportunities 100
operation 100
objectives 100
di@@ 100
im@@ 100
going 100
ability 100
Article 100
whole 100
pursuant 100
aimed 100
9@@ 100
committed 100
offices 100
communities 100
air 100
adequate 100
Division 100
behalf 100
informal 100
&apos;re 100
1994 100
medical 100
safety 100
play 100
stated 100
prepared 100
ro@@ 100
hand 100
pay 100
active 100
instruments 100
strong 100
ways 100
facilitate 100
conduct 100
ri@@ 100
benefits 100
US 100
proposals 100
evidence 100
arrangements 100
am@@ 100
below 100
media 100
th@@ 100
inter@@ 100
el@@ 100
act 100
Chairman 100
posts 100
war 100
protect 100
Europe 100
face 100
English 100
material 100
hours 100
opportunity 100
independent 100
presented 100
design 100
informed 100
si@@ 100
equal 100
1995 100
love 100
questions 100
Minister 100
court 100
functions 100
Commissioner 100
proposal 100
Covenant 100
individuals 100
ad@@ 100
ensuring 100
processes 100
ant 100
capital 100
close 100
AIDS 100
real 100
resource 100
at@@ 100
goals 100
guidelines 100
administration 100
assist 100
Treaty 100
remain 100
conducted 100
G 100
Panel 100
labour 100
bring 100
Japan 100
students 100
reduce 100
Permanent 100
or@@ 100
wish 100
items 100
effects 100
Tribunal 100
poor 100
positive 100
away 100
exercise 100
recommends 100
Democratic 100
transfer 100
People 100
team 100
aspects 100
methods 100
allow 100
provisional 100
structure 100
primary 100
Millennium 100
internal 100
authority 100
ations 100
remains 100
method 100
freedom 100
direct 100
York 100
communications 100
reference 100
negotiations 100
Russian 100
articles 100
integrated 100
contribute 100
rather 100
undertaken 100
death 100
concerns 100
Management 100
&apos;ll 100
lead 100
wide 100
manner 100
rates 100
n 100
ly 100
return 100
compliance 100
calls 100
Geneva 100
contribution 100
fundamental 100
p 100
final 100
Information 100
language 100
dated 100
participants 100
industry 100
z@@ 100
companies 100
recognized 100
things 100
Z@@ 100
infrastructure 100
regions 100
former 100
share 100
en 100
Plan 100
materials 100
1993 100
keep 100
drug 100
side 100
officers 100
believe 100
identified 100
bl@@ 100
connection 100
sh@@ 100
difficult 100
views 100
asked 100
throughout 100
j@@ 100
regulations 100
Agency 100
text 100
model 100
Israeli 100
itself 100
construction 100
fifty 100
preparation 100
refugees 100
kind 100
UN 100
Trade 100
p.m. 100
despite 100
hope 100
times 100
achieved 100
Charter 100
A. 100
judicial 100
fourth 100
conference 100
range 100
In@@ 100
ic 100
multilateral 100
improving 100
crimes 100
2@@ 100
UNICEF 100
came 100
integration 100
name 100
activity 100
detention 100
effectively 100
enforcement 100
Criminal 100
Federation 100
introduced 100
ates 100
says 100
claims 100
critical 100
leave 100
commitments 100
job 100
institutional 100
vote 100
benefit 100
words 100
goods 100
live 100
le@@ 100
ar 100
across 100
left 100
effort 100
Y@@ 100
is@@ 100
half 100
schools 100
outside 100
100 100
ab@@ 100
Forum 100
paragraphs 100
room 100
h 100
substantive 100
similar 100
ous 100
als 100
families 100
Global 100
house 100
referred 100
source 100
create 100
outcome 100
short 100
Hong 100
se@@ 100
debt 100
indicated 100
Code 100
Justice 100
interests 100
purposes 100
Unit 100
Pacific 100
Sudan 100
UNCTAD 100
demand 100
35 100
sessions 100
entities 100
governance 100
travel 100
55 100
relations 100
participate 100
India 100
themselves 100
Kong 100
ac@@ 100
met 100
assets 100
as@@ 100
circumstances 100
57 100
got 100
scale 100
es@@ 100
ongoing 100
later 100
require 100
ra@@ 100
Re@@ 100
summary 100
along 100
traditional 100
month 100
oil 100
tions 100
mind 100
submit 100
soon 100
directly 100
elements 100
apply 100
king 100
scope 100
improved 100
week 100
65 100
brought 100
culture 100
effectiveness 100
IV 100
58 100
territory 100
re 100
ine 100
signed 100
Kingdom 100
Institute 100
central 100
standard 100
contract 100
estimated 100
supply 100
price 100
factors 100
balance 100
discussions 100
ad 100
whose 100
show 100
head 100
enable 100
points 100
revised 100
sources 100
build 100
centres 100
maintenance 100
ent 100
op@@ 100
over@@ 100
distribution 100
includes 100
Services 100
civilian 100
33 100
guidance 100
fund 100
ding 100
mentioned 100
ded 100
network 100
ex@@ 100
Agreement 100
disabilities 100
hold 100
32 100
applied 100
transport 100
really 100
parts 100
be@@ 100
paid 100
Review 100
Summit 100
efficiency 100
deal 100
ag@@ 100
59 100
either 100
Canada 100
step 100
sectors 100
aid 100
Constitution 100
average 100
core 100
something 100
seen 100
claim 100
prior 100
sixty 100
takes 100
34 100
physical 100
th 100
ever 100
expert 100
il@@ 100
62 100
complete 100
B. 100
welcomed 100
ment 100
61 100
indicators 100
Meeting 100
Health 100
stability 100
situations 100
45 100
city 100
billion 100
furthermore 100
proceedings 100
delivery 100
ings 100
markets 100
technologies 100
em@@ 100
he@@ 100
events 100
T 100
known 100
36 100
48 100
relationship 100
64 100
legislative 100
ul@@ 100
went 100
developments 100
ap@@ 100
Cooperation 100
start 100
53 100
ic@@ 100
pre@@ 100
urban 100
continues 100
Party 100
stakeholders 100
type 100
son 100
Korea 100
combat 100
comments 100
universal 100
investigation 100
initiative 100
ground 100
co 100
University 100
cause 100
single 100
52 100
studies 100
citizens 100
peaceful 100
63 100
thought 100
collaboration 100
voluntary 100
twenty 100
elections 100
leaders 100
reached 100
target 100
goal 100
associated 100
Support 100
almost 100
priorities 100
anti 100
ha@@ 100
responsibilities 100
2015 100
54 100
torture 100
personal 100
encourage 100
discussed 100
UNEP 100
pro@@ 100
practical 100
achieving 100
though 100
Public 100
emergency 100
intergovernmental 100
carry 100
fifth 100
successful 100
Protection 100
abuse 100
loss 100
UNHCR 100
states 100
Force 100
sub@@ 100
likely 100
success 100
relation 100
longer 100
res 100
receive 100
stage 100
addressing 100
growing 100
lower 100
religious 100
housing 100
66 100
56 100
scientific 100
alia 100
identify 100
election 100
completed 100
x 100
37 100
border 100
&apos;ve 100
recently 100
conclusion 100
test 100
extent 100
woman 100
le 100
ethnic 100
hard 100
continuing 100
ance 100
supporting 100
designed 100
Goals 100
recalling 100
debate 100
art 100
beyond 100
M 100
Report 100
external 100
positions 100
39 100
vulnerable 100
R 100
prices 100
maintain 100
compensation 100
units 100
transition 100
visit 100
makes 100
determination 100
chapter 100
tion 100
economies 100
permanent 100
51 100
invited 100
net 100
advice 100
initial 100
threat 100
om@@ 100
agency 100
Regional 100
welcomes 100
establishing 100
France 100
partnership 100
specialized 100
enough 100
po@@ 100
reasons 100
OF 100
opinion 100
encouraged 100
adopt 100
moreover 100
function 100
Con@@ 100
thing 100
night 100
ally 100
serve 100
periodic 100
Headquarters 100
proliferation 100
task 100
Afghanistan 100
ans 100
expenditure 100
ve 100
reason 100
Caribbean 100
THE 100
raised 100
ol@@ 100
... 100
Congo 100
tell 100
female 100
road 100
sent 100
appreciation 100
feel 100
try 100
site 100
approval 100
to@@ 100
educational 100
solution 100
creation 100
commercial 100
41 100
Crime 100
compared 100
event 100
doing 100
consensus 100
recovery 100
majority 100
finally 100
export 100
49 100
67 100
clearly 100
Foreign 100
requires 100
cover 100
remained 100
O 100
pe@@ 100
mother 100
consultation 100
38 100
youth 100
big 100
French 100
professional 100
West 100
Political 100
seek 100
detailed 100
follows 100
created 100
Beijing 100
obligation 100
statistics 100
1@@ 100
De@@ 100
violation 100
Room 100
47 100
qu@@ 100
se 100
phase 100
challenge 100
bilateral 100
Environment 100
Non 100
North 100
covered 100
turn 100
leadership 100
concluded 100
read 100
Chair 100
um 100
heart 100
ter 100
temporary 100
Administrative 100
encourages 100
bo@@ 100
actors 100
sea 100
skills 100
move 100
46 100
Implementation 100
parents 100
Iran 100
run 100
applicable 100
0@@ 100
terrorist 100
Ch@@ 100
disaster 100
44 100
product 100
Al@@ 100
courts 100
nothing 100
enterprises 100
applications 100
caused 100
Islamic 100
history 100
42 100
science 100
Germany 100
li@@ 100
sufficient 100
ks 100
sharing 100
procurement 100
agricultural 100
displaced 100
Latin 100
trust 100
improvement 100
Disarmament 100
offer 100
In 100
jurisdiction 100
treaties 100
suggested 100
ator 100
accountability 100
achievement 100
1992 100
avoid 100
audit 100
lives 100
sure 100
Civil 100
original 100
Cuba 100
generally 100
ative 100
68 100
pa@@ 100
beginning 100
focused 100
written 100
V 100
UNFPA 100
aim 100
sound 100
Peace 100
settlement 100
plenary 100
ds 100
ist 100
reflected 100
duty 100
regime 100
began 100
Education 100
told 100
insurance 100
lo@@ 100
leading 100
destruction 100
mainly 100
operating 100
confidence 100
consistent 100
su@@ 100
L 100
ity 100
43 100
tive 100
Syrian 100
reach 100
committee 100
round 100
cash 100
noting 100
heard 100
weapon 100
conclusions 100
movement 100
ons 100
illegal 100
credit 100
trial 100
Section 100
Australia 100
submission 100
partnerships 100
Middle 100
respective 100
Administration 100
ch 100
per@@ 100
owing 100
ge@@ 100
Mexico 100
payment 100
record 100
C. 100
bank 100
tools 100
cross 100
finance 100
ended 100
ne@@ 100
efficient 100
formal 100
introduction 100
judges 100
added 100
Children 100
measure 100
tax 100
ago 100
raising 100
learning 100
concept 100
Optional 100
monitor 100
est 100
mass 100
approaches 100
presence 100
uses 100
series 100
der 100
observations 100
et 100
industrial 100
top 100
ir@@ 100
content 100
pl@@ 100
conferences 100
class 100
ren@@ 100
resulting 100
criteria 100
sixth 100
implications 100
entry 100
seven 100
te@@ 100
senior 100
negative 100
no@@ 100
contact 100
urges 100
Federal 100
1,@@ 100
types 100
lot 100
Vienna 100
useful 100
System 100
appeal 100
closely 100
independence 100
actively 100
All 100
involving 100
safe 100
An@@ 100
Discrimination 100
God 100
nor 100
Joint 100
conflicts 100
host 100
launched 100
Association 100
Asian 100
damage 100
decides 100
ed@@ 100
um@@ 100
stressed 100
actual 100
understand 100
planned 100
Child 100
sanctions 100
broad 100
reduced 100
consequences 100
welcome 100
Internet 100
Pakistan 100
1990 100
rest 100
registration 100
transparency 100
instrument 100
near 100
risks 100
ten 100
late 100
fight 100
la@@ 100
sex 100
component 100
fire 100
complex 100
timely 100
opening 100
father 100
coming 100
sp@@ 100
electronic 100
described 100
shown 100
minimum 100
us@@ 100
1.@@ 100
determined 100
forest 100
ors 100
elected 100
a.m. 100
under@@ 100
fl@@ 100
Mar@@ 100
indeed 100
sub 100
te 100
mo@@ 100
ver@@ 100
press 100
competition 100
advance 100
difficulties 100
RE@@ 100
true 100
collection 100
placed 100
Brazil 100
id@@ 100
ve@@ 100
70 100
capacities 100
looking 100
unit 100
followed 100
base 100
ves 100
Sustainable 100
intended 100
concrete 100
exploitation 100
defined 100
Lebanon 100
ing@@ 100
pressure 100
f 100
alternative 100
waste 100
saw 100
reflect 100
published 100
Persons 100
gave 100
hi@@ 100
rise 100
relief 100
ses 100
word 100
car@@ 100
deployment 100
raise 100
banks 100
causes 100
subregional 100
donors 100
illicit 100
enhancing 100
77 100
dollars 100
ship 100
fields 100
UNIDO 100
ism 100
ble 100
mis@@ 100
10@@ 100
Western 100
governments 100
increasingly 100
survey 100
enhanced 100
book 100
Bureau 100
Countries 100
works 100
me@@ 100
ta@@ 100
1991 100
determine 100
urgent 100
sc@@ 100
recognition 100
absence 100
N 100
aircraft 100
democratic 100
UN@@ 100
corruption 100
out@@ 100
com@@ 100
accounts 100
ies 100
Authority 100
usually 100
Al 100
2,@@ 100
par@@ 100
NGOs 100
Somalia 100
fi@@ 100
allowed 100
possibility 100
island 100
medium 100
keeping 100
places 100
computer 100
seventh 100
prepare 100
departments 100
membership 100
ill 100
mutual 100
reducing 100
failure 100
immediately 100
enterprise 100
languages 100
contributing 100
lost 100
Chief 100
represented 100
fair 100
accepted 100
sense 100
gas 100
charge 100
shared 100
Governing 100
organizational 100
ou@@ 100
modern 100
mean 100
extended 100
Prevention 100
Elimination 100
deep 100
mine 100
instead 100
IC@@ 100
shows 100
immediate 100
w 100
ia 100
car 100
definition 100
ot@@ 100
attacks 100
thank 100
documentation 100
prison 100
idea 100
tic 100
forced 100
respond 100
sa@@ 100
discuss 100
sometimes 100
emerging 100
tu@@ 100
ter@@ 100
marriage 100
Police 100
assessments 100
migration 100
Technology 100
reviewed 100
accordingly 100
estimates 100
workshops 100
80 100
setting 100
multi 100
approximately 100
size 100
69 100
civilians 100
ask 100
Officer 100
solutions 100
consumption 100
started 100
involvement 100
ments 100
produced 100
pre 100
Operations 100
expertise 100
highest 100
ary 100
democracy 100
Annex 100
&apos;d 100
strengthened 100
processing 100
rehabilitation 100
Territory 100
mandates 100
percent 100
gu@@ 100
centre 100
18@@ 100
chemical 100
Labour 100
ten@@ 100
ci@@ 100
earlier 100
percentage 100
accounting 100
engaged 100
eight 100
counter 100
Community 100
Mr 100
friends 100
r 100
Nuclear 100
recognizing 100
ical 100
options 100
category 100
é@@ 100
ge 100
workshop 100
Coordination 100
occupied 100
stop 100
representation 100
values 100
produce 100
IN@@ 100
alone 100
ready 100
ins 100
express 100
participated 100
recruitment 100
holding 100
became 100
ling 100
direction 100
tra@@ 100
2.@@ 100
unless 100
entire 100
z 100
guarantee 100
affairs 100
Egypt 100
users 100
undertake 100
sts 100
I. 100
for@@ 100
board 100
Guinea 100
racial 100
donor 100
coordinated 100
aware 100
morning 100
eighth 100
separate 100
ninth 100
ah 100
remaining 100
Q@@ 100
specifically 100
cut 100
ging 100
Strategy 100
crucial 100
urged 100
considering 100
Co@@ 100
fall 100
ec@@ 100
Rwanda 100
expression 100
easy 100
emphasized 100
forty 100
affect 100
organs 100
felt 100
speaking 100
highly 100
himself 100
regulation 100
behind 100
90 100
learned 100
records 100
Vice 100
defence 100
didn 100
Kuwait 100
ke 100
inclusion 100
everyone 100
refugee 100
dealing 100
targets 100
ness 100
tr@@ 100
occupation 100
figure 100
imposed 100
resulted 100
won 100
listed 100
man@@ 100
networks 100
subprogramme 100
page 100
Palestine 100
&amp; 100
assess 100
alization 100
Legal 100
Ex@@ 100
agriculture 100
wife 100
origin 100
giving 100
influence 100
findings 100
observers 100
emphasis 100
enjoy 100
headquarters 100
quite 100
eyes 100
executive 100
3.@@ 100
examination 100
learn 100
appointed 100
closed 100
respectively 100
Kosovo 100
ma@@ 100
x@@ 100
worked 100
registered 100
conventions 100
combating 100
details 100
00 100
ants 100
cooperate 100
spirit 100
fuel 100
Policy 100
bi@@ 100
Rules 100
disease 100
Add.1 100
looked 100
mon@@ 100
structures 100
Second 100
flow 100
faced 100
ked 100
Other 100
200 100
constitute 100
daily 100
limit 100
participating 100
des 100
statistical 100
ob@@ 100
creating 100
interested 100
ry 100
v. 100
contracts 100
weeks 100
threats 100
agree 100
ite 100
perspective 100
collective 100
so@@ 100
components 100
ur@@ 100
indicate 100
OHCHR 100
subsequent 100
ality 100
contributed 100
secure 100
girl 100
ratification 100
ps 100
gra@@ 100
Indonesia 100
requirement 100
responses 100
19@@ 100
degree 100
tool 100
can@@ 100
courses 100
grounds 100
speak 100
website 100
offences 100
secondary 100
sion 100
reforms 100
integrity 100
background 100
contains 100
floor 100
Turkey 100
appointment 100
factor 100
observed 100
EU 100
ators 100
marine 100
3,@@ 100
sing 100
bad 100
Islands 100
the@@ 100
authorized 100
tasks 100
trying 100
offered 100
Liberia 100
eliminate 100
VI 100
recorded 100
75 100
stock 100
candidates 100
comes 100
otherwise 100
trends 100
campaign 100
oc@@ 100
funded 100
internationally 100
actually 100
mental 100
software 100
seems 100
En@@ 100
freedoms 100
stand 100
tor 100
whom 100
Italy 100
highlighted 100
Ireland 100
St@@ 100
interpretation 100
drugs 100
employees 100
AND 100
entered 100
accept 100
mail 100
up@@ 100
played 100
significantly 100
honour 100
Di@@ 100
zone 100
ati@@ 100
cycle 100
institution 100
bu@@ 100
du@@ 100
investigations 100
ving 100
except 100
competent 100
visits 100
declaration 100
Territories 100
bar@@ 100
gross 100
nation 100
rapid 100
sought 100
owned 100
engage 100
department 100
nations 100
punishment 100
lessons 100
existence 100
ho@@ 100
century 100
Agenda 100
H 100
sites 100
ise 100
expenditures 100
recognize 100
outcomes 100
Research 100
condition 100
Weapons 100
trans@@ 100
widely 100
First 100
stay 100
vehicles 100
anything 100
Sierra 100
Ambassador 100
completion 100
Framework 100
news 100
yes 100
acting 100
linked 100
tri@@ 100
substantial 100
namely 100
il 100
den@@ 100
identification 100
cities 100
diseases 100
Experts 100
IS@@ 100
D. 100
categories 100
alleged 100
thematic 100
Spain 100
hear 100
minorities 100
hands 100
standing 100
failed 100
ca@@ 100
obtained 100
Congress 100
ages 100
do@@ 100
bed 100
supports 100
inform 100
writing 100
etc 100
migrants 100
experiences 100
outstanding 100
considers 100
availability 100
spoke 100
Space 100
Assistance 100
allegations 100
moment 100
opened 100
seeking 100
proper 100
Switzerland 100
everything 100
strength 100
granted 100
talk 100
complaints 100
les 100
ones 100
door 100
obtain 100
_ 100
facing 100
largest 100
strongly 100
element 100
release 100
teaching 100
payments 100
teachers 100
extend 100
cl@@ 100
begin 100
located 100
Chamber 100
ill@@ 100
front 100
religion 100
traffic 100
considerable 100
specified 100
Peacekeeping 100
ud@@ 100
el 100
COP 100
13@@ 100
ian 100
ized 100
simple 100
vital 100
losses 100
enter 100
town 100
productive 100
consent 100
Zealand 100
wa@@ 100
database 100
forum 100
Mo@@ 100
thirty 100
exist 100
inclusive 100
Cultural 100
IAEA 100
built 100
decide 100
str@@ 100
lines 100
jobs 100
15@@ 100
delay 100
engagement 100
cu@@ 100
previously 100
sed 100
presentation 100
500 100
selected 100
Leone 100
regulatory 100
emissions 100
convened 100
advisory 100
someone 100
Ma@@ 100
Netherlands 100
Financial 100
bearing 100
minority 100
nearly 100
supplies 100
preventing 100
killed 100
territorial 100
attack 100
heads 100
Argentina 100
mar@@ 100
functioning 100
numbers 100
electoral 100
It 100
territories 100
born 100
Great 100
ig@@ 100
fe@@ 100
Chairperson 100
flows 100
topic 100
Haiti 100
norms 100
globalization 100
theme 100
Control 100
Deputy 100
ph@@ 100
maintained 100
Gaza 100
announced 100
Car@@ 100
Ministers 100
teams 100
constitutional 100
Parliament 100
trend 100
Norway 100
firm 100
investments 100
amounts 100
speakers 100
expansion 100
sovereignty 100
instance 100
populations 100
aged 100
ep@@ 100
differences 100
diplomatic 100
vi@@ 100
amendments 100
Bosnia 100
British 100
inside 100
res@@ 100
unable 100
dissemination 100
pointed 100
concluding 100
expenses 100
Fifth 100
carrying 100
reproductive 100
code 100
victim 100
cur@@ 100
decrease 100
numerous 100
satisfaction 100
showed 100
search 100
confirmed 100
nationality 100
au@@ 100
advanced 100
coverage 100
Habitat 100
subsequently 100
characteristics 100
judge 100
st 100
restrictions 100
containing 100
happy 100
300 100
gi@@ 100
CO@@ 100
getting 100
cor@@ 100
dec@@ 100
we@@ 100
draw 100
rich 100
ster 100
14@@ 100
latest 100
Burundi 100
U 100
theory 100
subsidiary 100
realization 100
targeted 100
Li@@ 100
identity 100
duties 100
formulation 100
buy 100
Cyprus 100
rec@@ 100
sign 100
Field 100
all@@ 100
heavy 100
4,@@ 100
fish 100
stress 100
oversight 100
examples 100
Ar@@ 100
add 100
station 100
ang 100
advantage 100
sur@@ 100
ish 100
Ro@@ 100
white 100
location 100
Year 100
sales 100
maintaining 100
contents 100
birth 100
maximum 100
sustained 100
id 100
friend 100
fine 100
minutes 100
Yugoslavia 100
simply 100
ru@@ 100
older 100
allocation 100
nevertheless 100
technological 100
combined 100
sentence 100
ideas 100
aims 100
reintegration 100
online 100
72 100
ders 100
protected 100
unemployment 100
ful 100
surface 100
Gender 100
mortality 100
delivered 100
ownership 100
comply 100
cold 100
disability 100
budgetary 100
green 100
Darfur 100
guide 100
Assistant 100
nine 100
stations 100
complainant 100
program 100
ale 100
reasonable 100
gh@@ 100
equitable 100
reconciliation 100
Lebanese 100
quickly 100
Pro@@ 100
ties 100
sale 100
encouraging 100
os 100
Prosecutor 100
blood 100
generation 100
answer 100
perhaps 100
sensitive 100
elimination 100
troops 100
Prime 100
race 100
worldwide 100
recognizes 100
choice 100
Technical 100
enjoyment 100
Supreme 100
forth 100
wanted 100
Day 100
fulfil 100
receiving 100
updated 100
reservations 100
And 100
ty 100
formed 100
committees 100
pending 100
disasters 100
Herzegovina 100
ong 100
wishes 100
endorsed 100
sides 100
ber@@ 100
go@@ 100
Nigeria 100
Decade 100
Bo@@ 100
names 100
entity 100
73 100
transportation 100
governing 100
offence 100
designated 100
middle 100
link 100
tried 100
appear 100
achievements 100
object 100
assessed 100
expresses 100
arising 100
Third 100
ard 100
Britain 100
&apos;Ivoire 100
preliminary 100
trading 100
ess 100
Regulations 100
normal 100
internally 100
Food 100
enabling 100
Sea 100
attend 100
Colombia 100
ver 100
changing 100
passed 100
Population 100
sen@@ 100
version 100
structural 100
fixed 100
Ukraine 100
changed 100
initiated 100
AN@@ 100
attended 100
character 100
corporate 100
71 100
Le@@ 100
proportion 100
kept 100
clean 100
boy 100
Monday 100
ratified 100
returned 100
paras 100
latter 100
X@@ 100
principal 100
4.@@ 100
Training 100
primarily 100
thousands 100
frameworks 100
outer 100
Northern 100
convention 100
vision 100
protecting 100
Ethiopia 100
amended 100
systematic 100
estimate 100
helped 100
diversity 100
W 100
verification 100
stable 100
war@@ 100
commission 100
6.@@ 100
unique 100
investigate 100
bit 100
K 100
seem 100
5,@@ 100
ence 100
UNODC 100
option 100
ev@@ 100
figures 100
0.@@ 100
Sweden 100
mainstreaming 100
partner 100
saying 100
penalty 100
amendment 100
ILO 100
asylum 100
ent@@ 100
hour 100
ters 100
commissions 100
Côte 100
favour 100
Se@@ 100
difference 100
resolve 100
believes 100
ice 100
managers 100
legitimate 100
selection 100
sets 100
contain 100
eradication 100
preparing 100
accused 100
exports 100
relatively 100
Com@@ 100
publications 100
pen@@ 100
Inter 100
charges 100
occurred 100
76 100
Friday 100
Y 100
ged 100
gap 100
men@@ 100
publication 100
dy 100
send 100
turned 100
fear 100
non@@ 100
sta@@ 100
prosecution 100
Trust 100
ut@@ 100
join 100
ven@@ 100
scheduled 100
becoming 100
powers 100
incidents 100
Spanish 100
finding 100
ICT 100
thereby 100
drafting 100
user 100
weight 100
plant 100
Humanitarian 100
voice 100
invites 100
books 100
FAO 100
ari@@ 100
speed 100
pursue 100
examine 100
12@@ 100
Ad@@ 100
multiple 100
sustainability 100
Morocco 100
chemicals 100
allocated 100
bringing 100
v 100
spread 100
Internal 100
jointly 100
variety 100
gives 100
fast 100
and@@ 100
empowerment 100
iz@@ 100
ars 100
ning 100
impacts 100
binding 100
liability 100
Fourth 100
manage 100
represent 100
write 100
hoped 100
declared 100
regularly 100
released 100
racism 100
Eastern 100
transparent 100
geographical 100
ni@@ 100
Staff 100
patients 100
dispute 100
neither 100
Gu@@ 100
increases 100
74 100
improvements 100
observer 100
ying 100
facilitating 100
spent 100
Thailand 100
UNESCO 100
refer 100
arrest 100
controls 100
drawn 100
innovative 100
believed 100
tourism 100
extensive 100
ma 100
game 100
ay@@ 100
investors 100
testing 100
obstacles 100
ker 100
reservation 100
Ac@@ 100
adaptation 100
thinking 100
CE@@ 100
fell 100
rose 100
perform 100
covering 100
expand 100
Kenya 100
Initiative 100
Questions 100
savings 100
X 100
inspection 100
You 100
leaving 100
radio 100
reconstruction 100
da 100
severe 100
Man@@ 100
gr@@ 100
socio 100
Azerbaijan 100
letters 100
master 100
yourself 100
coordinate 100
examined 100
check 100
intention 100
mines 100
beautiful 100
boys 100
ology 100
attempt 100
message 100
conformity 100
pollution 100
17@@ 100
--@@ 100
vehicle 100
preparatory 100
Indigenous 100
served 100
pilot 100
Inter@@ 100
burden 100
SA@@ 100
reviews 100
AT@@ 100
Uganda 100
la 100
Members 100
sis 100
extension 100
notice 100
goes 100
suffering 100
facts 100
grant 100
98 100
Principles 100
El 100
affecting 100
attached 100
ff@@ 100
remember 100
mu@@ 100
gl@@ 100
web 100
choose 100
Paris 100
ization 100
London 100
Myanmar 100
identifying 100
ke@@ 100
transactions 100
male 100
expanded 100
disputes 100
image 100
demands 100
Me@@ 100
Th@@ 100
CEDAW 100
doesn 100
husband 100
prisoners 100
satellite 100
Iraqi 100
end@@ 100
links 100
VII 100
transit 100
ST@@ 100
discriminatory 100
currency 100
map 100
ba@@ 100
6,@@ 100
Resources 100
abroad 100
Russia 100
Subcommittee 100
thanks 100
appears 100
substances 100
Terrorism 100
= 100
black 100
constructive 100
interim 100
ak@@ 100
equity 100
constraints 100
85 100
dr@@ 100
wall 100
Oh 100
managed 100
Under 100
employed 100
che@@ 100
joined 100
violated 100
bear 100
95 100
He 100
Philippines 100
schedule 100
ton 100
Energy 100
Chile 100
capabilities 100
teacher 100
worth 100
preventive 100
alized 100
launch 100
meaning 100
eg@@ 100
e.g. 100
train 100
City 100
customs 100
grave 100
looks 100
Lord 100
Jerusalem 100
migrant 100
welfare 100
innovation 100
serving 100
16@@ 100
ade 100
probably 100
reaching 100
mer@@ 100
sanitation 100
soldiers 100
Status 100
music 100
Georgia 100
trained 100
monthly 100
reading 100
reality 100
400 100
extreme 100
wh@@ 100
explained 100
remedies 100
ste@@ 100
arrested 100
His 100
treated 100
ahead 100
aries 100
Power 100
eat 100
.1 100
78 100
carbon 100
fo@@ 100
running 100
import 100
extremely 100
ously 100
U.S. 100
starting 100
safeguards 100
valuable 100
break 100
troop 100
reiterates 100
Dis@@ 100
largely 100
+ 100
reiterated 100
truth 100
鈥@@ 100
advocacy 100
Sh@@ 100
Refugees 100
consultative 100
moving 100
Algeria 100
decade 100
Project 100
C.2 100
guarantees 100
controlled 100
asset 100
min@@ 100
recalled 100
99 100
96 100
hu@@ 100
earth 100
explore 100
WTO 100
represents 100
81 100
Drugs 100
av@@ 100
ically 100
-@@ 100
ang@@ 100
gold 100
volume 100
ban@@ 100
ping 100
ay 100
experienced 100
CD 100
ler 100
easily 100
offers 100
.2 100
79 100
adjustment 100
scheme 100
Timor 100
distributed 100
larger 100
NPT 100
ering 100
president 100
7,@@ 100
reply 100
focal 100
OIOS 100
5.@@ 100
ach@@ 100
story 100
Su@@ 100
composition 100
limits 100
Family 100
Tuesday 100
television 100
cr@@ 100
roles 100
reaffirming 100
utilization 100
acy 100
bound 100
Austria 100
comment 100
file 100
600 100
ze 100
wrong 100
82 100
84 100
ats 100
perpetrators 100
staffing 100
academic 100
assigned 100
decades 100
Network 100
fiscal 100
Forces 100
decline 100
sti@@ 100
machine 100
south 100
indicates 100
As@@ 100
settlements 100
update 100
panel 100
knew 100
tin@@ 100
helping 100
200@@ 100
Forms 100
permit 100
Saudi 100
authors 100
dignity 100
programming 100
Be@@ 100
83 100
fighting 100
belief 100
introduce 100
Malaysia 100
campaigns 100
seriously 100
sive 100
John 100
mid 100
contrary 100
Thursday 100
district 100
gain 100
acceptance 100
methodology 100
ire 100
features 100
remote 100
93 100
seemed 100
Scientific 100
village 100
Partnership 100
Bangladesh 100
LDCs 100
balanced 100
judiciary 100
ric@@ 100
mobile 100
storage 100
dangerous 100
locations 100
quarter 100
ns 100
Foundation 100
suffered 100
Jordan 100
broader 100
stresses 100
az@@ 100
AR@@ 100
tic@@ 100
talks 100
Wednesday 100
ure 100
Monitoring 100
popular 100
鈥 100
overcome 100
ple@@ 100
cutting 100
officer 100
techniques 100
88 100
mining 100
Coordinator 100
sk@@ 100
col@@ 100
anyone 100
humanity 100
healthy 100
reaffirms 100
seminars 100
friendly 100
chance 100
Task 100
mandated 100
north 100
periods 100
double 100
Budgetary 100
rising 100
transmitted 100
ga@@ 100
suitable 100
continuous 100
performed 100
j 100
sections 100
track 100
s.@@ 100
deeply 100
supervision 100
ir 100
97 100
Nairobi 100
Belarus 100
del@@ 100
box 100
output 100
E. 100
oral 100
demonstrated 100
welcoming 100
On 100
ved 100
warning 100
historical 100
reflects 100
La@@ 100
relative 100
faith 100
gen@@ 100
weather 100
imprisonment 100
bill 100
greatly 100
association 100
focusing 100
career 100
engineering 100
92 100
depth 100
salary 100
sted 100
directed 100
orders 100
dra@@ 100
competitive 100
ES 100
biological 100
impunity 100
involve 100
oriented 100
transferred 100
alize 100
coordinating 100
consequently 100
phone 100
buildings 100
ned 100
hot 100
studied 100
der@@ 100
assisting 100
associations 100
gone 100
Earth 100
enemy 100
Per@@ 100
ery 100
hoc 100
alism 100
Sa@@ 100
ast 100
Mon@@ 100
acquisition 100
pass 100
complaint 100
He@@ 100
else 100
none 100
gaps 100
outlined 100
wing 100
soil 100
91 100
deliver 100
budgets 100
yesterday 100
papers 100
Movement 100
Peoples 100
pleased 100
chief 100
foundation 100
vulnerability 100
lasting 100
Statute 100
Planning 100
operate 100
married 100
resumed 100
Safety 100
corresponding 100
ize 100
qualified 100
inflation 100
functional 100
8,@@ 100
ka 100
ls 100
topics 100
ped 100
ster@@ 100
died 100
purchase 100
accessible 100
hor@@ 100
ships 100
20@@ 100
playing 100
equally 100
subjected 100
micro@@ 100
86 100
similarly 100
ner 100
tors 100
reliable 100
C.3 100
arbitrary 100
stages 100
voting 100
grow 100
via 100
dead 100
farmers 100
Mechanism 100
UNOPS 100
ological 100
WHO 100
southern 100
harm 100
models 100
ches 100
Southern 100
posed 100
recommend 100
platform 100
Croatia 100
visited 100
street 100
replace 100
disabled 100
conventional 100
hospital 100
commodity 100
Japanese 100
Peru 100
claimed 100
spending 100
allows 100
card 100
mobilization 100
speech 100
SE@@ 100
briefing 100
Finland 100
,000 100
certainly 100
modalities 100
detained 100
widespread 100
Expert 100
army 100
wind 100
coherence 100
87 100
ture 100
Science 100
deliberations 100
hearing 100
lan@@ 100
witnesses 100
appeals 100
federal 100
charged 100
ational 100
pattern 100
dynamic 100
anti@@ 100
uc@@ 100
loans 100
successfully 100
societies 100
pol@@ 100
insufficient 100
opposition 100
IA@@ 100
legally 100
94 100
ys 100
student 100
constitutes 100
stocks 100
regards 100
household 100
completely 100
hit 100
temperature 100
slow 100
die 100
har@@ 100
Eritrea 100
conservation 100
premises 100
intellectual 100
tics 100
prohibited 100
800 100
doubt 100
preparations 100
ther@@ 100
Professional 100
tor@@ 100
solidarity 100
ring 100
Universal 100
invitation 100
GDP 100
lands 100
evaluate 100
industries 100
relevance 100
seminar 100
deployed 100
intervention 100
execution 100
ishing 100
prostitution 100
ending 100
dealt 100
work@@ 100
digital 100
ministerial 100
maternal 100
competence 100
calling 100
ined 100
Strategic 100
ie 100
i.e. 100
fishing 100
save 100
9,@@ 100
German 100
path 100
segment 100
ran@@ 100
et@@ 100
Statistics 100
sponsors 100
Cambodia 100
danger 100
Sri 100
down@@ 100
ore 100
substance 100
ges 100
reaffirmed 100
foster 100
video 100
Independent 100
suggestions 100
wished 100
89 100
greatest 100
resident 100
anniversary 100
summer 100
integrate 100
ular 100
promoted 100
ce@@ 100
homes 100
productivity 100
win 100
newly 100
rent 100
Preparatory 100
CN.4 100
disposal 100
properly 100
0 100
moved 100
interventions 100
IT@@ 100
convinced 100
university 100
vocational 100
form@@ 100
eng@@ 100
Torture 100
input 100
rapidly 100
Angola 100
airspace 100
huge 100
ordinary 100
Singapore 100
UNRWA 100
&gt; 100
Poland 100
Nepal 100
overview 100
bul@@ 100
ung 100
drawing 100
pension 100
Society 100
picture 100
é 100
NGO 100
No 100
sal@@ 100
businesses 100
inventory 100
IP@@ 100
gs 100
firms 100
objects 100
Ministerial 100
Add.@@ 100
ser@@ 100
formulated 100
Shanghai 100
organize 100
drive 100
ely 100
recalls 100
nationals 100
ment@@ 100
els 100
cluster 100
explain 100
Turkish 100
barriers 100
covers 100
fill 100
Guatemala 100
realize 100
conducting 100
Po@@ 100
advancement 100
copies 100
port 100
Comprehensive 100
rape 100
becomes 100
capable 100
ents 100
cre@@ 100
Platform 100
film 100
mor@@ 100
laid 100
ou 100
counsel 100
toward 100
acknowledged 100
hal@@ 100
sports 100
han@@ 100
wider 100
Ab@@ 100
mark 100
walk 100
Mu@@ 100
Financing 100
izing 100
formation 100
appeared 100
kinds 100
customers 100
rel@@ 100
AC@@ 100
telephone 100
consumer 100
embargo 100
unilateral 100
emphasizes 100
loc@@ 100
camps 100
patterns 100
proved 100
atory 100
ics 100
bs 100
revenue 100
plants 100
Red 100
expect 100
ty@@ 100
liberty 100
mi@@ 100
envisaged 100
Finance 100
moral 100
sl@@ 100
dedicated 100
ple 100
dry 100
marked 100
den 100
aw@@ 100
allowing 100
Excellency 100
relationships 100
crises 100
tomorrow 100
As 100
Region 100
inadequate 100
residents 100
Peacebuilding 100
EC@@ 100
dollar 100
Co 100
ana 100
Czech 100
title 100
doctor 100
stood 100
reserve 100
withdrawal 100
residence 100
transnational 100
incorporated 100
length 100
accurate 100
package 100
manufacturing 100
cou@@ 100
super@@ 100
ining 100
wood 100
If 100
Pe@@ 100
fu@@ 100
tests 100
cap@@ 100
Hoc 100
gains 100
PA@@ 100
stri@@ 100
weak 100
jo@@ 100
wait 100
myself 100
facility 100
ak 100
lay 100
phenomenon 100
adopting 100
zones 100
frequently 100
applying 100
interaction 100
households 100
dly 100
fied 100
representing 100
style 100
Belgium 100
degradation 100
ened 100
undertaking 100
contingent 100
bro@@ 100
212 100
fees 100
adverse 100
wi@@ 100
detail 100
species 100
conclude 100
bur@@ 100
circulated 100
sectoral 100
mercury 100
outreach 100
Kyoto 100
Hu@@ 100
1989 100
Ad 100
ong@@ 100
financed 100
alizing 100
We 100
Auditors 100
EN@@ 100
cra@@ 100
significance 100
Ecuador 100
sun 100
format 100
occur 100
pi@@ 100
wealth 100
thy 100
ME@@ 100
sell 100
rejected 100
movements 100
lose 100
explanation 100
eye 100
ger 100
understood 100
millions 100
700 100
Model 100
TA@@ 100
Har@@ 100
programs 100
Observer 100
exception 100
pri@@ 100
Developing 100
considerations 100
AC 100
ash@@ 100
composed 100
allowance 100
ms 100
flexible 100
tree 100
Serbia 100
duration 100
agents 100
ably 100
integral 100
1st 100
carefully 100
watch 100
ency 100
desire 100
Lanka 100
Greece 100
copy 100
suggest 100
outputs 100
whatever 100
negotiation 100
flexibility 100
profit 100
assisted 100
feeling 100
demonstrate 100
ball 100
determining 100
arts 100
ra 100
devoted 100
projected 100
Equality 100
pres@@ 100
Self 100
af@@ 100
dependent 100
forums 100
ities 100
houses 100
C.5 100
leader 100
cancer 100
2nd 100
ya 100
equivalent 100
War 100
Qu@@ 100
guaranteed 100
devices 100
CRC 100
adequately 100
Olympic 100
Venezuela 100
lies 100
ban 100
drew 100
sleep 100
urge 100
50@@ 100
Un@@ 100
begun 100
refers 100
solid 100
window 100
managing 100
skin 100
Bar@@ 100
Indian 100
professionals 100
Denmark 100
heat 100
Afghan 100
acceptable 100
spend 100
ths 100
deaths 100
Costa 100
sw@@ 100
TV 100
ished 100
borders 100
strict 100
IS 100
willing 100
frame 100
powerful 100
psychological 100
Change 100
ently 100
Climate 100
flight 100
val@@ 100
manager 100
lawyers 100
behaviour 100
ratio 100
injury 100
organ 100
Small 100
remove 100
ministries 100
presidential 100
cell 100
Taiwan 100
Island 100
forests 100
drop 100
maybe 100
ched 100
tenth 100
revision 100
sions 100
happened 100
define 100
translation 100
District 100
Oversight 100
connected 100
Rome 100
arbitration 100
memory 100
med 100
wants 100
Q 100
scientists 100
hair 100
accession 100
pu@@ 100
Team 100
ners 100
SR.@@ 100
our@@ 100
@ 100
mitigation 100
ali@@ 100
arrangement 100
cen@@ 100
grateful 100
HRC 100
tion@@ 100
lists 100
Par@@ 100
hydro@@ 100
impossible 100
adjustments 100
her@@ 100
Jo@@ 100
House 100
PR@@ 100
tro@@ 100
Palestinians 100
expanding 100
violent 100
stra@@ 100
northern 100
ur 100
SBI 100
submissions 100
index 100
air@@ 100
wage 100
prove 100
properties 100
prohibition 100
ER@@ 100
extradition 100
missing 100
Ba@@ 100
command 100
rain 100
Violence 100
School 100
machinery 100
producing 100
mostly 100
excellent 100
SC@@ 100
transfers 100
presents 100
bus 100
commended 100
piece 100
intelligence 100
ai@@ 100
10.@@ 100
procedural 100
head@@ 100
CON@@ 100
tan@@ 100
tables 100
remedy 100
solve 100
ex 100
Promotion 100
expressing 100
Sha@@ 100
regardless 100
Washington 100
br@@ 100
lie 100
pan@@ 100
researchers 100
ack 100
ai 100
talking 100
Military 100
C.1 100
transmission 100
Part 100
era 100
ue 100
brother 100
entering 100
Agriculture 100
ish@@ 100
requiring 100
Integrated 100
reserves 100
cells 100
One 100
Arabia 100
finds 100
lived 100
hundred 100
hand@@ 100
consultants 100
incident 100
regarded 100
Kazakhstan 100
secret 100
ash 100
linkages 100
proceed 100
commit 100
correct 100
consolidated 100
bal@@ 100
pain 100
hum@@ 100
separation 100
UNCITRAL 100
ines 100
occasion 100
sorry 100
Roma 100
responded 100
ws 100
ement 100
PA 100
aspect 100
Operation 100
For@@ 100
western 100
signature 100
seeks 100
00@@ 100
1988 100
ju@@ 100
notification 100
generated 100
spring 100
tolerance 100
electricity 100
collected 100
requesting 100
multi@@ 100
custody 100
Tanzania 100
isn 100
Business 100
subjects 100
gar@@ 100
peacebuilding 100
river 100
driven 100
un 100
1,000 100
ile 100
root 100
mat@@ 100
store 100
ching 100
off@@ 100
quick 100
coastal 100
Senegal 100
banking 100
shares 100
provinces 100
closer 100
journalists 100
reportedly 100
att@@ 100
Standing 100
60@@ 100
intolerance 100
college 100
aggression 100
fit 100
signing 100
Mrs. 100
color 100
reviewing 100
maritime 100
Ghana 100
denied 100
generate 100
arrived 100
combination 100
meanwhile 100
TO 100
ip@@ 100
detainees 100
ily 100
Bu@@ 100
ina 100
Increased 100
Tunisia 100
shift 100
consolidation 100
belonging 100
surveys 100
award 100
removal 100
120 100
medicine 100
Uruguay 100
bel@@ 100
Portugal 100
Rev.1 100
brief 100
ye@@ 100
handling 100
eastern 100
ly@@ 100
ce 100
No@@ 100
employers 100
NA@@ 100
Proliferation 100
ell@@ 100
Armenia 100
steel 100
sovereign 100
dark 100
Defence 100
distance 100
schemes 100
relate 100
www.un.org 100
SA 100
protocol 100
stronger 100
biggest 100
tend 100
stone 100
applies 100
meant 100
ESCAP 100
attempts 100
bio@@ 100
29@@ 100
Procedure 100
hopes 100
delays 100
Treatment 100
cooperative 100
exposure 100
MO@@ 100
mer 100
sky 100
receipt 100
chain 100
SBSTA 100
Doha 100
hunger 100
Pl@@ 100
offering 100
dog 100
EC 100
observation 100
Sal@@ 100
RC 100
fa@@ 100
gradually 100
feet 100
waiting 100
customer 100
investigated 100
filed 100
DE@@ 100
hazardous 100
evaluations 100
union 100
perfect 100
This 100
realized 100
Rica 100
biodiversity 100
capability 100
animals 100
marketing 100
What 100
ann@@ 100
displacement 100
ON 100
Process 100
vo@@ 100
valid 100
Im@@ 100
municipal 100
responding 100
derived 100
exists 100
Mali 100
baby 100
rely 100
trees 100
exploration 100
instances 100
resolved 100
division 100
filled 100
accountable 100
makers 100
199@@ 100
dream 100
fying 100
coal 100
square 100
universities 100
28@@ 100
eligible 100
divided 100
fresh 100
rou@@ 100
bottom 100
Open 100
Web 100
constant 100
depends 100
q@@ 100
lu@@ 100
annually 100
renewed 100
ours 100
Rio 100
extrabudgetary 100
guided 100
Min@@ 100
mothers 100
depend 100
www.@@ 100
liabilities 100
tes 100
ne 100
tical 100
suggests 100
brain 100
grants 100
proof 100
WFP 100
balances 100
exchanges 100
anticipated 100
itation 100
repatriation 100
blue 100
demobilization 100
For 100
900 100
ust 100
destroyed 100
headed 100
vast 100
IF@@ 100
ret@@ 100
assessing 100
ei@@ 100
customary 100
conjunction 100
smaller 100
heading 100
alternatives 100
agent 100
om 100
drinking 100
ba 100
invite 100
Use 100
biennial 100
consists 100
vacancy 100
MDGs 100
replaced 100
administering 100
suffer 100
SO@@ 100
listen 100
Committees 100
SC 100
laundering 100
transitional 100
elling 100
transmitting 100
commodities 100
ens 100
.. 100
pose 100
transaction 100
forthcoming 100
explosive 100
operative 100
constituted 100
allegedly 100
electric 100
mention 100
Occupied 100
frequency 100
sold 100
vel@@ 100
struggle 100
Conventions 100
Budget 100
9.@@ 100
are@@ 100
daughter 100
comparison 100
ron@@ 100
continuation 100
harmful 100
atmosphere 100
device 100
enforced 100
fisheries 100
monetary 100
transmit 100
thousand 100
judgement 100
pat@@ 100
animal 100
VIII 100
bri@@ 100
facilitated 100
GEF 100
ces 100
AP@@ 100
Environmental 100
gonna 100
branch 100
closing 100
prospects 100
incentives 100
continent 100
tw@@ 100
Rec@@ 100
normally 100
shape 100
League 100
seized 100
collect 100
Libyan 100
plays 100
restricted 100
season 100
harassment 100
Reduction 100
amounted 100
Ne@@ 100
neighbouring 100
reflecting 100
Armed 100
province 100
advances 100
analytical 100
Water 100
wastes 100
description 100
parameters 100
Am@@ 100
na@@ 100
Euro@@ 100
post@@ 100
environmentally 100
kes 100
renewable 100
contractual 100
Introduction 100
instructions 100
pertaining 100
advantages 100
ao 100
fy 100
150 100
motion 100
wear 100
expectations 100
gets 100
cha@@ 100
ends 100
falling 100
underlying 100
Chad 100
organizing 100
05 100
Center 100
stu@@ 100
assembly 100
tel 100
driving 100
summit 100
Romania 100
witness 100
963 100
accompanied 100
Youth 100
Obama 100
ta 100
sters 100
consumers 100
negotiating 100
CA@@ 100
Intergovernmental 100
7.@@ 100
tons 100
terrorists 100
afternoon 100
ordered 100
grade 100
incurred 100
holds 100
nutrition 100
genuine 100
pursued 100
concepts 100
certificate 100
warm 100
necessity 100
CC@@ 100
char@@ 100
Or@@ 100
merely 100
contacts 100
accident 100
arm 100
sun@@ 100
camp 100
DP 100
coherent 100
dimensions 100
distinction 100
evening 100
ran 100
hy@@ 100
Adviser 100
Heads 100
AD@@ 100
Bolivia 100
facilitation 100
CH@@ 100
parallel 100
pace 100
putting 100
Sub@@ 100
ited 100
parliamentary 100
providers 100
mal@@ 100
supplementary 100
register 100
limitations 100
Salvador 100
labor 100
citizen 100
restructuring 100
sit 100
ised 100
famous 100
unfortunately 100
cy@@ 100
ites 100
Qatar 100
necessarily 100
hence 100
notably 100
whenever 100
Bissau 100
discharge 100
holders 100
Racial 100
inputs 100
removed 100
refused 100
injured 100
unity 100
Assessment 100
accelerate 100
Sub 100
texts 100
introducing 100
30@@ 100
difficulty 100
match 100
IT 100
respected 100
lawyer 100
compulsory 100
opinions 100
inequality 100
deemed 100
fac@@ 100
bra@@ 100
fin@@ 100
cal@@ 100
8.@@ 100
east 100
dimension 100
subparagraph 100
couple 100
Sixth 100
OECD 100
12.@@ 100
adults 100
Nam 100
roads 100
formulate 100
Bi@@ 100
happen 100
orientation 100
twice 100
Mauritius 100
objection 100
favourable 100
We@@ 100
helps 100
S. 100
ial 100
issuance 100
bar 100
defenders 100
pool 100
lock 100
To@@ 100
ass@@ 100
closure 100
gained 100
clothes 100
bling 100
dates 100
IN 100
ratify 100
patient 100
broken 100
Road 100
ancient 100
3rd 100
dual 100
bridge 100
transformation 100
sec@@ 100
Communications 100
incorporate 100
ming 100
star@@ 100
Cameroon 100
hon@@ 100
tures 100
involves 100
liaison 100
ING 100
excessive 100
flu@@ 100
Constitutional 100
assi@@ 100
observe 100
overseas 100
Acting 100
elderly 100
tered 100
RA@@ 100
Cha@@ 100
unto 100
eventually 100
accommodation 100
director 100
apart 100
acquired 100
mandatory 100
ear@@ 100
west 100
ber 100
sort 100
faces 100
Inspection 100
securities 100
ol 100
glass 100
votes 100
Army 100
ammunition 100
replies 100
disciplinary 100
da@@ 100
mutually 100
Na@@ 100
shot 100
Employment 100
turning 100
harmonization 100
truly 100
attributable 100
Lu@@ 100
immigration 100
sight 100
Counter 100
ha 100
ward 100
macroeconomic 100
relates 100
CP@@ 100
Trafficking 100
signs 100
load 100
Mor@@ 100
FCCC 100
ine@@ 100
whereas 100
sol@@ 100
IPSAS 100
Greek 100
provincial 100
pr@@ 100
mode 100
speaker 100
ced 100
emphasize 100
fraud 100
clinical 100
F. 100
ess@@ 100
feature 100
resistance 100
references 100
Hungary 100
happiness 100
indicator 100
detection 100
emb@@ 100
Americans 100
drink 100
ham@@ 100
sum 100
Building 100
San 100
ets 100
vis@@ 100
interference 100
ant@@ 100
pregnancy 100
acc@@ 100
clients 100
Yemen 100
beings 100
knows 100
ff 100
meaningful 100
ory 100
careful 100
27@@ 100
killing 100
Guidelines 100
loan 100
5,000 100
measurement 100
trouble 100
Transitional 100
que 100
MI@@ 100
strictly 100
remarks 100
oun@@ 100
center 100
prescribed 100
extra 100
politics 100
quantity 100
Guide 100
clearance 100
Ordinance 100
SP 100
autonomous 100
showing 100
waters 100
pregnant 100
water@@ 100
freely 100
commerce 100
Nicaragua 100
FDI 100
exclusion 100
gan@@ 100
Ombudsman 100
hundreds 100
ances 100
desertification 100
client 100
literacy 100
permitted 100
http 100
Transport 100
ori@@ 100
comprising 100
cultures 100
Bill 100
attitude 100
Mongolia 100
heritage 100
deprived 100
equ@@ 100
ease 100
hospitals 100
replacement 100
Chapter 100
assume 100
09 100
Corr.1 100
arise 100
Jamaica 100
mobilize 100
oo@@ 100
invasion 100
Cross 100
reductions 100
handle 100
That 100
forget 100
mobility 100
servicing 100
thereof 100
Investment 100
afraid 100
mel@@ 100
fail 100
Saint 100
Te@@ 100
xenophobia 100
alities 100
hotel 100
persistent 100
ow@@ 100
propose 100
Viet 100
ast@@ 100
Local 100
depending 100
squ@@ 100
seat 100
El@@ 100
declarations 100
suit 100
termination 100
conc@@ 100
mouth 100
Uzbekistan 100
diverse 100
Trans@@ 100
SS 100
Head 100
Penal 100
back@@ 100
Ban 100
yuan 100
lin@@ 100
NLB 100
paying 100
ese 100
aging 100
David 100
logistics 100
Session 100
villages 100
landlocked 100
themes 100
Disabilities 100
briefings 100
sized 100
conducive 100
ultimately 100
manufacture 100
AL@@ 100
minute 100
imports 100
01 100
ley 100
Lo@@ 100
ate@@ 100
intensive 100
sponsored 100
4th 100
disseminate 100
plane 100
Dr. 100
minor 100
dic@@ 100
secured 100
Montreal 100
tly 100
prosperity 100
elsewhere 100
technique 100
rer 100
IMF 100
tested 100
Province 100
sentenced 100
Industrial 100
occupying 100
massive 100
seats 100
breach 100
interactive 100
tur@@ 100
consistently 100
ingly 100
appropriation 100
PO@@ 100
beneficiaries 100
you@@ 100
Anti 100
nice 100
cul@@ 100
11@@ 100
admissibility 100
ils 100
leaves 100
An 100
á@@ 100
citizenship 100
lastly 100
bon@@ 100
decreased 100
sufficiently 100
Outer 100
Korean 100
entirely 100
causing 100
Mal@@ 100
abuses 100
Street 100
consequence 100
sect 100
Customs 100
row 100
signal 100
portion 100
des@@ 100
satisfied 100
ris@@ 100
delegates 100
airport 100
appreciate 100
LE@@ 100
preserve 100
attitudes 100
count 100
willingness 100
metal 100
prisons 100
mountain 100
possession 100
assumed 100
ocean 100
adult 100
clarification 100
iled 100
ourselves 100
accomplishments 100
ums 100
genocide 100
hosted 100
candidate 100
Pre@@ 100
Zambia 100
ST 100
ox@@ 100
mediation 100
targeting 100
kill 100
1990s 100
salaries 100
5th 100
atic 100
ame 100
orally 100
stands 100
Ham@@ 100
unions 100
Protocols 100
When 100
organic 100
absolute 100
Basel 100
fication 100
treat 100
gro@@ 100
competitiveness 100
Company 100
revealed 100
ga 100
trials 100
contrast 100
sian 100
suspected 100
obvious 100
sem@@ 100
awa@@ 100
interesting 100
ation@@ 100
describe 100
conviction 100
grown 100
000 100
Drug 100
ID 100
focuses 100
bas@@ 100
juvenile 100
expensive 100
A.@@ 100
channels 100
chosen 100
pages 100
Issues 100
assignment 100
behavior 100
appointments 100
named 100
TR@@ 100
ODA 100
tension 100
wages 100
soft 100
repeated 100
Burkina 100
radiation 100
inform@@ 100
tim@@ 100
1986 100
sli@@ 100
sn@@ 100
classes 100
Em@@ 100
approve 100
foot 100
earthquake 100
sister 100
analyses 100
Faso 100
26@@ 100
eliminating 100
105 100
UNIFIL 100
generations 100
addendum 100
tory 100
prejudice 100
Ber@@ 100
measured 100
River 100
declined 100
class@@ 100
sha@@ 100
employee 100
besides 100
library 100
stressing 100
drought 100
subsidies 100
Pri@@ 100
inf@@ 100
complement 100
ii 100
seeing 100
sir 100
os@@ 100
ot 100
intensify 100
taxes 100
aring 100
bol@@ 100
shop 100
servants 100
logistical 100
stopped 100
Main 100
Procurement 100
101 100
fax 100
fulfilment 100
convening 100
impose 100
survival 100
boo@@ 100
enhancement 100
chair 100
players 100
So@@ 100
easier 100
error 100
credibility 100
selling 100
CO 100
08 100
ket 100
historic 100
por@@ 100
Leste 100
AC.@@ 100
acted 100
ky 100
Relations 100
consult 100
Tra@@ 100
elaboration 100
herself 100
IC 100
proceeds 100
sat 100
Tajikistan 100
firmly 100
liberalization 100
addresses 100
boat 100
tically 100
Corruption 100
fruit 100
land@@ 100
shelter 100
recall 100
UK 100
Developed 100
finished 100
ro 100
mm 100
decent 100
ach 100
Arms 100
ous@@ 100
applicant 100
Land 100
Area 100
retirement 100
threatened 100
sphere 100
ft 100
calculated 100
comparative 100
sm@@ 100
surveillance 100
seekers 100
rooms 100
repair 100
fol@@ 100
sentences 100
leads 100
Decree 100
Evaluation 100
Bush 100
ID@@ 100
penalties 100
memorandum 100
integrating 100
combatants 100
winter 100
enabled 100
ians 100
sole 100
ye 100
of@@ 100
disaggregated 100
Appeals 100
Emergency 100
contractors 100
Closed 100
prosecutors 100
counselling 100
There 100
bing 100
cruel 100
saving 100
catch 100
reinforce 100
tation 100
stipulated 100
clarify 100
lots 100
trip 100
argument 100
Games 100
Migration 100
merits 100
Standards 100
ace 100
FOR 100
gate 100
chaired 100
Col@@ 100
ama 100
indicating 100
safeguard 100
regimes 100
presidency 100
obtaining 100
exposed 100
06 100
esti@@ 100
expulsion 100
spec@@ 100
conf@@ 100
cy 100
ids 100
iring 100
ow 100
profile 100
See 100
ind@@ 100
Can@@ 100
Bulgaria 100
ther 100
ills 100
reaction 100
Slovenia 100
referring 100
moon 100
tangible 100
UNIFEM 100
systematically 100
pun@@ 100
ministers 100
emergencies 100
vessels 100
occasions 100
Montenegro 100
prompt 100
Sam@@ 100
restore 100
un.org 100
accounted 100
ath 100
manual 100
Least 100
scene 100
suggestion 100
progressive 100
tering 100
offset 100
concerted 100
C.@@ 100
Directorate 100
Char@@ 100
plus 100
dropped 100
emphasizing 100
ain@@ 100
Mozambique 100
malaria 100
wrote 100
budgeting 100
sor@@ 100
Sahara 100
convicted 100
adolescents 100
ll 100
int 100
momentum 100
disadvantaged 100
disclosure 100
Branch 100
inquiry 100
block 100
placement 100
110 100
inal 100
sul@@ 100
J 100
print 100
trac@@ 100
od@@ 100
Mi@@ 100
exceed 100
mil@@ 100
complexity 100
Settlements 100
exactly 100
interview 100
my@@ 100
6th 100
therein 100
deadline 100
plan@@ 100
undermine 100
star 100
USD 100
Interim 100
MONUC 100
Zimbabwe 100
couldn 100
aside 100
rendered 100
realistic 100
touch 100
incidence 100
Facility 100
Arabic 100
Is 100
likewise 100
classification 100
contemporary 100
promise 100
durable 100
í@@ 100
architecture 100
underlined 100
adding 100
thereto 100
initially 100
Work 100
twentieth 100
sick 100
delayed 100
Strip 100
chap 100
imperative 100
Ta@@ 100
cast 100
claimant 100
OP@@ 100
e.@@ 100
Ko@@ 100
doctors 100
pos@@ 100
oring 100
strike 100
IM@@ 100
enormous 100
spare 100
entrusted 100
estate 100
municipalities 100
fired 100
acquire 100
evolution 100
poly@@ 100
fil@@ 100
replied 100
cards 100
mainstream 100
grass 100
Audit 100
brings 100
Activities 100
deposit 100
movie 100
Alliance 100
employer 100
fewer 100
owners 100
zero 100
regulated 100
suddenly 100
characterized 100
complementary 100
def@@ 100
potentially 100
reiterate 100
1980 100
files 100
vis 100
worse 100
lets 100
Sector 100
slightly 100
tt@@ 100
Australian 100
promptly 100
returns 100
11.@@ 100
mp@@ 100
concentration 100
justified 100
administered 100
corporations 100
inhuman 100
serves 100
suppliers 100
bly 100
calendar 100
certification 100
Organized 100
Representatives 100
monitored 100
appoint 100
fly 100
cars 100
caught 100
102 100
deals 100
suspended 100
ports 100
coffee 100
dinner 100
methodologies 100
NE@@ 100
Syria 100
recruited 100
wave 100
feasible 100
zing 100
NEPAD 100
CONF.@@ 100
ane 100
loo@@ 100
flowers 100
Strengthening 100
outline 100
Du@@ 100
prevented 100
heavily 100
authorization 100
facto 100
Ste@@ 100
cer@@ 100
pil@@ 100
H.E. 100
gh 100
consistency 100
cease 100
emerged 100
messages 100
worst 100
Shi@@ 100
sel@@ 100
duly 100
speci@@ 100
insecurity 100
IX 100
Benin 100
asking 100
feedback 100
tre@@ 100
250 100
Chemical 100
radi@@ 100
profits 100
Combat 100
granting 100
sitting 100
conver@@ 100
presentations 100
1987 100
analyzed 100
Library 100
enshrined 100
mixed 100
Atomic 100
boundary 100
thereon 100
infection 100
layer 100
medi@@ 100
pressing 100
noise 100
occupational 100
false 100
ef@@ 100
consolidate 100
partly 100
possibly 100
tribunal 100
ink 100
answered 100
swe@@ 100
contracting 100
exceptional 100
adjusted 100
Survey 100
sport 100
yeah 100
Hol@@ 100
ny 100
bought 100
engaging 100
Educational 100
unlawful 100
suspension 100
greenhouse 100
1967 100
Cor@@ 100
acute 100
enjoyed 100
va 100
Ocean 100
tain 100
generating 100
computers 100
M. 100
cope 100
ack@@ 100
Ap@@ 100
Interior 100
protocols 100
lab@@ 100
limitation 100
SP@@ 100
til@@ 100
thou 100
tackle 100
Official 100
highlight 100
curriculum 100
attract 100
pretty 100
ATION 100
hom@@ 100
performing 100
degrading 100
7th 100
reimbursement 100
analyse 100
modified 100
desirable 100
milk 100
retain 100
Right 100
inhabitants 100
maintains 100
AS@@ 100
Libya 100
Test 100
ious 100
Air 100
uni@@ 100
documented 100
Measures 100
substantially 100
tensions 100
confirm 100
val 100
acid 100
subregion 100
ethics 100
algorithm 100
Commonwealth 100
reaffirm 100
credible 100
engine 100
roots 100
24@@ 100
dy@@ 100
Legislative 100
OR@@ 100
satisfactory 100
discovered 100
severely 100
PC 100
fee 100
haven 100
tradition 100
intends 100
regrets 100
emission 100
smooth 100
eradicate 100
aviation 100
spot 100
ick 100
attendance 100
law@@ 100
slowly 100
deprivation 100
Ge@@ 100
teen 100
tal 100
asing 100
&#124; 100
1.2 100
restoration 100
P.@@ 100
Panama 100
separately 100
dance 100
Kar@@ 100
pursuit 100
Their 100
experiment 100
1985 100
LO@@ 100
iron 100
studying 100
submits 100
acti@@ 100
fashion 100
wed 100
borne 100
prevalence 100
parent 100
But 100
measuring 100
roll 100
Consultative 100
stories 100
07 100
destination 100
tea 100
gent 100
Dec@@ 100
RIGHTS 100
viable 100
Professor 100
IL@@ 100
retained 100
rice 100
images 100
display 100
ASEAN 100
communicate 100
auspices 100
# 100
Slovakia 100
Canadian 100
GM 100
UNO@@ 100
sample 100
initiate 100
103 100
ption 100
DC 100
genetic 100
tioned 100
ben@@ 100
au 100
dre@@ 100
participatory 100
exc@@ 100
rock 100
owed 100
ven 100
yed 100
conversion 100
Biological 100
istic 100
murder 100
ulation 100
discipline 100
spite 100
ki 100
producers 100
dle 100
RO@@ 100
awarded 100
Durban 100
exercises 100
thorough 100
rac@@ 100
hi 100
encountered 100
pul@@ 100
appearance 100
ass 100
excess 100
possibilities 100
im 100
maternity 100
Officers 100
app@@ 100
0,000 100
factory 100
pursuing 100
wishing 100
CN.9 100
games 100
pick 100
existed 100
ry@@ 100
111 100
gratitude 100
Go@@ 100
telecommunications 100
regret 100
districts 100
lim@@ 100
compl@@ 100
prevailing 100
immunity 100
ecological 100
UNMIK 100
viewed 100
uniform 100
handed 100
beauty 100
Lin@@ 100
ising 100
excluded 100
lying 100
tively 100
mid@@ 100
kers 100
Journal 100
ruling 100
pleasure 100
Z 100
ultimate 100
establishes 100
GE@@ 100
visiting 100
eating 100
Tri@@ 100
grew 100
sign@@ 100
Tom 100
screen 100
2,000 100
advisers 100
convene 100
beneficial 100
ham 100
mitigate 100
questionnaire 100
ecosystem 100
TH@@ 100
ecosystems 100
indirect 100
confident 100
ick@@ 100
opposed 100
Her@@ 100
explicitly 100
secondly 100
ace@@ 100
Albania 100
branches 100
Organizations 100
affects 100
resi@@ 100
Vi@@ 100
03 100
translated 100
divi@@ 100
graduate 100
ication 100
Nor@@ 100
benefited 100
Prohibition 100
owner 100
02 100
Saharan 100
FA@@ 100
county 100
Cuban 100
partially 100
falls 100
fore@@ 100
Pension 100
pur@@ 100
vers 100
gre@@ 100
COM@@ 100
repeatedly 100
Scheme 100
invest 100
holder 100
fat 100
UNAMID 100
injuries 100
stream 100
zed 100
frequent 100
Sunday 100
notwithstanding 100
worker 100
England 100
statute 100
channel 100
PRO@@ 100
steady 100
1.1 100
College 100
urgently 100
Ni@@ 100
Ca@@ 100
appreciated 100
formally 100
Poverty 100
hel@@ 100
capita 100
104 100
upper 100
Electoral 100
classified 100
gathering 100
Tibet 100
ase 100
ound@@ 100
TE@@ 100
constantly 100
assurances 100
launching 100
ome@@ 100
prosecute 100
soul 100
surplus 100
inv@@ 100
Muslim 100
icity 100
colleagues 100
bright 100
consisting 100
Si@@ 100
UR@@ 100
creative 100
exclusive 100
With 100
ghts 100
sou@@ 100
My 100
hur@@ 100
Pen@@ 100
Stockholm 100
em 100
perspectives 100
adapt 100
compilation 100
defining 100
Country 100
cri@@ 100
fer@@ 100
workload 100
106 100
workplace 100
108 100
ater 100
definitions 100
preservation 100
select 100
duplication 100
enrolment 100
Post 100
stat@@ 100
accessibility 100
readiness 100
Ha@@ 100
Statistical 100
ideal 100
permits 100
inde@@ 100
negotiated 100
submitting 100
preparedness 100
whereby 100
finalized 100
gathered 100
Mer@@ 100
preceding 100
feasibility 100
tracking 100
CA 100
ov 100
automatic 100
crops 100
Sch@@ 100
enforce 100
publicly 100
resume 100
Uni@@ 100
za 100
IDB.@@ 100
garden 100
afford 100
observance 100
Transnational 100
Punishment 100
comp@@ 100
Senior 100
Governmental 100
CR@@ 100
partial 100
Logistics 100
pon@@ 100
poses 100
remuneration 100
certificates 100
comprises 100
drafted 100
ER 100
bre@@ 100
constitution 100
thesis 100
ranging 100
coordinator 100
usual 100
1982 100
Draft 100
printing 100
guiding 100
Iranian 100
guilty 100
Des@@ 100
brand 100
distinct 100
surrounding 100
minimize 100
sup@@ 100
Aligned 100
straight 100
Somali 100
sixtieth 100
extraordinary 100
pro 100
wine 100
reg@@ 100
familiar 100
promotes 100
summarized 100
miss 100
dress 100
add@@ 100
considerably 100
accuracy 100
wasn 100
disappearance 100
ken 100
urgency 100
newspaper 100
tom@@ 100
settled 100
sharp 100
loved 100
Dem@@ 100
calculation 100
onto 100
okay 100
compromise 100
organisations 100
sil@@ 100
Disaster 100
Xi@@ 100
23@@ 100
liquid 100
faster 100
assurance 100
visitors 100
pieces 100
revenues 100
driver 100
cited 100
Lithuania 100
marginalized 100
wor@@ 100
literature 100
Jamahiriya 100
Gra@@ 100
Gar@@ 100
refrain 100
Christmas 100
typically 100
amend 100
Administrator 100
apparent 100
minister 100
rit@@ 100
valuation 100
ans@@ 100
virus 100
wouldn 100
guard 100
Supplement 100
guy 100
Relief 100
earnings 100
counter@@ 100
enacted 100
boss 100
130 100
marks 100
Macedonia 100
Moldova 100
impartial 100
40@@ 100
fate 100
subsistence 100
minors 100
evident 100
missile 100
SecretaryGeneral 100
raw 100
Study 100
112 100
Ru@@ 100
push 100
busy 100
1373 100
Emirates 100
contributes 100
Dialogue 100
hurt 100
Basic 100
U. 100
utilized 100
ensured 100
atives 100
King 100
Malta 100
Property 100
Resolution 100
fostering 100
defense 100
budgeted 100
van@@ 100
installation 100
smuggling 100
synergies 100
unprecedented 100
bles 100
rental 100
munitions 100
.org 100
autonomy 100
eng 100
hard@@ 100
G. 100
cargo 100
withdraw 100
diagnosis 100
credentials 100
ageing 100
Italian 100
Os 100
economically 100
foundations 100
ony 100
Namibia 100
CP.@@ 100
redress 100
锛 100
Ho@@ 100
originally 100
cro@@ 100
precise 100
107 100
insul@@ 100
instability 100
obliged 100
mir@@ 100
continuity 100
hostilities 100
bid 100
Contracting 100
Tu@@ 100
bil@@ 100
returning 100
IR@@ 100
low@@ 100
skilled 100
accidents 100
2.1 100
advised 100
passing 100
04 100
flying 100
fulfilling 100
spe@@ 100
argued 100
ECA 100
innocent 100
advancing 100
exclusively 100
abortion 100
Advancement 100
ancy 100
punished 100
subscri@@ 100
feelings 100
CN@@ 100
Volunteers 100
contractor 100
gri@@ 100
policymakers 100
referendum 100
ae 100
separated 100
miles 100
Je@@ 100
115 100
IP 100
courage 100
san@@ 100
essing 100
Ra@@ 100
affordable 100
wn 100
UNMIL 100
rein@@ 100
chan@@ 100
Ser@@ 100
Housing 100
founded 100
indispensable 100
equipped 100
run@@ 100
Welfare 100
hear@@ 100
don@@ 100
ED 100
declare 100
elec@@ 100
listing 100
CAT 100
electrical 100
feed 100
鈥檚 100
formulating 100
uncertainty 100
shipment 100
arrival 100
extending 100
ceremony 100
worry 100
onic 100
hood 100
indication 100
oms 100
Order 100
pledges 100
characteristic 100
resort 100
fro@@ 100
deb@@ 100
relatives 100
sustain 100
instruction 100
inc@@ 100
Li 100
helpful 100
Ter@@ 100
desk 100
farm 100
1.5 100
dont 100
ero@@ 100
cas@@ 100
1. 100
solely 100
codes 100
deficit 100
ination 100
aling 100
operated 100
CC 100
Ji@@ 100
prohibit 100
childhood 100
wise 100
Mediterranean 100
NO@@ 100
epidemic 100
unknown 100
Hall 100
ceasefire 100
sin@@ 100
describes 100
Dominican 100
Industry 100
201@@ 100
Monetary 100
experimental 100
plate 100
meat 100
poorest 100
executed 100
fun 100
， 100
UNDCP 100
resolving 100
firearms 100
audience 100
designing 100
Document 100
dri@@ 100
endeavour 100
complicated 100
pillars 100
perceived 100
114 100
demographic 100
CE 100
validity 100
fallen 100
separ@@ 100
TS 100
updating 100
damaged 100
chronic 100
succeed 100
Bra@@ 100
permission 100
damages 100
116 100
Mc@@ 100
duc@@ 100
enn@@ 100
Yugoslav 100
assure 100
laboratory 100
battle 100
San@@ 100
ss 100
curricula 100
wil@@ 100
UNOCI 100
profound 100
hen@@ 100
alist 100
logical 100
Jesus 100
Kyrgyzstan 100
edge 100
ko@@ 100
qualifications 100
May@@ 100
sons 100
robust 100
iling 100
confidential 100
not@@ 100
advise 100
Fu@@ 100
Hy@@ 100
hol@@ 100
ion 100
essentially 100
Former 100
orate 100
solar 100
Hague 100
Michael 100
lending 100
Atlantic 100
Ben@@ 100
IV@@ 100
reminded 100
stakeholder 100
aded 100
judgment 100
additionally 100
lam@@ 100
dering 100
How 100
infant 100
walked 100
stly 100
ECOWAS 100
recipient 100
yield 100
automatically 100
allocate 100
Honduras 100
cel@@ 100
continuously 100
Resource 100
red@@ 100
HR@@ 100
normative 100
degrees 100
broke 100
enti@@ 100
109 100
mankind 100
Capital 100
yl@@ 100
&lt; 100
Swiss 100
pair 100
escape 100
towns 100
acknowledge 100
aren 100
departure 100
White 100
oceans 100
Do@@ 100
globally 100
upgrading 100
At 100
boost 100
bo 100
clo@@ 100
Envoy 100
adherence 100
Independence 100
registry 100
fies 100
med@@ 100
yp@@ 100
soci@@ 100
IO@@ 100
tional 100
admission 100
hardly 100
At@@ 100
Analysis 100
HR 100
The@@ 100
eable 100
highlights 100
fault 100
regulate 100
advertising 100
legitimacy 100
din@@ 100
imp@@ 100
weekly 100
unified 100
US@@ 100
sad 100
50,000 100
plastic 100
tains 100
Latvia 100
fissile 100
admitted 100
specify 100
kilometres 100
choices 100
residential 100
113 100
everybody 100
geographic 100
interface 100
statutory 100
thoughts 100
Medical 100
Trial 100
rare 100
buyer 100
appraisal 100
forming 100
phases 100
vary 100
Annual 100
iness 100
pledged 100
List 100
bird 100
gener@@ 100
inary 100
narrow 100
formula 100
rem@@ 100
governed 100
decolonization 100
smile 100
lift 100
rescue 100
je@@ 100
furniture 100
9th 100
route 100
clothing 100
condemned 100
sending 100
elaborate 100
Appeal 100
Bahrain 100
nonetheless 100
Taliban 100
examining 100
inherent 100
IA 100
Val@@ 100
configuration 100
ads 100
bit@@ 100
hole 100
venue 100
aff@@ 100
forestry 100
gn@@ 100
skill 100
networking 100
proposes 100
hate 100
utmost 100
efficiently 100
OSCE 100
supposed 100
offenders 100
till 100
horse 100
Bangkok 100
plo@@ 100
aspirations 100
obviously 100
fairly 100
scre@@ 100
Paraguay 100
colour 100
25@@ 100
sin 100
lowest 100
UNCCD 100
collecting 100
ino 100
islands 100
2.5 100
comparable 100
gy@@ 100
wer 100
unemployed 100
securing 100
holiday 100
ulate 100
fulfilled 100
ath@@ 100
mere 100
constitu@@ 100
CM@@ 100
privacy 100
controlling 100
friendship 100
simulation 100
2.2 100
harmony 100
ozone 100
qui@@ 100
prefer 100
environments 100
ences 100
Ban@@ 100
defend 100
runs 100
walking 100
visible 100
IG@@ 100
diversification 100
100,000 100
ala 100
MS 100
Ps 100
directors 100
ensures 100
ko 100
predictable 100
rence 100
illness 100
acknowledging 100
Institutions 100
conscious 100
finish 100
George 100
birds 100
pt 100
kids 100
XI 100
bun@@ 100
livelihoods 100
,@@ 100
gift 100
commonly 100
cuts 100
typical 100
stereotypes 100
watching 100
verify 100
payable 100
fra@@ 100
Presidents 100
prime 100
supportive 100
interviews 100
118 100
Academy 100
Niger 100
rea@@ 100
collaborative 100
investigating 100
baseline 100
challenging 100
CS@@ 100
deposits 100
tations 100
divorce 100
Reform 100
processed 100
proceeding 100
thirds 100
sion@@ 100
cultivation 100
redeployment 100
Mary 100
Kuwaiti 100
bonds 100
occurs 100
assumption 100
lawful 100
arguments 100
Follow 100
planet 100
associate 100
cat@@ 100
ades 100
1978 100
databases 100
weigh@@ 100
therapy 100
Fo@@ 100
eth@@ 100
wild 100
itate 100
tru@@ 100
sa 100
ek 100
mineral 100
meets 100
JIU 100
opposite 100
reverse 100
PS 100
smoke 100
reinforcing 100
distor@@ 100
executions 100
pers 100
Is@@ 100
irs 100
Djibouti 100
foreigners 100
Estonia 100
122 100
UNC@@ 100
visual 100
smo@@ 100
Hel@@ 100
reflection 100
cour@@ 100
Workers 100
ECE 100
Note 100
wonder 100
kg 100
proven 100
shed 100
sheet 100
annexes 100
operators 100
person@@ 100
.The 100
buying 100
Fiji 100
ail@@ 100
ain 100
117 100
capit@@ 100
sees 100
tun@@ 100
tobacco 100
shipping 100
ethical 100
delivering 100
new@@ 100
thanked 100
debates 100
stick 100
totally 100
settings 100
Comm@@ 100
Free 100
promising 100
traditions 100
wo@@ 100
Studies 100
dear 100
obstacle 100
licence 100
struck 100
phrase 100
marking 100
Fe@@ 100
TD 100
Culture 100
gun 100
ening 100
tonight 100
concentrated 100
proc@@ 100
shortly 100
bone 100
slavery 100
comfortable 100
repl@@ 100
interpreted 100
Ju@@ 100
sweet 100
Peter 100
wards 100
dou@@ 100
player 100
Program 100
dies 100
flag 100
vacancies 100
angle 100
clause 100
vit@@ 100
protective 100
Data 100
attending 100
corner 100
carrier 100
geo@@ 100
smoking 100
awards 100
negotiate 100
micro 100
oper@@ 100
acknowledges 100
inspections 100
applicants 100
unlikely 100
Cs 100
vice 100
locally 100
elled 100
arrive 100
ole 100
elect 100
pped 100
church 100
Pa@@ 100
portfolio 100
Luxembourg 100
ali 100
160 100
Narcotic 100
real@@ 100
ential 100
retention 100
Ms 100
divisions 100
Base 100
LA@@ 100
attempted 100
teach 100
Togo 100
Equal 100
venture 100
Records 100
14.@@ 100
Gi@@ 100
destroy 100
bag 100
modernization 100
lear@@ 100
commends 100
motor 100
ading 100
Bas@@ 100
accorded 100
pornography 100
dan@@ 100
park 100
attributed 100
genital 100
inequalities 100
symbol 100
with@@ 100
prof@@ 100
SCO 100
simultaneously 100
recording 100
cher 100
thee 100
outset 100
Monterrey 100
ress 100
responsive 100
Your 100
Commerce 100
ear 100
inadmissible 100
itting 100
pupils 100
tings 100
predic@@ 100
Cypriot 100
Goal 100
fragile 100
rational 100
breaking 100
silence 100
diver@@ 100
click 100
beat 100
ner@@ 100
LORD 100
samples 100
scri@@ 100
telling 100
Life 100
ESCWA 100
10,000 100
bases 100
Gulf 100
undertook 100
toxic 100
ude 100
exercising 100
realities 100
ought 100
installed 100
ili@@ 100
settle 100
verbale 100
ja 100
wherever 100
clu@@ 100
adjust 100
elaborated 100
expense 100
Voluntary 100
fiftieth 100
Iceland 100
notion 100
analysed 100
1981 100
calm 100
chairman 100
ep 100
ey 100
unacceptable 100
condi@@ 100
ani 100
PL@@ 100
snow 100
ata 100
religions 100
eration 100
liable 100
ide@@ 100
119 100
cing 100
imported 100
Bur@@ 100
football 100
releases 100
140 100
CF@@ 100
column 100
Malawi 100
Related 100
storm 100
1.3 100
ush@@ 100
crop 100
insolvency 100
happens 100
ists 100
wisdom 100
domain 100
rank 100
exercised 100
ints 100
seas 100
Conflict 100
voters 100
tired 100
Bel@@ 100
ore@@ 100
SU@@ 100
lers 100
inner 100
strive 100
CB@@ 100
hatred 100
harmonized 100
tability 100
quiet 100
summits 100
Tr@@ 100
13.@@ 100
1984 100
nominated 100
justify 100
bes 100
creditors 100
officially 100
writer 100
Ku@@ 100
discussing 100
explo@@ 100
nongovernmental 100
TION 100
Body 100
deterioration 100
spoken 100
evaluated 100
mechanical 100
Golan 100
alcohol 100
125 100
Registrar 100
passage 100
rob@@ 100
Lao 100
decentralization 100
lor@@ 100
path@@ 100
unlike 100
reliance 100
radioactive 100
na 100
Desertification 100
fire@@ 100
sible 100
descent 100
evaluating 100
UNITAR 100
rough 100
coast 100
oma 100
liber@@ 100
census 100
rap@@ 100
Standard 100
contingency 100
metres 100
Samoa 100
Wang 100
arranged 100
medicines 100
boards 100
rers 100
band 100
announcement 100
streets 100
empty 100
wake 100
thin 100
song 100
govern@@ 100
everywhere 100
reinforced 100
eli@@ 100
appropriately 100
taught 100
van 100
seller 100
Powers 100
\ 100
forever 100
justification 100
eleventh 100
tribunals 100
eness 100
placing 100
recurrent 100
younger 100
Royal 100
foot@@ 100
passengers 100
valued 100
witnessed 100
Corporation 100
Additional 100
thereafter 100
lesson 100
Paul 100
restaurant 100
stabilization 100
imag@@ 100
Conduct 100
unpaid 100
Congolese 100
Sir 100
exceptions 100
jurisprudence 100
fellow 100
15.@@ 100
traditionally 100
mobilizing 100
External 100
Organisation 100
crossing 100
shoes 100
killings 100
Wal@@ 100
Accounting 100
q 100
practitioners 100
book@@ 100
fun@@ 100
marry 100
preferred 100
arrange 100
Round 100
SMEs 100
breakdown 100
di 100
sincere 100
CN.@@ 100
allowances 100
mistake 100
kindly 100
Ri@@ 100
any@@ 100
doc@@ 100
Da@@ 100
Soviet 100
tenure 100
km 100
sely 100
somewhat 100
guideline 100
refuse 100
nationally 100
threshold 100
sy 100
evolving 100
ouring 100
proud 100
pe 100
assured 100
explicit 100
structured 100
Turkmenistan 100
Haitian 100
kin@@ 100
refusal 100
du 100
flat 100
manifestations 100
possess 100
amounting 100
tric 100
Forests 100
silver 100
withdrawn 100
Botswana 100
managerial 100
allocations 100
answers 100
Regulation 100
congratulate 100
ax@@ 100
inqu@@ 100
NATO 100
economics 100
stro@@ 100
Tokyo 100
io 100
throw 100
module 100
Tokelau 100
dro@@ 100
Brussels 100
Conferences 100
electro@@ 100
Systems 100
Wall 100
usage 100
Park 100
introduces 100
peer 100
sym@@ 100
Saturday 100
joy 100
transboundary 100
123 100
Christian 100
ium 100
vessel 100
dent 100
revolution 100
Madrid 100
pping 100
demonstration 100
hou@@ 100
zz@@ 100
stipulates 100
stor@@ 100
creates 100
ck 100
pillar 100
rup@@ 100
immigrants 100
ist@@ 100
reimbur@@ 100
spokesman 100
Communication 100
Oc@@ 100
Works 100
optional 100
journey 100
humans 100
nic@@ 100
lea@@ 100
lif@@ 100
nobody 100
piracy 100
punish 100
reliability 100
abolition 100
War@@ 100
dig@@ 100
testimony 100
Barbados 100
club 100
debris 100
Common 100
nation@@ 100
virtue 100
crowd 100
shortage 100
1973 100
Production 100
graphic 100
participant 100
leg@@ 100
intensified 100
commentary 100
wearing 100
personality 100
ratifying 100
top@@ 100
turns 100
advocate 100
Moscow 100
Decolonization 100
cru@@ 100
Liechtenstein 100
euro 100
tis 100
salt 100
theoretical 100
losing 100
quantitative 100
121 100
Rel@@ 100
specialists 100
sum@@ 100
desired 100
missiles 100
flights 100
distinguished 100
satisfy 100
AS 100
benchmarks 100
cool 100
Consensus 100
solving 100
1949 100
conten@@ 100
exp@@ 100
ards 100
workforce 100
ories 100
patri@@ 100
Mag@@ 100
surprise 100
independently 100
alive 100
excluding 100
parliament 100
Diversity 100
Pat@@ 100
Aid 100
maximize 100
3,000 100
glad 100
eds 100
OAU 100
underscored 100
spar@@ 100
posted 100
succession 100
denial 100
excuse 100
Ram@@ 100
Unity 100
blind 100
dam@@ 100
sit@@ 100
H. 100
Election 100
hosting 100
agrees 100
motivated 100
screening 100
evil 100
malnutrition 100
bis 100
ica 100
2020 100
criticism 100
timetable 100
cho@@ 100
render 100
vol@@ 100
Chan@@ 100
promulgated 100
OD@@ 100
violate 100
imagine 100
Distr 100
nec@@ 100
Prosecution 100
impartiality 100
lady 100
J. 100
hun@@ 100
Add.2 100
circulation 100
audits 100
ell 100
Ger@@ 100
Account 100
yah 100
navigation 100
Treasury 100
tened 100
dental 100
intend 100
appealed 100
Commander 100
bled 100
utility 100
On@@ 100
quar@@ 100
sting 100
spo@@ 100
FO@@ 100
Further 100
Final 100
enables 100
sugar 100
ide 100
They 100
earned 100
resilience 100
decisive 100
begins 100
confirmation 100
wording 100
Where 100
peak 100
Ali 100
receives 100
avoiding 100
ishes 100
tel@@ 100
supplied 100
Madagascar 100
Workshop 100
Ensure 100
capture 100
apparently 100
consist 100
sh 100
Level 100
sequ@@ 100
stars 100
acceded 100
3.1 100
countering 100
Rem@@ 100
Maritime 100
Cape 100
blo@@ 100
voted 100
INF 100
births 100
CD@@ 100
Ed@@ 100
sho@@ 100
remind 100
sla@@ 100
lic@@ 100
Consul@@ 100
puts 100
Rob@@ 100
if@@ 100
2.3 100
accomplished 100
there@@ 100
mix 100
oning 100
.I 100
ately 100
disparities 100
guess 100
wonderful 100
fails 100
Prince 100
emotional 100
thi@@ 100
prosecuted 100
180 100
holistic 100
accommodate 100
attractive 100
orbit 100
accelerated 100
ull 100
server 100
aforementioned 100
guards 100
patrol 100
stic 100
diet 100
AP 100
utilize 100
Bal@@ 100
Tribunals 100
visa 100
shut 100
ac 100
decree 100
broadly 100
Registry 100
imposition 100
Decision 100
investing 100
Bolivarian 100
irrespective 100
absolutely 100
Ver@@ 100
turing 100
1979 100
virtually 100
dem@@ 100
38@@ 100
Number 100
tendency 100
AN 100
St. 100
remarkable 100
UNMIS 100
conversation 100
lat@@ 100
alien 100
Green 100
Mine 100
sand 100
Capacity 100
eless 100
vals 100
quanti@@ 100
Cap@@ 100
synthesis 100
SR 100
ounded 100
incorporating 100
belong 100
met@@ 100
honest 100
counterparts 100
deploy 100
hem@@ 100
fre@@ 100
resettlement 100
Articles 100
reputation 100
fuels 100
novel 100
Chi@@ 100
gather 100
jurisdictions 100
hey 100
arch@@ 100
rolling 100
briefed 100
communicated 100
ok@@ 100
optimal 100
weekend 100
2016 100
prominent 100
rain@@ 100
routine 100
identical 100
CT@@ 100
EU@@ 100
EM 100
Sec@@ 100
freeze 100
dust 100
sponsoring 100
Matters 100
bond 100
politicians 100
politically 100
Fun@@ 100
apped 100
Personal 100
here@@ 100
ign@@ 100
gy 100
mentation 100
victory 100
Tor@@ 100
shopping 100
survivors 100
Jean 100
comprise 100
set@@ 100
tribute 100
grain 100
concludes 100
nt 100
arbitral 100
Bri@@ 100
clarified 100
ss@@ 100
tery 100
yellow 100
taste 100
Woods 100
atively 100
tears 100
shortcomings 100
threaten 100
diplomacy 100
ography 100
strange 100
cop@@ 100
lon@@ 100
pull 100
drivers 100
stating 100
Mat@@ 100
recession 100
Colonial 100
abstentions 100
notify 100
Maldives 100
attacked 100
Register 100
124 100
155 100
UNAIDS 100
coll@@ 100
impl@@ 100
upcoming 100
sy@@ 100
ams 100
Ke@@ 100
Press 100
Holy 100
I.@@ 100
dominant 100
Judge 100
153 100
ah@@ 100
intimidation 100
Rev@@ 100
handled 100
mation 100
promised 100
characters 100
commencement 100
standardized 100
angry 100
Jack 100
detect 100
Judicial 100
Suppression 100
attainment 100
divide 100
issuing 100
stan@@ 100
default 100
Application 100
entrepreneurs 100
Copenhagen 100
Chairs 100
ffe@@ 100
Fi@@ 100
realizing 100
vate 100
dreams 100
installations 100
UNU 100
dismissed 100
disappeared 100
machines 100
compound 100
MINUSTAH 100
exact 100
Puerto 100
milit@@ 100
presenting 100
resumption 100
disseminated 100
burning 100
Parliamentary 100
port@@ 100
amp 100
oli@@ 100
printed 100
isolation 100
respondents 100
fertility 100
flo@@ 100
day@@ 100
unnecessary 100
1540 100
instruc@@ 100
Responsible 100
volunteers 100
guaranteeing 100
supplement 100
tariff 100
directions 100
spouse 100
prop@@ 100
cry 100
ligh@@ 100
Manual 100
attain 100
bers 100
eu@@ 100
virtual 100
sia 100
ord@@ 100
ration 100
Johannesburg 100
updates 100
ECLAC 100
coordinates 100
Steering 100
quantities 100
substitute 100
es.@@ 100
128 100
arity 100
bigger 100
experiments 100
cin@@ 100
gam@@ 100
forecast 100
tent 100
recover 100
females 100
prosecutor 100
Olympics 100
broadcast 100
rotation 100
adds 100
gence 100
Insurance 100
failing 100
commenced 100
scenario 100
Guyana 100
LA 100
licensing 100
132 100
timing 100
exhausted 100
institutes 100
oned 100
investigative 100
Mauritania 100
incorporation 100
receivable 100
expects 100
Equ@@ 100
tle 100
ambitious 100
Immigration 100
alternate 100
mes 100
18.@@ 100
Practice 100
op 100
constructed 100
CRP.@@ 100
adapted 100
Dar@@ 100
Arbitration 100
emergence 100
Pur@@ 100
ibid 100
Mil@@ 100
spheres 100
138 100
weaknesses 100
argues 100
pal@@ 100
sudden 100
reserved 100
diamond 100
tionally 100
earn 100
briefly 100
feels 100
Jud@@ 100
casualties 100
travel@@ 100
breast 100
penal 100
CDM 100
bor@@ 100
atal 100
diamonds 100
Sar@@ 100
prolonged 100
Governor 100
Personnel 100
hearings 100
lar@@ 100
tour 100
suicide 100
Zone 100
err@@ 100
ion@@ 100
Marine 100
terrible 100
fold 100
iti@@ 100
ounding 100
GA 100
Ye@@ 100
assumptions 100
She@@ 100
SS@@ 100
carries 100
ration@@ 100
semi 100
painting 100
tank 100
hill 100
viol@@ 100
convey 100
coun@@ 100
certified 100
hardware 100
miscellaneous 100
abilities 100
y.@@ 100
sen 100
oblig@@ 100
inated 100
lacking 100
twelfth 100
abide 100
ens@@ 100
vers@@ 100
intent 100
134 100
limiting 100
wondered 100
infected 100
convenient 100
Ltd 100
itor 100
aligned 100
regi@@ 100
foods 100
militia 100
onal 100
linking 100
rarely 100
sty 100
beliefs 100
JS@@ 100
coordinators 100
3.2 100
CERD 100
Page 100
collapse 100
ith 100
smart 100
regulating 100
Cairo 100
draws 100
cement 100
qualification 100
UNFCCC 100
AMISOM 100
revi@@ 100
secretariats 100
birthday 100
moder@@ 100
profession 100
Baghdad 100
WP.@@ 100
license 100
Illicit 100
rapporteurs 100
2017 100
preambular 100
arian 100
grand@@ 100
wit@@ 100
shor@@ 100
deleted 100
spectrum 100
rol@@ 100
earmarked 100
hyper@@ 100
ich 100
pic@@ 100
ston 100
clarity 100
kin 100
sounds 100
supplier 100
wers 100
analysts 100
dat@@ 100
Up@@ 100
cleaning 100
questioned 100
uphold 100
exit 100
parental 100
Sudanese 100
livelihood 100
2. 100
circled 100
talent 100
pictures 100
objec@@ 100
stuff 100
log@@ 100
Hon@@ 100
Op@@ 100
ght 100
Cal@@ 100
emp@@ 100
adversely 100
stored 100
examinations 100
underlines 100
ashed 100
newspapers 100
neighbours 100
ride 100
universality 100
proactive 100
herewith 100
ature 100
landscape 100
discretion 100
incomes 100
walls 100
AI 100
OS 100
modest 100
warned 100
Do 100
126 100
ballot 100
assault 100
incompatible 100
HK@@ 100
entrepreneurship 100
isolated 100
entr@@ 100
explored 100
ind 100
magnitude 100
worthy 100
astic 100
reli@@ 100
static 100
consulted 100
meal 100
promises 100
wounded 100
Addis 100
aire 100
marriages 100
colonial 100
ada 100
1983 100
physi@@ 100
Degrading 100
Sol@@ 100
CP 100
Sen@@ 100
berg 100
moves 100
farming 100
ton@@ 100
vic@@ 100
native 100
Coordinating 100
surely 100
clearing 100
aiming 100
marke@@ 100
CB 100
claimants 100
1,0@@ 100
circuit 100
Adoption 100
chart 100
Cabinet 100
fla@@ 100
extrajudicial 100
prospect 100
Rule 100
panels 100
aliens 100
developmental 100
adhere 100
compatible 100
neutral 100
pertinent 100
Two 100
sessional 100
collectively 100
liquidation 100
saved 100
essence 100
tured 100
upgrade 100
iss@@ 100
Rom@@ 100
Bretton 100
Ababa 100
mapping 100
Pal@@ 100
preference 100
knowing 100
corrections 100
Inhuman 100
council 100
listening 100
Violations 100
noticed 100
Trinidad 100
Bou@@ 100
guys 100
organ@@ 100
stimulate 100
ray 100
monitors 100
ome 100
spouses 100
shoulder 100
Victims 100
attaches 100
acks 100
programmatic 100
revitalization 100
cat 100
nationwide 100
warrant 100
Bro@@ 100
dynamics 100
abandoned 100
invested 100
prohibits 100
restrict 100
Ob@@ 100
Table 100
tens 100
twelve 100
Pol@@ 100
accreditation 100
Coun@@ 100
abl@@ 100
reconnaissance 100
interdependence 100
commun@@ 100
indirectly 100
dumping 100
thirteenth 100
satellites 100
cooperating 100
precisely 100
intersessional 100
Qaida 100
returnees 100
varied 100
kets 100
gradual 100
simpl@@ 100
dish 100
prohibiting 100
bills 100
comm@@ 100
ticket 100
tonnes 100
mutilation 100
Care 100
EL@@ 100
author@@ 100
corporal 100
135 100
earliest 100
pure 100
ond 100
ICRC 100
confidentiality 100
WG@@ 100
Rwandan 100
48@@ 100
Serious 100
revisions 100
bn 100
dar@@ 100
eve 100
Granting 100
railway 100
dramatic 100
ural 100
sto@@ 100
wel@@ 100
XV 100
tail 100
SAR 100
read@@ 100
debtor 100
currencies 100
dependence 100
Tax 100
Reserve 100
pensions 100
perception 100
publish 100
conscience 100
CCW 100
3.3 100
lion 100
tender 100
silent 100
SR@@ 100
exceeding 100
Por@@ 100
gravity 100
lights 100
consultant 100
declining 100
CEB 100
129 100
1.15 100
secretary 100
pet 100
appropriations 100
wet 100
disclosed 100
inten@@ 100
threatening 100
California 100
2.4 100
dict@@ 100
182 100
GC.@@ 100
Mad@@ 100
arri@@ 100
Lakes 100
magazine 100
Agricultural 100
Urban 100
spiritual 100
expressly 100
objections 100
incentive 100
NATIONS 100
misconduct 100
toler@@ 100
sexually 100
quota 100
boundaries 100
criterion 100
creditor 100
gation 100
MT@@ 100
Mis@@ 100
purchasing 100
Exchange 100
checks 100
affirmed 100
Ara@@ 100
terror 100
Time 100
win@@ 100
blocks 100
pressed 100
deferred 100
versions 100
intensity 100
lunch 100
steadily 100
comman@@ 100
avoided 100
qualitative 100
apo@@ 100
revise 100
127 100
modules 100
ker@@ 100
Guam 100
anda 100
HUMAN 100
doors 100
intense 100
anger 100
ases 100
freight 100
IMO 100
16.@@ 100
legisl@@ 100
ays 100
tioning 100
him@@ 100
ser 100
ots 100
transl@@ 100
0,@@ 100
STA@@ 100
cli@@ 100
exploring 100
concentrate 100
urbanization 100
alleviate 100
enquiry 100
cont@@ 100
dangers 100
zy 100
extr@@ 100
lit@@ 100
pressures 100
Martin 100
Port 100
UL@@ 100
bi 100
mountains 100
ition 100
HK 100
Tobago 100
feeding 100
chi@@ 100
comfort 100
disappearances 100
Cu@@ 100
ides 100
itted 100
patent 100
Attorney 100
Cam@@ 100
elev@@ 100
CL@@ 100
133 100
waves 100
correctly 100
ied 100
tile 100
retail 100
ures 100
discusses 100
linguistic 100
brothers 100
expedite 100
variance 100
endeavours 100
rot@@ 100
stores 100
Senate 100
shi@@ 100
tight 100
flood 100
systemic 100
likes 100
recourse 100
Cruel 100
defines 100
deri@@ 100
OK 100
ples 100
respects 100
thoroughly 100
Pan@@ 100
hazard 100
fears 100
Gabon 100
ison 100
mistakes 100
Against 100
Tourism 100
sensing 100
accord 100
alleviation 100
Cy@@ 100
crimin@@ 100
sures 100
analysing 100
operates 100
pour 100
AM@@ 100
itated 100
surgery 100
custom 100
chairs 100
dow@@ 100
landmines 100
dered 100
filing 100
reveal 100
Res@@ 100
inalienable 100
lob@@ 100
irregular 100
oth 100
produces 100
professor 100
unanimously 100
positively 100
cessation 100
ender 100
comple@@ 100
tant 100
cup 100
ere 100
cam@@ 100
Domestic 100
blow 100
mate 100
shadow 100
nineteenth 100
influenced 100
sake 100
socially 100
Smith 100
succeeded 100
spl@@ 100
accredited 100
hin@@ 100
privileges 100
restriction 100
confi@@ 100
projections 100
popul@@ 100
Bhutan 100
halt 100
tious 100
ater@@ 100
illa 100
renewal 100
Ou@@ 100
Spe@@ 100
she@@ 100
arm@@ 100
tening 100
norm@@ 100
tough 100
keeps 100
supervisory 100
1.4 100
aching 100
ard@@ 100
proceeded 100
sponsor 100
penetr@@ 100
talked 100
PRE@@ 100
MA 100
Commercial 100
sibility 100
ric 100
translate 100
philosophy 100
reasonably 100
wedding 100
appendix 100
Aviation 100
wal@@ 100
AT 100
Home 100
inconsistent 100
AF@@ 100
routes 100
rid 100
designate 100
ap 100
GS 100
PP@@ 100
Liberation 100
tied 100
taxation 100
XII 100
1970 100
bread 100
character@@ 100
joining 100
specialist 100
tial 100
ene 100
tives 100
20,000 100
circle 100
civilization 100
hide 100
meantime 100
mur@@ 100
errors 100
expendable 100
tho@@ 100
dogs 100
notified 100
lease 100
accede 100
dum@@ 100
Natural 100
starts 100
racist 100
lec@@ 100
leg 100
reparation 100
coat 100
fr@@ 100
deny 100
raises 100
pac@@ 100
ree 100
Out@@ 100
Rural 100
Engineering 100
centred 100
Cur@@ 100
accumulation 100
safeguarding 100
FD@@ 100
deficiency 100
nur@@ 100
debts 100
flower 100
illiteracy 100
gene@@ 100
modification 100
even@@ 100
exceeded 100
respecting 100
tual 100
seed 100
bulk 100
temporarily 100
tie 100
00,000 100
filling 100
mindful 100
quarterly 100
authorize 100
density 100
patrols 100
Statement 100
AG@@ 100
exemption 100
ups 100
gers 100
stered 100
cure 100
shareholders 100
olo@@ 100
photo 100
II.@@ 100
UNFICYP 100
Liberian 100
eliminated 100
segments 100
defendant 100
pled 100
long@@ 100
prerequisite 100
Ph@@ 100
Rotterdam 100
ji@@ 100
commend 100
chains 100
departmental 100
incumbent 100
windows 100
inventories 100
passenger 100
subprogrammes 100
nity 100
surprised 100
fur@@ 100
contributors 100
suspect 100
OC 100
removing 100
thermal 100
transform 100
4.1 100
introductory 100
ori 100
everyday 100
shar@@ 100
individually 100
endorses 100
recosting 100
Mac@@ 100
News 100
naturally 100
Mainland 100
She 100
insur@@ 100
argue 100
Investigation 100
cotton 100
141 100
Chemicals 100
hell 100
ink@@ 100
logic 100
platforms 100
rul@@ 100
ble@@ 100
incitement 100
amed 100
indicative 100
hazards 100
ini@@ 100
extra@@ 100
Sexual 100
Establishment 100
Light 100
internet 100
recovered 100
hostile 100
aches 100
explosives 100
lifting 100
alignment 100
thinks 100
Sil@@ 100
flag@@ 100
annexed 100
ales 100
arti@@ 100
relocation 100
Outcome 100
Yu@@ 100
risen 100
19.@@ 100
Harry 100
persistence 100
syn@@ 100
matrix 100
readily 100
esting 100
completing 100
explanations 100
perpetrated 100
Er@@ 100
alo@@ 100
elines 100
continental 100
dev@@ 100
hall 100
inability 100
loading 100
sensitivity 100
sof@@ 100
169 100
Papua 100
Stat@@ 100
publishing 100
Summary 100
ordin@@ 100
vari@@ 100
attach 100
high@@ 100
17.@@ 100
cere@@ 100
breaks 100
shock 100
sco@@ 100
ano 100
demonstrates 100
CMP 100
sing@@ 100
ever@@ 100
ref@@ 100
Multilateral 100
Sim@@ 100
compare 100
1975 100
idi@@ 100
mb@@ 100
ruled 100
invoked 100
roster 100
Br@@ 100
graphy 100
Response 100
deal@@ 100
jun@@ 100
Nu@@ 100
hang 100
neck 100
Presidency 100
Istanbul 100
fifteenth 100
gged 100
ney 100
tremendous 100
vo 100
hypo@@ 100
endorsement 100
jump 100
wid@@ 100
kitchen 100
ech@@ 100
Americas 100
Pi@@ 100
barrier 100
giant 100
vertical 100
hidden 100
ols 100
somebody 100
Blue 100
adolescent 100
ago@@ 100
height 100
lah 100
infections 100
ems 100
tongue 100
disseminating 100
solved 100
1980s 100
Stra@@ 100
array 100
shelters 100
Amendment 100
wars 100
Lic@@ 100
camera 100
stake 100
rocket 100
teeth 100
entail 100
3.5 100
S.@@ 100
periodically 100
renew 100
spatial 100
mal 100
reads 100
consulting 100
1974 100
psych@@ 100
Genocide 100
4.2 100
repeat 100
ould 100
131 100
K. 100
warming 100
policymaking 100
cheap 100
ries 100
ographic 100
mag@@ 100
Governance 100
ignored 100
Cl@@ 100
unusual 100
commence 100
Goods 100
Swedish 100
contingents 100
arities 100
BO@@ 100
cancellation 100
uranium 100
ush 100
Seminar 100
Long 100
websites 100
CARICOM 100
RES 100
winning 100
Be 100
162 100
Resident 100
graduates 100
marital 100
Eradication 100
occurring 100
ounce 100
illegally 100
Wil@@ 100
margin 100
hat 100
Bonn 100
highlighting 100
suspects 100
inheritance 100
aming 100
basically 100
eligibility 100
142 100
vil@@ 100
punishable 100
conceptual 100
EA 100
induced 100
progres@@ 100
Danish 100
Peaceful 100
chapters 100
锛@@ 100
discriminate 100
uck 100
instalment 100
thro@@ 100
145 100
COMMITTEE 100
small@@ 100
wrongful 100
Ti@@ 100
ises 100
couples 100
arrears 100
zation 100
favorite 100
hygiene 100
thers 100
simul@@ 100
alike 100
transi@@ 100
verified 100
136 100
tivity 100
implies 100
nomination 100
part@@ 100
modern@@ 100
Registration 100
dad 100
gases 100
audio 100
Construction 100
operator 100
sid@@ 100
impression 100
aggregate 100
4,000 100
tragic 100
ITC 100
vy 100
heaven 100
atten@@ 100
Programmes 100
industrialized 100
alled 100
generous 100
switch 100
time@@ 100
ari 100
Letter 100
visibility 100
artificial 100
precious 100
jum@@ 100
Pres@@ 100
liver 100
yan 100
stem 100
yn@@ 100
Gibraltar 100
Pr@@ 100
nam@@ 100
detected 100
apportionment 100
dol@@ 100
xed 100
gue 100
accelerating 100
num@@ 100
tiny 100
nose 100
ti 100
vating 100
Racism 100
OP 100
Robert 100
categor@@ 100
heating 100
frozen 100
united 100
clock 100
personally 100
prob@@ 100
honor 100
than@@ 100
blame 100
confiscation 100
han 100
consolidating 100
Macao 100
phones 100
socialist 100
à 100
legality 100
males 100
Im 100
Market 100
protein 100
harmonious 100
watched 100
RT 100
oted 100
Liaison 100
picked 100
email 100
sic 100
del 100
bin 100
Take 100
modify 100
~ 100
loaded 100
empower 100
139 100
Direc@@ 100
6,000 100
comprised 100
investor 100
whe@@ 100
By 100
Cre@@ 100
workplan 100
accomplishment 100
Lan@@ 100
yard 100
SO 100
explains 100
jec@@ 100
ound 100
wire 100
ki@@ 100
packages 100
sle@@ 100
fathers 100
Chin@@ 100
Integration 100
symptoms 100
attracted 100
reproduced 100
devastating 100
ices 100
assa@@ 100
demonstrations 100
rejection 100
sively 100
IL 100
harmonize 100
surge 100
occurrence 100
tot@@ 100
Line 100
ld@@ 100
oph@@ 100
hardship 100
nor@@ 100
grades 100
EM@@ 100
Mic@@ 100
chlor@@ 100
4.5 100
shr@@ 100
tone 100
Lesotho 100
violating 100
tall 100
Gal@@ 100
Islam 100
deficiencies 100
corporation 100
B.@@ 100
cer 100
Based 100
ON@@ 100
Chambers 100
detec@@ 100
verse 100
encies 100
prescri@@ 100
deeper 100
differential 100
neglect 100
Far@@ 100
broadcasting 100
precision 100
luck 100
nominations 100
photograph@@ 100
actor 100
coalition 100
mortgage 100
vacant 100
Committed 100
lake 100
Inspectors 100
moratorium 100
ority 100
Good 100
anywhere 100
Fl@@ 100
committing 100
manufacturers 100
zhou 100
143 100
vation 100
discount 100
purchased 100
connect 100
exclude 100
tox@@ 100
Ag@@ 100
Enterprise 100
James 100
collec@@ 100
propri@@ 100
tropical 100
aled 100
20.@@ 100
postponed 100
councils 100
phenomena 100
logy 100
servant 100
Grand 100
alists 100
contexts 100
C.4 100
beg@@ 100
pulled 100
accurately 100
educated 100
varying 100
direc@@ 100
passport 100
temp@@ 100
accepting 100
preserving 100
ri 100
AU 100
MINURSO 100
nearby 100
liquidity 100
ef 100
exhibition 100
superior 100
235 100
inci@@ 100
lend 100
thr@@ 100
tuberculosis 100
archives 100
^ 100
AC.109 100
DA@@ 100
imply 100
&apos;i 100
dose 100
powder 100
rid@@ 100
Fin@@ 100
cher@@ 100
diversion 100
metric 100
33@@ 100
chol@@ 100
dom@@ 100
clinics 100
colon@@ 100
rs 100
protest 100
PRESIDENT 100
fortune 100
tended 100
edi@@ 100
locked 100
asks 100
assistant 100
ceiling 100
variable 100
Limited 100
Dra@@ 100
cable 100
retro@@ 100
bom@@ 100
entrance 100
Brazilian 100
challenged 100
UNMI@@ 100
accomplish 100
rations 100
Conventional 100
Lead@@ 100
laser 100
gaining 100
Gambia 100
craft 100
methodological 100
claiming 100
tackling 100
Air@@ 100
Situation 100
vendors 100
decentralized 100
quarters 100
Mogadishu 100
home@@ 100
recipients 100
awaiting 100
combine 100
rating 100
rests 100
70@@ 100
chances 100
habit 100
credits 100
157 100
Its 100
UNCDF 100
signals 100
Promoting 100
Democracy 100
maps 100
Participation 100
icated 100
bomb 100
137 100
IE@@ 100
vir@@ 100
legs 100
deliberate 100
1977 100
144 100
successor 100
restrictive 100
pledge 100
ual 100
Coalition 100
stereotyp@@ 100
Accounts 100
Che@@ 100
celebr@@ 100
compu@@ 100
deputy 100
forensic 100
Contributions 100
166 100
Bay 100
amending 100
residual 100
Competition 100
Plenary 100
aver@@ 100
survive 100
CST 100
differ 100
Media 100
UNITA 100
analyze 100
termin@@ 100
coupled 100
thir@@ 100
ado 100
thick 100
definitely 100
ram@@ 100
roughly 100
vent 100
backed 100
cycles 100
overwhelming 100
ance@@ 100
harder 100
isation 100
schooling 100
experiencing 100
Den@@ 100
Ethics 100
Tim@@ 100
alongside 100
Lee 100
ea@@ 100
imposing 100
recycling 100
10,@@ 100
parliamentarians 100
countermeasures 100
mom 100
pp@@ 100
aci@@ 100
yer 100
Three 100
Bahamas 100
admit 100
8th 100
ign 100
Solomon 100
s. 100
soldier 100
Cro@@ 100
fan 100
split 100
1961 100
Centres 100
construct 100
deserve 100
undertakings 100
apartment 100
1971 100
Contin@@ 100
doubts 100
Prof@@ 100
chil@@ 100
ifying 100
fairness 100
livestock 100
Recommendations 100
stones 100
align 100
sanc@@ 100
chose 100
compiled 100
ab 100
expressions 100
lip@@ 100
mood 100
Mel@@ 100
ey@@ 100
ranking 100
designation 100
impetus 100
Au@@ 100
TC 100
institute 100
Cla@@ 100
ja@@ 100
horizontal 100
Portuguese 100
worried 100
stance 100
tragedy 100
ministry 100
aps 100
bottle 100
lifted 100
phased 100
strain 100
L. 100
abolished 100
IMIS 100
pron@@ 100
Zhang 100
drove 100
container 100
fed 100
Bet@@ 100
Opportunities 100
trainers 100
IONS 100
subtotal 100
Dispute 100
bow 100
multilateralism 100
provider 100
zo@@ 100
Radio 100
Tur@@ 100
magnetic 100
len 100
OR 100
arrests 100
Tar@@ 100
contaminated 100
spr@@ 100
E.@@ 100
4.3 100
lun@@ 100
nursing 100
AL 100
Shar@@ 100
Access 100
Tal@@ 100
shocks 100
CS 100
captured 100
practic@@ 100
narro@@ 100
portal 100
tickets 100
ICC 100
147 100
demanded 100
fir@@ 100
ji 100
connections 100
some@@ 100
captain 100
guests 100
overdue 100
Provisional 100
compete 100
ren 100
by@@ 100
teenth 100
Miss 100
UNDAF 100
ara 100
Jewish 100
hes@@ 100
noon 100
uh 100
minim@@ 100
151 100
hot@@ 100
pleasant 100
materi@@ 100
agu@@ 100
kit 100
audited 100
PV.@@ 100
pipe 100
bet@@ 100
depleting 100
films 100
lucky 100
vegetables 100
methyl 100
Ivorian 100
Master 100
Uses 100
condemns 100
multinational 100
optical 100
seeds 100
Destruction 100
Over@@ 100
adi@@ 100
156 100
wash 100
enactment 100
employ 100
Egyptian 100
arization 100
preferential 100
Don@@ 100
reiterating 100
wives 100
DA 100
AB@@ 100
communicable 100
Reconciliation 100
undermined 100
Treaties 100
gun@@ 100
humankind 100
tem@@ 100
Families 100
log 100
indic@@ 100
burn 100
tourist 100
asting 100
fran@@ 100
Joseph 100
break@@ 100
inception 100
146 100
Church 100
etary 100
parti@@ 100
shaped 100
undoubtedly 100
Any 100
dominated 100
Approach 100
Freedom 100
Hospital 100
commented 100
adequacy 100
dge 100
retri@@ 100
sixteenth 100
overcoming 100
Wan 100
business@@ 100
Oman 100
economists 100
ATIONS 100
habit@@ 100
regul@@ 100
lin 100
vested 100
Tibetan 100
unclear 100
voluntarily 100
eggs 100
CRIC 100
one@@ 100
ules 100
Reports 100
Speci@@ 100
jud@@ 100
tissue 100
underground 100
Umoja 100
cians 100
ón 100
finalize 100
criminals 100
belongs 100
Han@@ 100
publicity 100
nutri@@ 100
PRST 100
nan@@ 100
USA 100
ger@@ 100
costly 100
ept 100
alty 100
Sup@@ 100
helicopters 100
fal@@ 100
streamlining 100
attempting 100
Chen 100
Sha 100
stimul@@ 100
rebel 100
fat@@ 100
socioeconomic 100
crude 100
vacation 100
pip@@ 100
crew 100
treating 100
volatile 100
truck 100
58@@ 100
nel 100
supporters 100
Hotel 100
peacekeepers 100
wa 100
Abu 100
fix 100
compounds 100
golden 100
aggressive 100
tells 100
tide 100
erosion 100
testi@@ 100
chro@@ 100
arose 100
Charles 100
burg 100
confined 100
ffs 100
bian 100
5.2 100
seventeenth 100
io@@ 100
HC@@ 100
ologists 100
1976 100
artistic 100
rubber 100
demining 100
delete 100
Brown 100
repe@@ 100
sman 100
ultra@@ 100
chairmanship 100
pot@@ 100
borrowing 100
keys 100
mentally 100
bits 100
C.6 100
RD 100
sophisticated 100
cloud 100
MENT 100
inning 100
enter@@ 100
ope 100
Conservation 100
deciding 100
Offices 100
occup@@ 100
suspend 100
universally 100
Mus@@ 100
bon 100
favor 100
ilization 100
dying 100
stayed 100
selective 100
cooperatives 100
merit 100
OIC 100
reject 100
tum@@ 100
sheets 100
compatibility 100
petroleum 100
reception 100
Electronic 100
wheel 100
contracted 100
encouragement 100
formerly 100
moderate 100
tin 100
unfair 100
Hun@@ 100
celebrate 100
doctrine 100
ov@@ 100
collaborate 100
outlook 100
ranks 100
predecessor 100
Fa@@ 100
depression 100
ote 100
corrected 100
investigators 100
pum@@ 100
ca 100
remittances 100
appointing 100
1960 100
251 100
backs 100
clusters 100
sharply 100
diligence 100
tful 100
COP.@@ 100
accoun@@ 100
specially 100
a.@@ 100
restored 100
Sun 100
assignments 100
Near 100
pec@@ 100
appreciates 100
extraction 100
assuming 100
checked 100
posi@@ 100
lap@@ 100
gres@@ 100
deposited 100
WG.@@ 100
empowered 100
legacy 100
Dutch 100
prosecutions 100
sk 100
applicability 100
notable 100
school@@ 100
Embassy 100
determines 100
discovery 100
Aspects 100
Dr 100
approached 100
Quality 100
centers 100
kes@@ 100
beneficiary 100
invention 100
volunteer 100
Private 100
ut 100
entitlements 100
breaches 100
chem@@ 100
Black 100
totalling 100
pot 100
170 100
portra@@ 100
Ka@@ 100
advocated 100
Muslims 100
pen 100
libraries 100
CT 100
agendas 100
pricing 100
microfinance 100
Wor@@ 100
anim@@ 100
breath 100
commensurate 100
endeav@@ 100
mainland 100
iting 100
tries 100
roof 100
GC 100
facilitates 100
edition 100
exemptions 100
behavi@@ 100
identifies 100
tal@@ 100
1.6 100
è@@ 100
firstly 100
Chairmen 100
Practices 100
SD@@ 100
N. 100
circum@@ 100
conform 100
ila 100
ü@@ 100
Defense 100
helicopter 100
pharmaceutical 100
5.1 100
liked 100
determin@@ 100
Christ 100
ements 100
ici@@ 100
154 100
civic 100
ght@@ 100
tends 100
tiz@@ 100
34@@ 100
iii 100
ACC 100
communiqué 100
wheat 100
worn 100
eighteenth 100
devote 100
ship@@ 100
icked 100
judgements 100
substantiated 100
Monaco 100
Transfer 100
Verde 100
idity 100
LE 100
UNV 100
correspondence 100
demanding 100
mercenaries 100
amongst 100
que@@ 100
New@@ 100
civilizations 100
weakness 100
Design 100
Minorities 100
Lim@@ 100
coercive 100
yl 100
Bl@@ 100
aftermath 100
inspectors 100
campus 100
immunities 100
autumn 100
CIS 100
successive 100
insi@@ 100
erable 100
pandemic 100
emerge 100
rious 100
tigh@@ 100
inevitable 100
leaf 100
mol@@ 100
converted 100
ez 100
pay@@ 100
158 100
affirmative 100
minds 100
marginalization 100
152 100
bat@@ 100
establishments 100
yers 100
gene 100
consciousness 100
freezing 100
thly 100
1972 100
negatively 100
norm 100
scar@@ 100
Border 100
P. 100
guns 100
Queen 100
Migrant 100
contradic@@ 100
deportation 100
copyright 100
ota 100
Prevent 100
expectancy 100
ican 100
nom@@ 100
nat@@ 100
dramatically 100
simil@@ 100
founding 100
innovations 100
successes 100
ache 100
36@@ 100
plenty 100
mates 100
radic@@ 100
signatories 100
band@@ 100
mic@@ 100
homo@@ 100
politici@@ 100
complemented 100
Shu@@ 100
pride 100
Rad@@ 100
SADC 100
stairs 100
graph 100
compensate 100
distinguish 100
UNA@@ 100
combining 100
pays 100
gen 100
interpretative 100
restra@@ 100
Informal 100
privatization 100
rehabil@@ 100
broad@@ 100
ignore 100
COUNCIL 100
RU@@ 100
regretted 100
dwel@@ 100
score 100
Reg@@ 100
fled 100
olu@@ 100
linear 100
Fil@@ 100
eal 100
Nic@@ 100
benchmark 100
justi@@ 100
Rico 100
operation@@ 100
UNDOF 100
menting 100
beaten 100
holidays 100
protests 100
ema 100
pushed 100
settlers 100
restraint 100
suppose 100
t.@@ 100
mig@@ 100
otic 100
paint 100
retired 100
nal 100
Enforced 100
fourteenth 100
Acts 100
consecutive 100
arbitr@@ 100
clauses 100
travelling 100
148 100
ishment 100
short@@ 100
Intelligence 100
accessing 100
moti@@ 100
Enhanced 100
cooking 100
pling 100
metals 100
fts 100
scenarios 100
mod@@ 100
composite 100
Mohamed 100
benefiting 100
licences 100
ership 100
finite 100
activists 100
Award 100
approves 100
diff@@ 100
sequence 100
yours 100
Periodic 100
ean 100
struc@@ 100
evacuation 100
plain 100
importantly 100
affirms 100
competing 100
gur@@ 100
missed 100
hired 100
RI 100
distribu@@ 100
evolved 100
mature 100
stepped 100
torate 100
slight 100
tran@@ 100
aqu@@ 100
3.4 100
vel 100
Groups 100
mad@@ 100
globe 100
monies 100
ade@@ 100
volatility 100
hindered 100
GO@@ 100
ject 100
journal 100
ron 100
reunification 100
dioxide 100
fulness 100
incomplete 100
badly 100
chicken 100
designs 100
Microsoft 100
accumulated 100
acquiring 100
infectious 100
advis@@ 100
nowadays 100
aero@@ 100
minimal 100
stolen 100
161 100
Zh@@ 100
Manager 100
chamber 100
stipul@@ 100
ura 100
Abyei 100
convenience 100
tube 100
gal@@ 100
gifts 100
touched 100
rage 100
attained 100
ility 100
220 100
apple 100
landing 100
referral 100
Progress 100
reck@@ 100
fiber 100
choosing 100
pounds 100
GU@@ 100
los@@ 100
High@@ 100
generic 100
copper 100
lifetime 100
deli@@ 100
house@@ 100
interregional 100
bility 100
Phil@@ 100
explosion 100
broaden 100
yang 100
Henry 100
porter 100
} 100
happening 100
seconds 100
utilizing 100
auditors 100
tsunami 100
far@@ 100
orial 100
Festival 100
insert 100
exam 100
adviser 100
shells 100
ased 100
metr@@ 100
ood@@ 100
streamline 100
gear 100
xes 100
restitution 100
shell 100
graduation 100
Hi@@ 100
unchanged 100
classroom 100
suspicious 100
voices 100
EX@@ 100
149 100
vendor 100
Virgin 100
gon 100
2.6 100
Clinton 100
Fer@@ 100
forgotten 100
Ur@@ 100
Richard 100
MDG 100
hearts 100
ule 100
CTBT 100
optim@@ 100
vels 100
colleges 100
UNAMA 100
usefulness 100
ity@@ 100
Equatorial 100
prisoner 100
proposing 100
sleeping 100
Agreements 100
breakfast 100
Caledonia 100
Ki@@ 100
Role 100
advocates 100
contamination 100
itors 100
impede 100
shops 100
Experi@@ 100
four@@ 100
zi@@ 100
tia 100
pra@@ 100
well@@ 100
hai 100
ao@@ 100
physically 100
{ 100
inspired 100
linkage 100
Ash@@ 100
cream 100
carriage 100
steering 100
openness 100
parliaments 100
tanks 100
Georgian 100
U.@@ 100
cardi@@ 100
pli@@ 100
anian 100
inappropriate 100
inviting 100
Thomas 100
checking 100
inhi@@ 100
presently 100
them@@ 100
appl@@ 100
fluid 100
hoping 100
delegate 100
bears 100
rupt 100
Point 100
parity 100
192 100
eh 100
itating 100
Paper 100
lacked 100
Mexican 100
Sciences 100
string 100
ume 100
reconc@@ 100
Af@@ 100
remainder 100
Than@@ 100
adi 100
cleared 100
floods 100
vian 100
admissible 100
li 100
handic@@ 100
prevail 100
locate 100
sand@@ 100
offensive 100
208 100
counts 100
intra@@ 100
Certain 100
Ren@@ 100
dimensional 100
Presidential 100
Sur@@ 100
scourge 100
Airport 100
itable 100
ental 100
12,@@ 100
County 100
Oper@@ 100
deduc@@ 100
ute 100
Il@@ 100
ford 100
thirdly 100
aug@@ 100
consisted 100
adopts 100
rated 100
Sun@@ 100
37@@ 100
entitlement 100
Norwegian 100
tine 100
absta@@ 100
compan@@ 100
highway 100
ć 100
manufactured 100
tting 100
escalation 100
pretrial 100
eradicating 100
paramount 100
govern 100
nod@@ 100
39@@ 100
medic@@ 100
irrigation 100
Def@@ 100
failures 100
foreseen 100
plates 100
displayed 100
201 100
Serbian 100
Jer@@ 100
hire 100
spaces 100
recruit 100
dam 100
II@@ 100
Prison 100
Stabilization 100
shelf 100
infl@@ 100
Serb 100
confrontation 100
gall@@ 100
specifications 100
void 100
quotas 100
archi@@ 100
executing 100
ich@@ 100
interviewed 100
seventy 100
terminal 100
ste 100
democratization 100
Google 100
tar@@ 100
correlation 100
pollutants 100
strikes 100
59@@ 100
persecution 100
accrued 100
cumulative 100
beside 100
Bali 100
tech 100
21st 100
theories 100
unencumbered 100
inquiries 100
PE@@ 100
ered 100
alls 100
SD 100
Catholic 100
fon@@ 100
ried 100
ware 100
BY 100
sciences 100
MONUSCO 100
pump 100
ç@@ 100
concentrations 100
inking 100
thou@@ 100
ket@@ 100
quest 100
financially 100
pocket 100
rivers 100
endorse 100
hiring 100
Belize 100
brown 100
fleet 100
habits 100
motivation 100
exporting 100
SW@@ 100
escal@@ 100
shou@@ 100
cle 100
stabilize 100
good@@ 100
illustrated 100
shooting 100
Contract 100
si 100
absent 100
sch@@ 100
Improved 100
Provide 100
allegation 100
buyers 100
dor@@ 100
68@@ 100
centuries 100
renovation 100
tortured 100
educate 100
226 100
centr@@ 100
disposition 100
57@@ 100
tier 100
rooted 100
Civilian 100
fle@@ 100
perpetu@@ 100
terminated 100
assign@@ 100
expectation 100
ful@@ 100
crossed 100
disclose 100
six@@ 100
cyber@@ 100
injection 100
Sk@@ 100
plas@@ 100
ambass@@ 100
warding 100
Him 100
Hou@@ 100
Ma 100
cleaner 100
ascertain 100
fans 100
bis@@ 100
dé@@ 100
SH@@ 100
threw 100
RA 100
ceased 100
tit@@ 100
unt 100
alizes 100
griev@@ 100
orderly 100
connectivity 100
uncertain 100
pollu@@ 100
spreading 100
ession 100
urging 100
Friends 100
mixture 100
rub@@ 100
auditing 100
outbreak 100
quired 100
undermining 100
stamp 100
styles 100
synchron@@ 100
159 100
CISG 100
fav@@ 100
foremost 100
bureau 100
dium 100
tourists 100
shore 100
profiles 100
Khal@@ 100
capac@@ 100
directives 100
ito 100
fighters 100
leverage 100
scholars 100
Views 100
somewhere 100
reporters 100
convergence 100
guest 100
imbalances 100
Liu 100
bidding 100
liter@@ 100
Risk 100
Mit@@ 100
expeditiously 100
intermediate 100
siveness 100
BC 100
Sum@@ 100
gar 100
correction 100
noble 100
ville 100
sustaining 100
convictions 100
outlines 100
perfectly 100
nets 100
flav@@ 100
trace 100
10th 100
So 100
smell 100
impeded 100
165 100
Reporting 100
deci@@ 100
zes 100
artic@@ 100
oversee 100
develops 100
journ@@ 100
Vo@@ 100
ech 100
selecting 100
packaging 100
ethnicity 100
numerical 100
osity 100
essed 100
tailored 100
During 100
exacerbated 100
py@@ 100
XX@@ 100
shirt 100
211 100
inven@@ 100
Law@@ 100
Cle@@ 100
Economy 100
laun@@ 100
deliber@@ 100
Courts 100
fabric 100
ni 100
producer 100
cia 100
forwarded 100
remnants 100
Compensation 100
simplified 100
uring 100
doubled 100
ó@@ 100
0.7 100
ions 100
defeat 100
ira 100
rel 100
1951 100
PN@@ 100
adjacent 100
rig@@ 100
Liber@@ 100
but@@ 100
photos 100
restoring 100
som@@ 100
213 100
confusion 100
5.5 100
scarce 100
&apos;affaires 100
ghtful 100
offshore 100
210 100
Club 100
Fran@@ 100
modifications 100
attracting 100
eled 100
modes 100
mul@@ 100
seizure 100
continu@@ 100
dd@@ 100
impressive 100
typ@@ 100
accompanying 100
stockpiles 100
swimming 100
banned 100
mers 100
alisation 100
anyway 100
vulnerabilities 100
meter 100
seize 100
1969 100
4.4 100
praise 100
6.5 100
Man 100
mobilized 100
immune 100
DS 100
Subsidiary 100
DO@@ 100
gan 100
parking 100
stering 100
XIII 100
William 100
distribute 100
factual 100
Beirut 100
Rehabilitation 100
fruits 100
ify 100
extends 100
lows 100
measurable 100
mother@@ 100
Executives 100
organisation 100
tribal 100
Ageing 100
Argentine 100
stal@@ 100
acle 100
complied 100
alarm 100
Ale@@ 100
Mot@@ 100
stimulus 100
Ari@@ 100
UNTA@@ 100
tum 100
cohesion 100
strengths 100
ula 100
dness 100
evi@@ 100
rap 100
requisite 100
vin@@ 100
obstruc@@ 100
Super@@ 100
counted 100
progressively 100
cap 100
IDPs 100
ski 100
tag@@ 100
instituted 100
183 100
Credentials 100
NP@@ 100
led@@ 100
gging 100
infr@@ 100
Compact 100
Ir@@ 100
desert 100
yo@@ 100
Operational 100
harvest 100
procuring 100
AWG 100
acqu@@ 100
TER@@ 100
ION 100
button 100
inevitably 100
lo 100
oxygen 100
Five 100
pin 100
purchases 100
interrelated 100
congratulations 100
ev 100
lips 100
aud@@ 100
confront 100
deepen 100
filter 100
destructive 100
242 100
condemn 100
Guiding 100
repa@@ 100
rever@@ 100
containers 100
hampered 100
oured 100
terminate 100
trafficked 100
residing 100
singing 100
aya 100
laugh 100
safer 100
Bak@@ 100
ification 100
Gran@@ 100
necess@@ 100
meters 100
FARDC 100
Os@@ 100
alert 100
echo@@ 100
qualities 100
aly@@ 100
UNDG 100
asts 100
keen 100
wan@@ 100
Major 100
embodied 100
instrumental 100
Naz@@ 100
dil@@ 100
informing 100
plight 100
humane 100
dressed 100
alling 100
cep@@ 100
sic@@ 100
arises 100
che 100
super 100
Kowloon 100
classi@@ 100
5.3 100
dom 100
FA 100
belt 100
circular 100
follow@@ 100
notifications 100
CI 100
adhe@@ 100
fluctuations 100
trigger 100
distant 100
167 100
Ethiopian 100
road@@ 100
Fed 100
MA@@ 100
loving 100
voltage 100
Kur@@ 100
fruitful 100
holes 100
deforestation 100
injec@@ 100
rounds 100
Higher 100
Dec.@@ 100
persist 100
segregation 100
ears 100
radical 100
hungry 100
Kh@@ 100
gg@@ 100
inserted 100
enjoying 100
organisms 100
persu@@ 100
Solidarity 100
bin@@ 100
Under@@ 100
dialogues 100
enrolled 100
mirror 100
Sem@@ 100
competencies 100
posing 100
painful 100
eful 100
finalization 100
atin@@ 100
euros 100
Refugee 100
enact 100
participates 100
searching 100
terminology 100
PER@@ 100
Del@@ 100
Men 100
optimization 100
theft 100
Nation@@ 100
indi@@ 100
Counsel 100
deser@@ 100
auto 100
Auditor 100
Export 100
comb@@ 100
189 100
employing 100
transformed 100
UNOMIG 100
interactions 100
indications 100
izes 100
holy 100
pin@@ 100
d.@@ 100
gran@@ 100
ood 100
executives 100
adap@@ 100
volumes 100
amen@@ 100
isa 100
timber 100
discover 100
scales 100
mad 100
rationale 100
supplemented 100
curb 100
public@@ 100
sustainment 100
199 100
Disability 100
blockade 100
UNMEE 100
Wa@@ 100
tape 100
administrations 100
mut@@ 100
prioritize 100
ologist 100
shortages 100
consultancy 100
elementary 100
fossil 100
Detention 100
WA 100
misuse 100
reward 100
black@@ 100
essively 100
Indonesian 100
ction 100
ulating 100
RM@@ 100
overarching 100
reduces 100
rum@@ 100
farms 100
vigil@@ 100
buc@@ 100
FS 100
entails 100
Albanian 100
respec@@ 100
Roman 100
umbrella 100
Dan@@ 100
Vol@@ 100
bags 100
play@@ 100
rail 100
shorter 100
ose 100
ator@@ 100
laboratories 100
ground@@ 100
interfere 100
Inte@@ 100
parameter 100
recogn@@ 100
1,500 100
wai@@ 100
Facil@@ 100
stateless 100
complementarity 100
270 100
ordnance 100
policing 100
Language 100
Pra@@ 100
Young 100
exchanged 100
ghter 100
cancelled 100
computing 100
erated 100
a.i. 100
announce 100
bet 100
liqu@@ 100
cot@@ 100
fri@@ 100
beach 100
counsel@@ 100
confiscated 100
veto 100
planted 100
varies 100
D.@@ 100
panellists 100
AD 100
After 100
cried 100
protects 100
RS 100
reas@@ 100
Islam@@ 100
SAT 100
ense 100
bold 100
observes 100
Bir@@ 100
Kivu 100
Station 100
tail@@ 100
artillery 100
buried 100
industrialization 100
reforming 100
variation 100
enjoys 100
suppression 100
CPC 100
Tom@@ 100
icate 100
life@@ 100
purely 100
beer 100
impro@@ 100
prosperous 100
&apos;clock 100
175 100
deadlines 100
intervene 100
coinci@@ 100
favoured 100
naval 100
Multi@@ 100
packing 100
exporters 100
intercultural 100
recti@@ 100
laying 100
Lake 100
distr@@ 100
year@@ 100
1.8 100
164 100
Morgan 100
Comoros 100
interpreters 100
una 100
IOM 100
receivables 100
227 100
shouldn 100
readers 100
aria 100
Republican 100
Suriname 100
intern@@ 100
ICSC 100
commissioned 100
blan@@ 100
maker 100
modi@@ 100
umin@@ 100
exploit 100
6.1 100
ora 100
abstract 100
millennium 100
speedy 100
engineers 100
net@@ 100
tap@@ 100
173 100
concert 100
staying 100
1.7 100
eping 100
extensively 100
atically 100
2.7 100
opens 100
rela@@ 100
synergy 100
xi 100
jiang 100
CO2 100
leisure 100
liz@@ 100
loads 100
won@@ 100
Bor@@ 100
cake 100
ulous 100
Sports 100
doub@@ 100
opium 100
IFAD 100
Kabul 100
kel 100
163 100
har 100
militias 100
Promote 100
Protec@@ 100
gang 100
skir@@ 100
Accord 100
interior 100
catalyst 100
counties 100
decreasing 100
proclaimed 100
rats 100
whis@@ 100
clean@@ 100
Ay@@ 100
UD@@ 100
ump 100
alised 100
visas 100
wr@@ 100
babies 100
confronted 100
signatory 100
sional 100
expedi@@ 100
vations 100
30,000 100
arily 100
clouds 100
RY 100
TE 100
deteriorating 100
egg 100
Ky@@ 100
provo@@ 100
entertainment 100
phil@@ 100
volunte@@ 100
worship 100
voter 100
Whole 100
gly 100
human@@ 100
lacks 100
syl@@ 100
Index 100
afforded 100
hel 100
embrac@@ 100
Lucia 100
dedication 100
ook 100
Organic 100
alarming 100
Hum@@ 100
factories 100
allies 100
predictability 100
shu@@ 100
consular 100
inging 100
negli@@ 100
peri@@ 100
xation 100
Missions 100
MD@@ 100
opt 100
unsustainable 100
delicate 100
farmer 100
7.5 100
exported 100
lodged 100
sad@@ 100
complainants 100
mentary 100
anz@@ 100
darkness 100
repairs 100
Mother 100
deserves 100
Crimes 100
celebration 100
junior 100
organised 100
Form 100
toll 100
cab@@ 100
servic@@ 100
encing 100
maj@@ 100
frustr@@ 100
liberation 100
6.2 100
let@@ 100
13,@@ 100
Dou@@ 100
fic@@ 100
Southeast 100
ela 100
oming 100
valve 100
DNA 100
athletes 100
kle 100
replacing 100
PAR@@ 100
champ@@ 100
TO@@ 100
batt@@ 100
Fisheries 100
R. 100
248 100
mono@@ 100
Inspector 100
Provisions 100
Ken@@ 100
describing 100
narrative 100
chemistry 100
provoc@@ 100
GHG 100
les@@ 100
172 100
fusion 100
donations 100
sor 100
Sul@@ 100
cook 100
refin@@ 100
riding 100
alistic 100
onable 100
roc@@ 100
350 100
variations 100
28.@@ 100
ank 100
deficits 100
Communist 100
UNAMSIL 100
protracted 100
textbooks 100
adm@@ 100
mouse 100
resor@@ 100
dozen 100
corrupt 100
Kor@@ 100
sheep 100
tice 100
Recovery 100
Traffic 100
graph@@ 100
tariffs 100
Swaziland 100
autom@@ 100
Jan@@ 100
shipments 100
remembered 100
vol 100
Don 100
Money 100
recruiting 100
absorbed 100
ounds 100
documentary 100
scop@@ 100
plain@@ 100
ocr@@ 100
coach 100
GB@@ 100
L.1 100
demonstrating 100
excellence 100
spots 100
203 100
Sales 100
motor@@ 100
seizures 100
childcare 100
eive 100
efficacy 100
traders 100
wings 100
auction 100
gel 100
signatures 100
IR 100
chest 100
predict 100
importing 100
Organ@@ 100
ultural 100
undue 100
boom 100
creativity 100
expan@@ 100
affiliated 100
cloth 100
pes@@ 100
tertiary 100
com 100
unauthorized 100
compile 100
geared 100
47@@ 100
passes 100
TRA@@ 100
centralized 100
confirms 100
240 100
caring 100
validation 100
academia 100
aggra@@ 100
custom@@ 100
Of 100
insec@@ 100
Campaign 100
mit@@ 100
origin@@ 100
songs 100
variables 100
Gen@@ 100
clamation 100
Applications 100
random 100
reaches 100
tec@@ 100
upheld 100
unequal 100
0.5 100
Berlin 100
defer 100
Effective 100
eventual 100
intelligent 100
ITA@@ 100
attaining 100
Preven@@ 100
eral 100
loves 100
ert 100
chers 100
minerals 100
HKSAR 100
nervous 100
worth@@ 100
bombs 100
fel@@ 100
15,@@ 100
Serbs 100
Vincent 100
suspicion 100
absorb 100
Performance 100
sewage 100
supervise 100
CM 100
Chargé 100
alter 100
xing 100
Increase 100
revol@@ 100
Ol@@ 100
shel@@ 100
José 100
Kimberley 100
deepening 100
interrupted 100
seal 100
inations 100
230 100
Enforcement 100
matching 100
artists 100
conduc@@ 100
initiation 100
Series 100
UNAMI 100
cleansing 100
credited 100
mas@@ 100
Kim 100
hat@@ 100
resistant 100
eved 100
udes 100
Have 100
announcements 100
backlog 100
culmin@@ 100
son@@ 100
boats 100
eman@@ 100
rev@@ 100
enemies 100
luxury 100
deter@@ 100
distress 100
inmates 100
hn@@ 100
seriousness 100
Rev.@@ 100
3. 100
boxes 100
contest 100
controversial 100
accepts 100
striking 100
span 100
Supply 100
abduction 100
func@@ 100
nutritional 100
Forest 100
IB@@ 100
grace 100
168 100
IPCC 100
calculate 100
vaccine 100
accru@@ 100
adjournment 100
corn 100
vely 100
dismissal 100
key@@ 100
Sub.2 100
diplom@@ 100
diagnostic 100
enthusiasm 100
cooperated 100
fingers 100
Sig@@ 100
harsh 100
cements 100
pop@@ 100
Us 100
cry@@ 100
absorption 100
colors 100
acceding 100
deliberately 100
rolled 100
ET@@ 100
dependency 100
Gre@@ 100
Verification 100
ME 100
resid@@ 100
Combating 100
neuro@@ 100
imbalance 100
undergoing 100
Mari@@ 100
Impact 100
disproportionate 100
grams 100
specif@@ 100
transferring 100
14,@@ 100
1963 100
Case 100
ables 100
finger 100
Pot@@ 100
exciting 100
likelihood 100
hinder 100
schedules 100
standardization 100
suring 100
grid 100
TH 100
Tai@@ 100
immunization 100
lengthy 100
paren@@ 100
scholarships 100
enacting 100
actuarial 100
anticip@@ 100
prize 100
Eritrean 100
MINU@@ 100
burst 100
magic 100
offender 100
Poly@@ 100
Vanuatu 100
assign 100
extremism 100
intentions 100
ita 100
pur 100
sincerely 100
enrichment 100
zi 100
holdings 100
mitigating 100
Compliance 100
unaccompanied 100
grati@@ 100
pragmatic 100
empowering 100
Fra@@ 100
abolish 100
mam@@ 100
evac@@ 100
214 100
Aboriginal 100
Arusha 100
circulate 100
Hamas 100
cau@@ 100
yearly 100
stuck 100
indiscriminate 100
49@@ 100
daughters 100
reactions 100
loose 100
suited 100
cents 100
healthcare 100
La 100
self@@ 100
anybody 100
beam 100
narcotic 100
1325 100
Contracts 100
Ow@@ 100
vacuum 100
190 100
wan 100
Front 100
suits 100
reveals 100
slave 100
ía 100
ato@@ 100
mess@@ 100
rigorous 100
sacrifice 100
Arctic 100
ame@@ 100
171 100
6.3 100
IDF 100
crow@@ 100
insisted 100
depri@@ 100
poli@@ 100
PB@@ 100
buffer 100
bus@@ 100
Chicago 100
cannabis 100
Belgrade 100
municipality 100
caution 100
fulfill 100
communal 100
dispos@@ 100
ratios 100
III.@@ 100
Lar@@ 100
acci@@ 100
exploited 100
fought 100
suggesting 100
verbatim 100
ñ@@ 100
erup@@ 100
www.un@@ 100
Effects 100
vic 100
sey 100
titles 100
und@@ 100
CU@@ 100
instant 100
interven@@ 100
atomic 100
illary 100
Add.3 100
Flo@@ 100
scaling 100
Principal 100
phy@@ 100
pir@@ 100
hero@@ 100
pione@@ 100
Age 100
Observatory 100
cle@@ 100
differentiated 100
veter@@ 100
.... 100
coexistence 100
Objec@@ 100
relied 100
aggres@@ 100
stomach 100
elo@@ 100
need@@ 100
tracing 100
viability 100
Ven@@ 100
diabetes 100
equation 100
vity 100
wore 100
femin@@ 100
Controller 100
inge 100
lad@@ 100
approaching 100
174 100
silic@@ 100
hop 100
resist 100
UNMIT 100
disorder 100
Total 100
believing 100
cell@@ 100
lor 100
tain@@ 100
techn@@ 100
comprehensively 100
enforcing 100
slowdown 100
kn@@ 100
IES 100
Nature 100
conciliation 100
execute 100
pass@@ 100
Khartoum 100
Cust@@ 100
infrastructures 100
observing 100
universe 100
181 100
QU@@ 100
depended 100
veness 100
Procedures 100
VE@@ 100
ideological 100
perpetrator 100
Mines 100
commander 100
Antigua 100
sc 100
Shan@@ 100
TED 100
frank 100
shan 100
alliance 100
bac@@ 100
qualify 100
Dal@@ 100
asserted 100
191 100
hath 100
hostage 100
ami 100
situated 100
terri@@ 100
taining 100
Ministries 100
crash 100
tax@@ 100
warranted 100
wrong@@ 100
insured 100
shoot 100
Sla@@ 100
scan@@ 100
altogether 100
ano@@ 100
synthetic 100
ult 100
clusion 100
ported 100
Twenty 100
particles 100
amid 100
clashes 100
Ann@@ 100
perceptions 100
vul@@ 100
differently 100
less@@ 100
ptive 100
SL@@ 100
efully 100
width 100
curve 100
preserved 100
Minimum 100
crazy 100
night@@ 100
Marshall 100
apping 100
overlap 100
photographs 100
administer 100
protection@@ 100
pus 100
sensor 100
glasses 100
Let 100
leather 100
rab@@ 100
sition 100
While 100
iter 100
lord 100
maturity 100
conve@@ 100
petition 100
syndrome 100
11,@@ 100
trillion 100
ERP 100
bromide 100
robbery 100
conditional 100
reorganization 100
encounter 100
insist 100
ão 100
burned 100
bye 100
flagrant 100
Fre@@ 100
Stockpiling 100
influences 100
prompted 100
ITU 100
AM 100
PDF 100
SB@@ 100
Town 100
detrimental 100
tabl@@ 100
218 100
scrutiny 100
lou@@ 100
reclassification 100
stroke 100
67@@ 100
ario 100
Investigations 100
fires 100
embedded 100
foregoing 100
185 100
concessions 100
mo 100
town@@ 100
eries 100
Bil@@ 100
Meetings 100
atmospheric 100
shortfall 100
viewing 100
Income 100
clubs 100
install 100
kiss 100
Cup 100
Jane 100
POL@@ 100
Yes 100
warehouse 100
Museum 100
ean@@ 100
manufacturer 100
sacrif@@ 100
Not 100
invalid 100
Mas@@ 100
Brindisi 100
HS 100
geological 100
onian 100
summaries 100
233 100
publ@@ 100
pushing 100
thetic 100
guides 100
washing 100
funny 100
stain@@ 100
knife 100
ails 100
asy 100
rises 100
rush 100
Ahmed 100
fet@@ 100
jury 100
pack 100
conservative 100
&apos;a 100
Cas@@ 100
GENERAL 100
itability 100
continually 100
KP 100
accum@@ 100
eye@@ 100
17,@@ 100
FCs 100
mented 100
quot@@ 100
tou@@ 100
dification 100
itary 100
positioning 100
Gener@@ 100
Seychelles 100
2.8 100
alle@@ 100
wound 100
extremist 100
god 100
overtime 100
unexpected 100
volcan@@ 100
meals 100
OL 100
embarra@@ 100
embrace 100
ool 100
D.C. 100
stric@@ 100
widening 100
Judges 100
therapeutic 100
UNMISS 100
commission@@ 100
frag@@ 100
tism 100
ascular 100
grass@@ 100
oneself 100
propaganda 100
movies 100
ouse 100
5.4 100
Exam@@ 100
assed 100
preamble 100
premi@@ 100
fier 100
mg 100
Offr 100
multidisciplinary 100
rows 100
Exc@@ 100
alk@@ 100
184 100
Ak@@ 100
athle@@ 100
tip 100
ttle 100
une 100
act@@ 100
177 100
fever 100
outs 100
plac@@ 100
constrained 100
charter 100
Glob@@ 100
Hor@@ 100
Vietnam 100
aerial 100
arriving 100
exceeds 100
Plan@@ 100
lia@@ 100
safely 100
Mul@@ 100
uneven 100
Trustees 100
V. 100
efs 100
unliquidated 100
thrust 100
MAR@@ 100
Pu@@ 100
permanently 100
reat@@ 100
compens@@ 100
ock 100
stron@@ 100
borrow 100
perfec@@ 100
premium 100
monopoly 100
enters 100
fifteen 100
preferences 100
resem@@ 100
understands 100
lovely 100
theatre 100
187 100
ague 100
interpret 100
secon@@ 100
tower 100
upward 100
finances 100
remedial 100
186 100
Directors 100
tus 100
Net@@ 100
consuming 100
Croatian 100
spac@@ 100
tentative 100
Landlocked 100
dating 100
hereinafter 100
passive 100
secrets 100
afterwards 100
spa@@ 100
202 100
burdens 100
frames 100
sensitization 100
RB@@ 100
206 100
Nan@@ 100
usive 100
airports 100
analyzing 100
prevents 100
secret@@ 100
temperatures 100
regulators 100
Main@@ 100
UNPROFOR 100
litigation 100
lighting 100
refined 100
Daniel 100
epi@@ 100
hua 100
Empowerment 100
Why 100
radar 100
basin 100
dirty 100
bridges 100
Communities 100
abducted 100
favorable 100
redeployed 100
retaining 100
conducts 100
footing 100
arsenals 100
duct 100
jet 100
kid 100
armaments 100
nationalities 100
jumped 100
multisectoral 100
yo 100
abandon 100
clusive 100
horri@@ 100
lement 100
speaks 100
cataly@@ 100
depend@@ 100
editor 100
eing 100
countryside 100
rebuilding 100
sanitary 100
accessed 100
banning 100
measurements 100
technically 100
Valley 100
commanders 100
defects 100
rocks 100
XIV 100
deputies 100
loud 100
phosph@@ 100
AR 100
competen@@ 100
mot@@ 100
Bre@@ 100
pan 100
hasn 100
Develop 100
pointing 100
sexes 100
tiveness 100
ext 100
passion 100
sav@@ 100
FMCT 100
225 100
brush 100
Annan 100
diffusion 100
Oceans 100
Tem@@ 100
allot@@ 100
artist 100
bel 100
stam@@ 100
unconditional 100
MP@@ 100
dio 100
itude 100
Hur@@ 100
anxiety 100
candi@@ 100
nu@@ 100
Inc 100
Yo@@ 100
aph@@ 100
commemor@@ 100
repu@@ 100
tible 100
amnesty 100
hello 100
Subcommission 100
exer@@ 100
vibration 100
contr@@ 100
orphans 100
absor@@ 100
cylin@@ 100
compliant 100
free@@ 100
illustrate 100
Times 100
cycl@@ 100
train@@ 100
dynam@@ 100
expiration 100
optimize 100
MC 100
bons 100
fashi@@ 100
lectures 100
view@@ 100
Sin@@ 100
ing.@@ 100
imperi@@ 100
222 100
basketball 100
triangular 100
Wi@@ 100
neighbour@@ 100
regrettable 100
gram 100
antly 100
anch@@ 100
Chris@@ 100
orable 100
178 100
undergo 100
assists 100
engineer 100
205 100
confronting 100
strongest 100
From 100
ensuing 100
listened 100
500,000 100
Ozone 100
calculating 100
edly 100
pipeline 100
predicted 100
trou@@ 100
260 100
Future 100
hop@@ 100
sooner 100
writers 100
Less@@ 100
Question 100
complications 100
Tuvalu 100
instructed 100
privately 100
Prepar@@ 100
disadvantage 100
genic 100
legislature 100
merger 100
Appl@@ 100
MI 100
TIV@@ 100
compact 100
rest@@ 100
traffickers 100
bell 100
surprising 100
wireless 100
Lau@@ 100
analo@@ 100
ply 100
disadvantages 100
disappointed 100
Jones 100
complain 100
lice 100
nurses 100
peti@@ 100
suff@@ 100
thri@@ 100
16,@@ 100
decor@@ 100
ologically 100
3.6 100
LC 100
underlining 100
Jim 100
generators 100
honey 100
brow@@ 100
imper@@ 100
CF 100
struggling 100
PM 100
ona 100
atics 100
crack 100
rebels 100
rebuild 100
Falkland 100
sword 100
Bac@@ 100
C.12 100
Plurinational 100
stupid 100
UPR 100
emo@@ 100
Yang 100
news@@ 100
restaurants 100
ventures 100
certainty 100
len@@ 100
nie 100
prone 100
ICAO 100
Scot@@ 100
Who 100
reluctant 100
minded 100
liberal 100
shake 100
eous 100
moments 100
shifting 100
bacteria 100
taxi 100
8,000 100
ille 100
emanating 100
firing 100
intim@@ 100
condemnation 100
may@@ 100
cattle 100
eager 100
anten@@ 100
sympathy 100
wildlife 100
grows 100
circumstance 100
insofar 100
resear@@ 100
travelled 100
disrup@@ 100
expelled 100
Citizens 100
UNLB 100
bias 100
dancing 100
idate 100
literary 100
Ori@@ 100
muscle 100
thor@@ 100
Almaty 100
Hal@@ 100
battery 100
winner 100
Heav@@ 100
surrender 100
prospective 100
20th 100
seas@@ 100
billions 100
excited 100
INSTRAW 100
pension@@ 100
relax 100
CN 100
Intellectual 100
ady 100
clearer 100
memories 100
sampling 100
Can 100
stal 100
aggravated 100
deadly 100
appearing 100
bitter 100
Love 100
poorly 100
Kinshasa 100
Organizational 100
vine 100
Tai 100
eller 100
unfortunate 100
builds 100
stic@@ 100
243 100
UNS@@ 100
hes 100
Mur@@ 100
Substances 100
contributor 100
historically 100
explaining 100
209 100
grand 100
interact 100
nas@@ 100
vigorous 100
chron@@ 100
embarked 100
presumption 100
Narcotics 100
Regi@@ 100
dic 100
manuals 100
erec@@ 100
glob@@ 100
automation 100
incoming 100
list@@ 100
Barbuda 100
crystal 100
defendants 100
occasionally 100
thrown 100
Overseas 100
hep@@ 100
ideals 100
steam 100
strang@@ 100
194 100
Delhi 100
LDC 100
erti@@ 100
disorders 100
tear 100
dare 100
encompass 100
irreversible 100
journalist 100
substitu@@ 100
Recogn@@ 100
glo@@ 100
hub 100
underline 100
2.30 100
7,000 100
amp@@ 100
Effec@@ 100
casting 100
nour@@ 100
Recommendation 100
Brunei 100
simultaneous 100
WMO 100
extraterritorial 100
kis@@ 100
opposing 100
Bon@@ 100
TA 100
eption 100
subsidy 100
Pla@@ 100
disk 100
light@@ 100
Maintenance 100
cent@@ 100
waited 100
198 100
alt 100
diplomats 100
rail@@ 100
Buddh@@ 100
interdependent 100
ousness 100
Kam@@ 100
forecasts 100
pts 100
reproduction 100
kits 100
adors 100
disturbing 100
litem 100
uncle 100
midterm 100
occupy 100
plantation 100
audiences 100
dia 100
enriched 100
ä@@ 100
176 100
LRA 100
multidimensional 100
Ds 100
Eu@@ 100
stin@@ 100
Petro@@ 100
apolog@@ 100
disciplines 100
Moroccan 100
Austrian 100
approving 100
bal 100
discoura@@ 100
illed 100
lecture 100
ssi@@ 100
uous 100
Que@@ 100
Crisis 100
Polish 100
neglected 100
Contact 100
Immun@@ 100
bacter@@ 100
ineffective 100
carriers 100
ald 100
checkpoints 100
clinic 100
abused 100
swing 100
vable 100
Economics 100
Understanding 100
hotels 100
ini 100
multilingu@@ 100
ICCD 100
acked 100
counting 100
sexuality 100
NG@@ 100
bran@@ 100
francs 100
GIS 100
flame 100
intentional 100
leaf@@ 100
cornerstone 100
physics 100
trips 100
imminent 100
Are 100
Mach@@ 100
praised 100
tude 100
child@@ 100
degra@@ 100
Land@@ 100
Partnerships 100
Rus@@ 100
after@@ 100
bulletin 100
uel 100
69@@ 100
utilities 100
bike 100
criticized 100
devise 100
incremental 100
complained 100
inflows 100
Armenian 100
Equipment 100
ambi@@ 100
hunting 100
spi@@ 100
207 100
Appointment 100
ero 100
portable 100
4.6 100
prote@@ 100
aven@@ 100
criminalization 100
multic@@ 100
cross@@ 100
drinks 100
FE@@ 100
quoted 100
IZ@@ 100
mosqu@@ 100
estimation 100
meteorological 100
transported 100
akes 100
confinement 100
deserved 100
tasked 100
verifiable 100
Best 100
Psych@@ 100
aut 100
dal 100
vigorously 100
agg@@ 100
ET 100
imagination 100
mit 100
youn@@ 100
188 100
altered 100
200,000 100
attr@@ 100
Bar 100
Elizabeth 100
bert 100
thwest 100
35@@ 100
beneath 100
furn@@ 100
precip@@ 100
Investig@@ 100
payroll 100
53@@ 100
Oil 100
balancing 100
Please 100
decom@@ 100
lot@@ 100
milestone 100
rous 100
TEC@@ 100
Well 100
BA 100
offic@@ 100
1970s 100
6.4 100
Accra 100
Learning 100
icable 100
wholly 100
ICCPR 100
extract 100
som 100
Ben 100
precedent 100
ired 100
iro 100
ED@@ 100
facilitator 100
threatens 100
stabil@@ 100
statutes 100
Inquiry 100
Tam@@ 100
attainable 100
commits 100
meth@@ 100
uity 100
chip 100
precarious 100
practically 100
FC 100
strip 100
conception 100
constituting 100
forecasting 100
Fundamental 100
bars 100
Comple@@ 100
immense 100
Johnson 100
TIC@@ 100
experi@@ 100
lung 100
probability 100
Kofi 100
OAS 100
mean@@ 100
BS 100
Sou@@ 100
tex@@ 100
ored 100
Abuse 100
constituent 100
premature 100
quo 100
221 100
barely 100
omy 100
Carrie 100
ph 100
ICEF 100
Rab@@ 100
initiating 100
outsourcing 100
Cri@@ 100
Father 100
disproportionately 100
feder@@ 100
omer 100
iles 100
borro@@ 100
ix 100
Joe 100
ania 100
bankruptcy 100
oppose 100
Struc@@ 100
Watch 100
classical 100
NU@@ 100
sibly 100
tam@@ 100
turnover 100
gment 100
optimum 100
withdrew 100
cocaine 100
akh@@ 100
frigh@@ 100
hung 100
ses@@ 100
tric@@ 100
immigrant 100
versus 100
Areas 100
tants 100
wanna 100
Mike 100
cers 100
diversified 100
expe@@ 100
peacefully 100
mice 100
recommending 100
eighty 100
questionnaires 100
summarizes 100
chocolate 100
destiny 100
diminished 100
domin@@ 100
offs 100
1948 100
hydraulic 100
ö@@ 100
Py@@ 100
198@@ 100
241 100
DPRK 100
wastewater 100
Dynasty 100
forcing 100
hurric@@ 100
urs 100
Trusteeship 100
pris@@ 100
impediments 100
Corpor@@ 100
congresses 100
Arts 100
lessly 100
Mrs 100
cant 100
exhaustion 100
hanging 100
228 100
asleep 100
calculations 100
intra 100
pit@@ 100
transform@@ 100
Non@@ 100
delegated 100
streamlined 100
albeit 100
appreci@@ 100
embar@@ 100
silk 100
exert 100
flew 100
Disabled 100
convert 100
lover 100
zer 100
bureaucr@@ 100
heroin 100
inte@@ 100
refuge 100
Abkhazia 100
ee 100
optimistic 100
1,8@@ 100
Publ@@ 100
Reper@@ 100
relying 100
Kat@@ 100
atization 100
Cho@@ 100
polar@@ 100
voc@@ 100
Judiciary 100
timeliness 100
hoo@@ 100
famili@@ 100
hurry 100
.com 100
abundant 100
cancel 100
induction 100
talents 100
whatsoever 100
appropriated 100
taxpay@@ 100
ODS 100
accompl@@ 100
vig@@ 100
classic 100
basket 100
dozens 100
sni@@ 100
undertakes 100
Sichuan 100
connecting 100
permitting 100
BL@@ 100
circles 100
ea 100
attributes 100
barrel 100
diesel 100
differenti@@ 100
apartheid 100
toxicity 100
striving 100
DD@@ 100
nurse 100
SER@@ 100
subsidi@@ 100
aker 100
gement 100
Legisl@@ 100
Pay@@ 100
dead@@ 100
fullest 100
237 100
aggreg@@ 100
alliances 100
factions 100
py 100
desi@@ 100
puri@@ 100
slum 100
trusted 100
Rol@@ 100
Arch@@ 100
Eng@@ 100
fore 100
impeding 100
initi@@ 100
kick 100
vag@@ 100
CEO 100
damaging 100
Tow@@ 100
196 100
Mohammed 100
My@@ 100
mini@@ 100
patience 100
Growth 100
invoke 100
manip@@ 100
sex@@ 100
eurozone 100
ove 100
Israelis 100
Arabs 100
Crescent 100
conveyed 100
wealthy 100
Ottawa 100
Hu 100
infants 100
mud 100
cabinet 100
neys 100
sea@@ 100
Electr@@ 100
classifications 100
ella 100
ho 100
tennis 100
bath 100
occupations 100
postal 100
š@@ 100
amazing 100
hospitality 100
motions 100
1,7@@ 100
collaborating 100
reservoir 100
shaping 100
defending 100
guilt 100
implied 100
totalled 100
kidnapping 100
215 100
alli@@ 100
overcrowding 100
prevalent 100
drag 100
festival 100
ops 100
violates 100
pesticides 100
critics 100
ail 100
resour@@ 100
Daily 100
Saf@@ 100
Sta@@ 100
formats 100
Ric@@ 100
certi@@ 100
reminder 100
activated 100
arized 100
cooling 100
Colombian 100
Item 100
agre@@ 100
bribery 100
originating 100
Sy@@ 100
olutionary 100
upset 100
193 100
BE@@ 100
Documentation 100
breeding 100
draw@@ 100
Autonomous 100
Mig@@ 100
Ref@@ 100
velocity 100
Atlas 100
pric@@ 100
tracks 100
Soci@@ 100
questi@@ 100
theast 100
Andre@@ 100
Phase 100
academics 100
biotechnology 100
exhaust 100
asser@@ 100
stamps 100
dawn 100
download 100
rightly 100
Malvinas 100
disruption 100
Grenada 100
chequ@@ 100
eling 100
illustr@@ 100
temple 100
downward 100
haz@@ 100
oration 100
reflec@@ 100
unk 100
MS@@ 100
homework 100
plun@@ 100
remin@@ 100
Appro@@ 100
conceived 100
mounted 100
revo@@ 100
logging 100
synthe@@ 100
2,500 100
Certificate 100
gently 100
nit@@ 100
warfare 100
lamp 100
tooth 100
liness 100
Boo@@ 100
arena 100
colleague 100
macro 100
depic@@ 100
surgical 100
FM@@ 100
204 100
apparatus 100
disputed 100
groupings 100
relies 100
1966 100
Satellite 100
inflicted 100
metabol@@ 100
worrying 100
P.1 100
isting 100
lonely 100
valley 100
Rene@@ 100
esh 100
rez 100
stand@@ 100
affirming 100
compelled 100
surveyed 100
18,@@ 100
Mun@@ 100
angel 100
seldom 100
Euro 100
hereby 100
Negoti@@ 100
2.45 100
analyzes 100
bore 100
coercion 100
destroying 100
sim@@ 100
vić 100
wat@@ 100
179 100
imprisoned 100
narcotics 100
genes 100
indictment 100
prin@@ 100
CI@@ 100
compounded 100
ok 100
plur@@ 100
seven@@ 100
fam@@ 100
groundwater 100
museum 100
harmonizing 100
WC 100
comparing 100
overe@@ 100
rah 100
correspon@@ 100
somehow 100
tar 100
PR 100
obs@@ 100
pop 100
TL 100
fron@@ 100
parad@@ 100
specifies 100
clim@@ 100
mathematics 100
polar 100
Ly@@ 100
exam@@ 100
LD 100
lawfully 100
problematic 100
torial 100
awa 100
queries 100
sture 100
voys 100
€ 100
7.1 100
WIPO 100
swee@@ 100
sten@@ 100
affirm 100
comment@@ 100
Supplementary 100
hedge 100
efficiencies 100
inser@@ 100
react 100
tips 100
Opening 100
reversed 100
tionality 100
266 100
eu 100
pile 100
1,9@@ 100
trucks 100
Bosnian 100
cheaper 100
cooper@@ 100
adapting 100
exi@@ 100
Entity 100
bank@@ 100
sisters 100
constraint 100
know@@ 100
Bul@@ 100
opted 100
bed@@ 100
deter 100
fortieth 100
practicable 100
folk 100
tele@@ 100
affair 100
annotations 100
aquifer 100
icide 100
Continue 100
19,@@ 100
unresolved 100
Kis@@ 100
Timorese 100
disposed 100
lesser 100
chair@@ 100
compelling 100
constructing 100
d. 100
hero 100
vement 100
wea@@ 100
Thai 100
W. 100
codification 100
tract 100
abortions 100
dissolution 100
inspec@@ 100
precursors 100
blocked 100
drilling 100
licensed 100
80@@ 100
aa 100
show@@ 100
Discipl@@ 100
Labor 100
lifestyle 100
Jam@@ 100
hectares 100
ola 100
regrettably 100
Providing 100
UNITED 100
emotions 100
reconsider 100
stockpil@@ 100
advocating 100
ee@@ 100
esses 100
jure 100
loride 100
pros@@ 100
Ci@@ 100
Commissions 100
ques 100
triggered 100
269 100
Palau 100
restricting 100
inger 100
keeper 100
rop@@ 100
whereabouts 100
216 100
Dam@@ 100
ESA 100
mile 100
shifts 100
217 100
4. 100
Abidjan 100
multipl@@ 100
handbook 100
sickness 100
1, 100
Maria 100
chairpersons 100
charity 100
affili@@ 100
glory 100
lip 100
propag@@ 100
distur@@ 100
cling 100
int@@ 100
walks 100
navi@@ 100
refres@@ 100
slide 100
treasure 100
Ya@@ 100
preven@@ 100
broch@@ 100
uncertainties 100
brave 100
Sahel 100
supplementing 100
flowing 100
Tehran 100
invaluable 100
Ty@@ 100
anymore 100
civil@@ 100
fec@@ 100
20,@@ 100
childbirth 100
exhaustive 100
heightened 100
Lands 100
biting 100
intervals 100
cryp@@ 100
elaborating 100
Malaria 100
onia 100
declares 100
developers 100
settling 100
trauma 100
MP 100
contested 100
ena 100
molecular 100
hex@@ 100
1.9 100
Dag 100
bid@@ 100
rendering 100
ette 100
Cir@@ 100
fits 100
implements 100
freshwater 100
kan 100
morph@@ 100
7.3 100
Ukrainian 100
adver@@ 100
enquiries 100
Jin@@ 100
adjusting 100
eag@@ 100
Resi@@ 100
dings 100
fragmentation 100
rigid 100
CAS 100
upholding 100
Benef@@ 100
posting 100
sians 100
GAT@@ 100
195 100
Kal@@ 100
expeditious 100
glu@@ 100
253 100
Grenadines 100
Hen@@ 100
acking 100
ardi@@ 100
mathematical 100
demarcation 100
rents 100
expiry 100
reminds 100
Green@@ 100
RF 100
graduated 100
wind@@ 100
Socialist 100
scheduling 100
bones 100
ili 100
3.7 100
Naqurah 100
romantic 100
09@@ 100
Our 100
Procur@@ 100
prefec@@ 100
coral 100
vicinity 100
Elec@@ 100
flu 100
straigh@@ 100
Wu 100
psychosocial 100
tunnel 100
pretext 100
Dakar 100
fortun@@ 100
hybrid 100
suppress 100
induc@@ 100
Departments 100
beds 100
Memorandum 100
promotional 100
Liter@@ 100
eco 100
bec@@ 100
economical 100
evidenced 100
phra@@ 100
manifest 100
Bermuda 100
Sao 100
matched 100
rival 100
19th 100
á 100
Ama@@ 100
OM 100
thirtieth 100
4.8 100
DI@@ 100
equi@@ 100
margins 100
258 100
Chernobyl 100
Consideration 100
MAN@@ 100
homeless 100
theore@@ 100
Andorra 100
hydrogen 100
triennial 100
Mem@@ 100
tactics 100
itory 100
oxide 100
climb 100
optimism 100
These 100
disclo@@ 100
refu@@ 100
pa 100
vac@@ 100
Cluster 100
agro 100
gens 100
horses 100
reinforcement 100
eme@@ 100
slip 100
Collec@@ 100
Jul@@ 100
MSP 100
economist 100
ranges 100
solic@@ 100
where@@ 100
Adaptation 100
accompany 100
Pact 100
neutrality 100
umatic 100
L.2 100
expired 100
gray 100
gues 100
Directive 100
Provi@@ 100
morbidity 100
reconsideration 100
ushing 100
bour@@ 100
arer 100
AC.105 100
po 100
resignation 100
serv@@ 100
openly 100
rockets 100
With@@ 100
fence 100
template 100
illing 100
menu 100
scores 100
ú@@ 100
Explo@@ 100
Thir@@ 100
juice 100
privilege 100
CCPR 100
CTC 100
Wel@@ 100
actu@@ 100
pray 100
quit 100
Jews 100
Pre 100
Ibid 100
effected 100
inau@@ 100
4.7 100
judged 100
comprehen@@ 100
foreseeable 100
gay 100
retail@@ 100
Spring 100
improves 100
Transit 100
engines 100
ight 100
magne@@ 100
vegetable 100
Lusaka 100
redund@@ 100
routinely 100
1968 100
magazines 100
mann 100
Indi@@ 100
197 100
Cities 100
Seabed 100
monu@@ 100
seismic 100
stationary 100
No.@@ 100
ather 100
atrocities 100
inflam@@ 100
mony 100
Moses 100
invitations 100
orious 100
Intolerance 100
deems 100
finalizing 100
flesh 100
64@@ 100
definitive 100
Advis@@ 100
Cypriots 100
constituencies 100
psychiatric 100
recep@@ 100
viation 100
ideology 100
prediction 100
psychology 100
Truth 100
escaped 100
impe@@ 100
rat 100
254 100
Web@@ 100
bott@@ 100
Classification 100
NA 100
afflic@@ 100
illustrates 100
fluctu@@ 100
yen 100
Course 100
wooden 100
rog@@ 100
backgrounds 100
disa@@ 100
ek@@ 100
gest 100
quarantine 100
reparations 100
brea@@ 100
planting 100
sufficiency 100
pregnancies 100
stag@@ 100
Los 100
Travel 100
VER@@ 100
preclud@@ 100
brac@@ 100
denying 100
revit@@ 100
stigma 100
refriger@@ 100
ladies 100
packed 100
cool@@ 100
unexploded 100
Heritage 100
Juven@@ 100
conceal@@ 100
layout 100
Barack 100
enlar@@ 100
incredi@@ 100
reasoning 100
paraly@@ 100
commemoration 100
disappointment 100
fines 100
agreeing 100
onom@@ 100
swit@@ 100
ador@@ 100
flour@@ 100
catalytic 100
other@@ 100
photo@@ 100
qual@@ 100
lubric@@ 100
Exploitation 100
Guangdong 100
peninsula 100
allocating 100
nerve 100
Strengthen 100
unanimous 100
access@@ 100
flooding 100
gentle 100
Cel@@ 100
fications 100
lac@@ 100
care@@ 100
equip@@ 100
Rs 100
prudent 100
automated 100
Tonga 100
forgive 100
gle 100
investig@@ 100
porters 100
identi@@ 100
sizing 100
Products 100
asa 100
brilliant 100
Fifty 100
cad@@ 100
nominal 100
promin@@ 100
tieth 100
reco@@ 100
biology 100
emer@@ 100
video@@ 100
feared 100
villagers 100
255 100
Foc@@ 100
Putin 100
isms 100
Darussalam 100
Physical 100
Units 100
collabor@@ 100
stigm@@ 100
DC@@ 100
lasted 100
ptions 100
vector 100
Kan@@ 100
Kir@@ 100
Ny@@ 100
jeopardi@@ 100
label 100
week@@ 100
administrators 100
forgot 100
peasants 100
proximity 100
Fs 100
Fig@@ 100
Nov@@ 100
fiable 100
stemming 100
system@@ 100
circul@@ 100
corrigendum 100
emia 100
soc@@ 100
influential 100
lever@@ 100
5.6 100
abor@@ 100
Quartet 100
advertisement 100
grasp 100
midst 100
inters 100
40,000 100
symbols 100
Sheikh 100
petrol 100
15,000 100
Ah@@ 100
boo 100
dial 100
itt@@ 100
jur@@ 100
ounced 100
uti@@ 100
bureaux 100
troubled 100
Leg@@ 100
interrogation 100
sanction 100
Medicine 100
depositary 100
interpretations 100
stimulating 100
legi@@ 100
repercussions 100
unrest 100
29.@@ 100
Laundering 100
inno@@ 100
223 100
Oslo 100
ells 100
essly 100
Documents 100
mar 100
poorer 100
molec@@ 100
quadrennial 100
rying 100
ateral 100
puzz@@ 100
revolutionary 100
450 100
ingredients 100
tune 100
disregard 100
Funds 100
descend@@ 100
Old 100
2.9 100
ISO 100
Exercise 100
contravention 100
HIPC 100
aks 100
mem@@ 100
solu@@ 100
spell 100
succ@@ 100
chant 100
influenza 100
integr@@ 100
Buenos 100
Shenzhen 100
uations 100
Somal@@ 100
idation 100
soup 100
surrounded 100
Marino 100
ified 100
spokes@@ 100
Ming 100
anni@@ 100
hiding 100
obsolete 100
7.4 100
dign@@ 100
tak@@ 100
HA 100
enclosed 100
fracture 100
severity 100
Mark 100
ometer 100
sp 100
Francisco 100
ager 100
corrective 100
15th 100
Karabakh 100
employ@@ 100
guardian 100
trap 100
democr@@ 100
ICTR 100
evolve 100
trem@@ 100
264 100
Moder@@ 100
ulations 100
Doc@@ 100
mortar 100
stan 100
1000 100
UR 100
Hammarskjöld 100
constructively 100
fabric@@ 100
ius 100
notic@@ 100
transcri@@ 100
EN 100
Gol@@ 100
bombing 100
deline@@ 100
e. 100
252 100
asi 100
downturn 100
ISU 100
influencing 100
reader 100
brutal 100
clarifying 100
strateg@@ 100
way@@ 100
amphetamine 100
nan 100
performances 100
swift 100
yields 100
cum@@ 100
ores@@ 100
societal 100
nee@@ 100
Aires 100
combustion 100
Command 100
aint 100
ulated 100
weigh 100
11th 100
Columbia 100
carcin@@ 100
carto@@ 100
injustice 100
mits 100
Apple 100
disc@@ 100
Cat@@ 100
Pan 100
honoured 100
oud 100
practi@@ 100
gents 100
Knowledge 100
hid 100
juveniles 100
entries 100
decreases 100
recy@@ 100
276 100
Bus@@ 100
planes 100
capitals 100
congress 100
swim 100
AA 100
Luc@@ 100
deceased 100
scand@@ 100
reconcile 100
parks 100
symposium 100
Han 100
correspond 100
coup 100
see@@ 100
shame 100
gho@@ 100
munition 100
spra@@ 100
stom@@ 100
Gazette 100
attend@@ 100
nights 100
despair 100
mond 100
procur@@ 100
tuition 100
ación 100
IU@@ 100
arisen 100
Techn@@ 100
layers 100
supplements 100
Now 100
allo@@ 100
architec@@ 100
phen@@ 100
tless 100
ua 100
escor@@ 100
specification 100
kindergar@@ 100
Projects 100
approxim@@ 100
contraceptive 100
tempor@@ 100
broadening 100
culturally 100
flash 100
icit 100
Occup@@ 100
disparity 100
extradite 100
lings 100
schol@@ 100
Tenth 100
struction 100
treatments 100
fitting 100
recreational 100
rements 100
aux 100
Art 100
Bec@@ 100
Coordin@@ 100
ached 100
fundamentally 100
marginal 100
quick@@ 100
Some 100
contends 100
infringement 100
mou@@ 100
plen@@ 100
PU@@ 100
Regular 100
ason 100
curi@@ 100
ks@@ 100
blast 100
Policies 100
SE 100
bron@@ 100
conditioning 100
directory 100
SIDS 100
admi@@ 100
lity 100
avi@@ 100
ballistic 100
spectac@@ 100
Commitment 100
Multi 100
Wol@@ 100
tap 100
turn@@ 100
MINURCAT 100
dimin@@ 100
panic 100
solemn 100
predominantly 100
mighty 100
undergone 100
Sab@@ 100
Santiago 100
Srpska 100
Infrastructure 100
adium 100
Lab@@ 100
fertiliz@@ 100
mill 100
56@@ 100
complying 100
pronounced 100
MB@@ 100
Vis@@ 100
celebrated 100
cord 100
servers 100
236 100
governor 100
sales@@ 100
associates 100
lays 100
wells 100
305 100
Citiz@@ 100
Collabor@@ 100
pivotal 100
presiding 100
whoever 100
fool 100
objectivity 100
welding 100
subparagraphs 100
bubble 100
consumed 100
main@@ 100
speculation 100
ambul@@ 100
Municipal 100
Technological 100
actic 100
vague 100
ICTs 100
Xin@@ 100
bush 100
mom@@ 100
44@@ 100
DR 100
beating 100
Delegation 100
avail 100
discourage 100
educ@@ 100
endanger 100
incur@@ 100
adaptive 100
now@@ 100
singer 100
voy 100
1267 100
accusations 100
web@@ 100
floating 100
ISA@@ 100
Nordic 100
compe@@ 100
inate 100
vitamin 100
55@@ 100
declaring 100
Wh@@ 100
articulated 100
denomin@@ 100
Continental 100
Harvard 100
revising 100
stretch 100
tedly 100
underes@@ 100
spacecraft 100
warmly 100
UNIDIR 100
fa 100
inity 100
Str@@ 100
bud@@ 100
teenage 100
231 100
296 100
MIN@@ 100
affor@@ 100
altitude 100
heart@@ 100
sacred 100
Boards 100
essors 100
ninety 100
reve@@ 100
weakened 100
Gab@@ 100
Leon@@ 100
dispers@@ 100
distinc@@ 100
intake 100
invo@@ 100
kil@@ 100
Early 100
Wat@@ 100
reser@@ 100
Proc@@ 100
evic@@ 100
inspiration 100
Fish 100
dles 100
storms 100
design@@ 100
ele@@ 100
privileged 100
Provision 100
questioning 100
Acc@@ 100
Extra@@ 100
Rati@@ 100
aer@@ 100
clerk 100
develop@@ 100
eval 100
sme@@ 100
winds 100
Wit@@ 100
alp@@ 100
consequent 100
pale 100
rable 100
recurrence 100
fatigue 100
irrit@@ 100
exhibit 100
ashes 100
exchanging 100
scientist 100
ashing 100
dire 100
elessness 100
jing 100
mayor 100
Janeiro 100
sorrow 100
thread 100
Ki 100
heal@@ 100
mount 100
265 100
pel@@ 100
tis@@ 100
breathing 100
eleven 100
girlfriend 100
ignorance 100
Amen@@ 100
Scotland 100
shipped 100
vention 100
Sor@@ 100
competitors 100
painted 100
mounting 100
opponents 100
posal 100
Colonel 100
cur 100
UNE@@ 100
pref@@ 100
overwhel@@ 100
traded 100
Faculty 100
encumbered 100
etc. 100
masses 100
expecting 100
fant@@ 100
husbands 100
microcredit 100
atings 100
perc@@ 100
sentencing 100
232 100
scrat@@ 100
supervis@@ 100
fellowship 100
indiffe@@ 100
negotiable 100
pend@@ 100
squee@@ 100
arid 100
directive 100
formul@@ 100
frustration 100
án 100
7.2 100
Cap 100
crying 100
sponsorship 100
attribute 100
hyd@@ 100
resur@@ 100
boarding 100
encompasses 100
butt@@ 100
duction 100
abundance 100
odd 100
unreasonable 100
atoes 100
tripartite 100
12th 100
addy 100
SubCommission 100
Vir@@ 100
drop@@ 100
vaccines 100
Gor@@ 100
editing 100
respon@@ 100
stringent 100
Brig@@ 100
Republika 100
3.8 100
Nagor@@ 100
arran@@ 100
interrog@@ 100
Donald 100
emotion 100
t. 100
Medium 100
communicating 100
quietly 100
underscore 100
Hongkong 100
ented 100
fugi@@ 100
magistrates 100
thered 100
eding 100
hosts 100
persuade 100
Advice 100
Bun@@ 100
avoidance 100
luc@@ 100
ambition 100
neutr@@ 100
pep@@ 100
recei@@ 100
fuzzy 100
eth 100
simplify 100
ularly 100
Laws 100
distingu@@ 100
sta 100
prioritized 100
trademark 100
deeds 100
turmoil 100
youre 100
Fri@@ 100
fare 100
inspect 100
kingdom 100
precautionary 100
247 100
Nauru 100
oping 100
tness 100
Associations 100
Irish 100
Lehman 100
assumes 100
EG@@ 100
behold 100
ror 100
stock@@ 100
Credit 100
MENTA@@ 100
populated 100
empirical 100
hil@@ 100
traveling 100
Commodities 100
oul@@ 100
proves 100
departed 100
flies 100
fortunately 100
gor@@ 100
rep@@ 100
exempt 100
Issu@@ 100
annum 100
disgu@@ 100
staffed 100
244 100
T. 100
ić 100
rh@@ 100
43@@ 100
Pho@@ 100
Which 100
estion 100
forcibly 100
responds 100
grey 100
lag@@ 100
ranked 100
apprehen@@ 100
confirming 100
plot 100
shoulders 100
UNMOVIC 100
Nobel 100
cigarette 100
pes 100
pursuance 100
238 100
Probl@@ 100
Sam 100
attachment 100
telec@@ 100
687 100
Bla@@ 100
REPO@@ 100
Set 100
forbidden 100
tage 100
Assi@@ 100
Damascus 100
jeopardize 100
lau@@ 100
mista@@ 100
nau@@ 100
patho@@ 100
INTERPOL 100
attorney 100
contraven@@ 100
derog@@ 100
246 100
pesticide 100
Ombudsperson 100
bride 100
definite 100
distinctive 100
entren@@ 100
forge 100
imaging 100
ener@@ 100
redouble 100
Id@@ 100
deem 100
dictionary 100
stretched 100
Fol@@ 100
brackets 100
unsafe 100
slower 100
acquain@@ 100
fan@@ 100
0, 100
Guard 100
arbitrarily 100
IMI@@ 100
outgoing 100
igh@@ 100
Integr@@ 100
neighbors 100
that@@ 100
country@@ 100
anonym@@ 100
dispatch 100
unch 100
shad@@ 100
224 100
concise 100
homeland 100
SM 100
oom 100
defamation 100
derive 100
tow@@ 100
refoulement 100
ski@@ 100
17th 100
Frente 100
Pap@@ 100
TF 100
enders 100
addi@@ 100
bent 100
evictions 100
Book 100
atter 100
aut@@ 100
hair@@ 100
inherited 100
ud 100
Assistants 100
deploying 100
movable 100
rey 100
automobile 100
geable 100
geome@@ 100
impul@@ 100
ratione 100
addic@@ 100
cong@@ 100
connec@@ 100
frontier 100
fuc@@ 100
prioritization 100
MENTS 100
lag 100
charts 100
discourse 100
Ce@@ 100
crowded 100
discrepancies 100
77@@ 100
Advoc@@ 100
Commissioners 100
expire 100
rels 100
stricken 100
Tox@@ 100
acclamation 100
Nos. 100
Prize 100
UNSOA 100
invoices 100
unciation 100
warm@@ 100
261 100
microwave 100
preclude 100
profitable 100
tool@@ 100
unforeseen 100
60,000 100
Mob@@ 100
repression 100
Micro@@ 100
bes@@ 100
refusing 100
san 100
speeches 100
Reintegration 100
critically 100
donation 100
preferable 100
Qing@@ 100
concession 100
promulgation 100
Methods 100
calibr@@ 100
scar 100
conscientious 100
drunk 100
lowering 100
orange 100
sang 100
tumor 100
Reconstruction 100
concentr@@ 100
endangered 100
expen@@ 100
atri@@ 100
penditure 100
Her 100
precondition 100
1958 100
Nicosia 100
intentionally 100
robot 100
was@@ 100
234 100
LS 100
Med@@ 100
sab@@ 100
stockpile 100
Tang 100
flow@@ 100
potenti@@ 100
letting 100
verbal 100
warplanes 100
inval@@ 100
ax 100
upgraded 100
RP@@ 100
bail 100
Revolution 100
myster@@ 100
program@@ 100
sioned 100
Poor 100
hamper 100
royal 100
LOS 100
abil@@ 100
buses 100
keywords 100
rationalization 100
Jenn@@ 100
shoe 100
Disappearance 100
caregi@@ 100
overhead 100
paths 100
teach@@ 100
Cartagena 100
Includes 100
underscores 100
widest 100
bean 100
iv 100
lethal 100
preceded 100
prosecuting 100
contradiction 100
dence 100
differing 100
1950 100
ct 100
preferably 100
cautious 100
disturbed 100
mon 100
fasc@@ 100
supreme 100
COMMI@@ 100
Securities 100
pit 100
tense 100
． 100
collaborated 100
hus@@ 100
manages 100
multimedia 100
Challenges 100
repetition 100
aki 100
hadn 100
observ@@ 100
ped@@ 100
dismantling 100
drain 100
manned 100
trition 100
trium@@ 100
altern@@ 100
condemning 100
devi@@ 100
discriminated 100
examines 100
gal 100
rapporteur 100
18th 100
Mid@@ 100
diagno@@ 100
Azerbaijani 100
Facilitation 100
Sport 100
abad 100
generator 100
psychotropic 100
asive 100
pression 100
prince 100
rhetoric 100
simplification 100
tan 100
Associate 100
Jan 100
ambig@@ 100
anxious 100
HO@@ 100
M.@@ 100
helpl@@ 100
petitioner 100
alleges 100
phi@@ 100
cognitive 100
principally 100
tter 100
Net 100
astronom@@ 100
dep@@ 100
Santa 100
elder 100
priest 100
refurb@@ 100
Susan 100
anu@@ 100
educators 100
explosions 100
scattered 100
Cen@@ 100
chambers 100
clarifications 100
drama 100
POPS 100
doctr@@ 100
shifted 100
bbed 100
demilit@@ 100
Ga@@ 100
Pakistani 100
Ve@@ 100
comfor@@ 100
P.2 100
brands 100
sealed 100
1,200 100
GE 100
MOP 100
Transparency 100
coefficient 100
dit 100
harmon@@ 100
impressed 100
8.5 100
ationary 100
coating 100
ACABQ 100
But@@ 100
detecting 100
issu@@ 100
oody 100
custodial 100
Micronesia 100
Those 100
knee 100
uk@@ 100
IPU 100
airline 100
lic 100
persisted 100
Fair 100
bic 100
entrepreneurial 100
nonproliferation 100
remedi@@ 100
Fight 100
foun@@ 100
respiratory 100
rhyth@@ 100
Seoul 100
X. 100
hierarchy 100
neighbourhood 100
DVD 100
LU@@ 100
battalion 100
congratulated 100
hibition 100
inspected 100
pack@@ 100
Enterprises 100
Surve@@ 100
lump 100
varieties 100
ardo 100
musical 100
1964 100
metro@@ 100
minbi 100
sory 100
unde@@ 100
faults 100
itably 100
polling 100
diction 100
harb@@ 100
Turks 100
condolences 100
criminalize 100
furthering 100
iler 100
scarcity 100
seaf@@ 100
asserts 100
hills 100
incorporates 100
46@@ 100
compensable 100
Fon@@ 100
descriptions 100
herein 100
3, 100
Audi@@ 100
diversify 100
gnee 100
ombud@@ 100
periph@@ 100
Mount 100
audi@@ 100
bite 100
ween 100
contra@@ 100
disper@@ 100
unstable 100
affection 100
doms 100
transforming 100
Bio@@ 100
armoured 100
sb 100
stati@@ 100
subordinate 100
ulture 100
2, 100
338 100
Trump 100
eline 100
rear 100
reprisals 100
sorship 100
too@@ 100
Establish 100
morality 100
sm 100
wel 100
acquisitions 100
earning 100
metry 100
obe@@ 100
oldest 100
Circular 100
Cop@@ 100
Weapon 100
activation 100
electronics 100
spre@@ 100
Carlos 100
Extension 100
Institutional 100
cip@@ 100
prayer 100
recreation 100
su 100
.org. 100
fishery 100
internation@@ 100
poll 100
sticks 100
intrin@@ 100
landed 100
lation 100
outlining 100
reside 100
Ear@@ 100
pist@@ 100
Bam@@ 100
Dep@@ 100
contacted 100
equilibrium 100
rainfall 100
bargaining 100
jail 100
ushed 100
litres 100
solitary 100
Gl@@ 100
Mah@@ 100
stru@@ 100
MEN@@ 100
V.@@ 100
Volunteer 100
reformed 100
Sanctions 100
devised 100
drops 100
supplying 100
administrator 100
cir@@ 100
kly 100
laughter 100
Notes 100
aster@@ 100
colonialism 100
inhal@@ 100
relieve 100
ISAF 100
NAP 100
mortg@@ 100
257 100
XVI 100
ima 100
sizes 100
stranger 100
DPKO 100
Lam@@ 100
churches 100
professions 100
vein 100
pity 100
righte@@ 100
CN.15 100
confused 100
editorial 100
GRO@@ 100
Observation 100
careers 100
extre@@ 100
precau@@ 100
Cambodian 100
Premier 100
eves 100
ared 100
concep@@ 100
dry@@ 100
extensions 100
facilitators 100
retreat 100
subjective 100
PF 100
apor@@ 100
dishes 100
eter 100
merged 100
tments 100
accommodated 100
impaired 100
politan 100
seasonal 100
és 100
283 100
Dj@@ 100
aka 100
desperate 100
repeal 100
wl 100
Ali@@ 100
Camp 100
noteworthy 100
emig@@ 100
farm@@ 100
worsening 100
Stanley 100
epidemi@@ 100
immuno@@ 100
iz 100
paradigm 100
virtu@@ 100
219 100
Tru@@ 100
poultry 100
weap@@ 100
encompassing 100
ovisual 100
CN.7 100
Produc@@ 100
indebted 100
tom 100
245 100
CIAL 100
advising 100
convince 100
dment 100
Accoun@@ 100
Afro 100
LAC 100
eaten 100
wounds 100
Ze@@ 100
acqui@@ 100
happi@@ 100
whilst 100
bankers 100
minimizing 100
discrimin@@ 100
distributing 100
illu@@ 100
lowing 100
tac@@ 100
bral 100
insight 100
289 100
berry 100
complex@@ 100
iter@@ 100
prostitu@@ 100
Mandate 100
aquatic 100
pel 100
recognised 100
Abdel@@ 100
Maj@@ 100
unting 100
UP 100
frac@@ 100
nees 100
sorts 100
13th 100
FF@@ 100
Identification 100
usable 100
300,000 100
Mechan@@ 100
requi@@ 100
backing 100
bag@@ 100
expires 100
trains 100
275 100
TP@@ 100
WS@@ 100
cc@@ 100
eminent 100
envi@@ 100
guar@@ 100
matches 100
Six 100
esa 100
forefront 100
Hill 100
Ker@@ 100
projec@@ 100
Fac@@ 100
habe@@ 100
ICPD 100
aba 100
vaccination 100
Consultation 100
avier 100
defensive 100
didnt 100
projection 100
45@@ 100
KFOR 100
discharged 100
migratory 100
perme@@ 100
Four 100
ward@@ 100
wavel@@ 100
Manufac@@ 100
featured 100
sporting 100
IM 100
Rapporteurs 100
boy@@ 100
swa@@ 100
Symposium 100
deliveries 100
dem 100
founder 100
alloy 100
endless 100
impover@@ 100
kill@@ 100
Jon@@ 100
coc@@ 100
conflicting 100
placements 100
Khan 100
bear@@ 100
enlargement 100
posters 100
textile 100
warnings 100
Az@@ 100
enhances 100
princess 100
Census 100
anno@@ 100
irregularities 100
professionalism 100
twin 100
Syn@@ 100
assem@@ 100
eg 100
suma@@ 100
Mess@@ 100
essor 100
gol@@ 100
Anguilla 100
Prosecu@@ 100
acceleration 100
faithful 100
vivi@@ 100
demics 100
fundament@@ 100
ocy@@ 100
365 100
origins 100
shots 100
ugly 100
Antarctic 100
Governors 100
Magistr@@ 100
16th 100
af 100
bum@@ 100
masters 100
programmed 100
searches 100
streams 100
conferred 100
correc@@ 100
deteriorated 100
dian 100
enzy@@ 100
fted 100
mechan@@ 100
selec@@ 100
analyst 100
cially 100
electronically 100
escorted 100
manife@@ 100
reno@@ 100
spon@@ 100
sums 100
thats 100
AB 100
Claims 100
medication 100
Abuja 100
bings 100
Bad@@ 100
Television 100
isol@@ 100
keting 100
removals 100
trades 100
Mol@@ 100
champion 100
fierce 100
ourable 100
query 100
registers 100
smen 100
Confederation 100
Guangzhou 100
Particip@@ 100
chloro@@ 100
precedence 100
broadband 100
chi 100
erings 100
lion@@ 100
mi 100
abo@@ 100
take@@ 100
assertion 100
destin@@ 100
kings 100
Establ@@ 100
bread@@ 100
gree@@ 100
institution@@ 100
natur@@ 100
slope 100
throat 100
periodic@@ 100
vou@@ 100
Computer 100
fastest 100
Texas 100
shield 100
regionally 100
replenishment 100
Cayman 100
Has@@ 100
acknowledgement 100
enligh@@ 100
landmark 100
breastfeeding 100
underrepresented 100
outlets 100
Awards 100
WH@@ 100
kilo@@ 100
pulse 100
Tel@@ 100
commen@@ 100
pound 100
precursor 100
Lou@@ 100
steal 100
voiced 100
Improving 100
Paul@@ 100
destined 100
aux@@ 100
chaos 100
delimitation 100
impediment 100
improper 100
dropping 100
joke 100
mercy 100
plasma 100
woods 100
gotta 100
jacket 100
undermines 100
arsen@@ 100
oria 100
receipts 100
tes@@ 100
cide 100
mus@@ 100
postpon@@ 100
prescription 100
strous 100
Anti@@ 100
Tian@@ 100
collateral 100
garbage 100
heed 100
supervised 100
14th 100
Palais 100
alig@@ 100
Technologies 100
easing 100
Kyrgyz 100
Will 100
depl@@ 100
fluor@@ 100
brokering 100
sty@@ 100
tty 100
ually 100
ICA 100
tica 100
weren 100
Drafting 100
Mountain 100
bedroom 100
footnote 100
rejects 100
scal@@ 100
9,000 100
Goma 100
ause 100
kidn@@ 100
toilet 100
grantor 100
RE 100
Tome 100
dues 100
thes@@ 100
designer 100
Abdul@@ 100
Ev@@ 100
costing 100
dispatched 100
erts 100
multifaceted 100
slowed 100
Palace 100
intru@@ 100
particle 100
Hom@@ 100
Strategies 100
cheer@@ 100
je 100
oling 100
prerog@@ 100
satur@@ 100
superiority 100
truste@@ 100
Ahmad 100
Corp. 100
Institu@@ 100
gas@@ 100
pois@@ 100
smoothly 100
inscri@@ 100
seabed 100
Helena 100
Wu@@ 100
IV.@@ 100
deplo@@ 100
possessed 100
54@@ 100
Contractor 100
Hassan 100
Safe@@ 100
democracies 100
episo@@ 100
peacemaking 100
reactor 100
gentleman 100
osis 100
rently 100
assemblies 100
breakthrough 100
controller 100
ference 100
gravely 100
inding 100
script 100
duplicate 100
coping 100
dilig@@ 100
knock 100
rope 100
ues 100
icking 100
onization 100
POPs 100
curren@@ 100
geography 100
2030 100
Frank@@ 100
philosoph@@ 100
rays 100
SPT 100
ting@@ 100
answ@@ 100
Slovak 100
ceram@@ 100
photograph 100
ze@@ 100
Coast 100
Dom@@ 100
PM@@ 100
indem@@ 100
scopic 100
vegetation 100
Instrument 100
brig@@ 100
dispose 100
drainage 100
negoti@@ 100
passports 100
wed@@ 100
amb@@ 100
kindness 100
owe 100
Telecommunication 100
los 100
mour@@ 100
Settlement 100
unhappy 100
vicious 100
DPI 100
appro@@ 100
TNCs 100
XX 100
beef 100
charging 100
nearest 100
Xenophobia 100
cred@@ 100
edy 100
Lev@@ 100
Material 100
enduring 100
entirety 100
regulates 100
Tin 100
displays 100
dited 100
inscribed 100
ologic 100
respondent 100
1945 100
Waste 100
intellec@@ 100
membrane 100
subregions 100
6.6 100
66@@ 100
DI 100
concession@@ 100
Belgian 100
goodwill 100
insu@@ 100
lean@@ 100
materiel 100
BWC 100
Rap@@ 100
Mobile 100
Rou@@ 100
cav@@ 100
pne@@ 100
sentiment 100
Taylor 100
catalogue 100
cla@@ 100
fur 100
subnational 100
unilaterally 100
infring@@ 100
sends 100
weaker 100
Term 100
Van@@ 100
discontinued 100
hoods 100
1965 100
It@@ 100
idal 100
kov 100
rings 100
Athens 100
Mak@@ 100
poetry 100
Montserrat 100
advisable 100
phot@@ 100
MISC.@@ 100
acies 100
instin@@ 100
Tit@@ 100
Wales 100
defec@@ 100
deployments 100
mac@@ 100
authorizes 100
modality 100
dupl@@ 100
hetero@@ 100
telephon@@ 100
Tun@@ 100
convers@@ 100
piano 100
LEG 100
Meteorological 100
° 100
bad@@ 100
commending 100
excav@@ 100
resin 100
throwing 100
yielded 100
SB 100
itarian 100
pm 100
Cases 100
Mea@@ 100
Principe 100
Yang@@ 100
ICE 100
overlapping 100
Disengagement 100
Chung 100
antiretroviral 100
cost@@ 100
iri 100
mediate 100
scru@@ 100
spirits 100
ware@@ 100
1701 100
288 100
Materials 100
mild 100
poppy 100
Bah@@ 100
solvent 100
25,000 100
mercenary 100
FDLR 100
commerci@@ 100
loop 100
mess 100
ño 100
Dow@@ 100
Pierre 100
WP 100
withdrawing 100
Andean 100
abandonment 100
wis@@ 100
revoc@@ 100
install@@ 100
proportional 100
share@@ 100
slowing 100
ulty 100
Correc@@ 100
avenues 100
merchandise 100
Angeles 100
adic 100
oa 100
ris 100
controversy 100
det@@ 100
futures 100
maximizing 100
stances 100
Card 100
Religious 100
backward 100
neg@@ 100
ure@@ 100
Freedoms 100
Mill@@ 100
dele@@ 100
modeling 100
rho@@ 100
stern 100
6.7 100
Es@@ 100
fraudulent 100
master@@ 100
pig 100
Fellowship 100
biomass 100
dres@@ 100
commendable 100
midnight 100
announ@@ 100
asym@@ 100
bowl 100
oun 100
proving 100
tha 100
v.@@ 100
intr@@ 100
popularity 100
universalization 100
PD 100
assistants 100
shook 100
essional 100
abol@@ 100
lied 100
5. 100
Geographical 100
blessed 100
energe@@ 100
preconditions 100
Comp@@ 100
Wen 100
arguing 100
ation.@@ 100
incar@@ 100
obli@@ 100
stopping 100
Bol@@ 100
ept@@ 100
280 100
clever 100
numbered 100
tization 100
unequivocal 100
ennial 100
mist 100
nitrogen 100
premise 100
refine 100
Florida 100
ball@@ 100
hem 100
hob@@ 100
ox 100
terly 100
Moon 100
stepping 100
259 100
aston@@ 100
citing 100
geous 100
ite@@ 100
kid@@ 100
rememb@@ 100
Eight 100
disagreement 100
exagg@@ 100
finitely 100
Analy@@ 100
ICTY 100
ONU@@ 100
genuinely 100
Algerian 100
SME 100
Loc@@ 100
bids 100
horizon 100
recurring 100
warrants 100
284 100
You@@ 100
china 100
entation 100
bicycle 100
punitive 100
terior 100
23.@@ 100
Po 100
charitable 100
famine 100
thane 100
turb@@ 100
249 100
blank 100
CRP.1 100
Windows 100
critic@@ 100
performs 100
smiled 100
nasty 100
Cot@@ 100
Drought 100
paper@@ 100
transf@@ 100
Century 100
paramilitary 100
reporter 100
Marriage 100
Spo@@ 100
assass@@ 100
institutionalized 100
peculi@@ 100
zo 100
desktop 100
originated 100
rescu@@ 100
tainment 100
22@@ 100
adul@@ 100
fai@@ 100
Diplomatic 100
counterpart 100
rebel@@ 100
Yearbook 100
flee 100
hap@@ 100
tually 100
360 100
stes 100
videos 100
Cra@@ 100
Evidence 100
IOC 100
Responsibility 100
Suc@@ 100
aesthetic 100
critici@@ 100
elite 100
valu@@ 100
unite 100
hostility 100
ij@@ 100
4.9 100
Nation 100
Paragraph 100
electr@@ 100
modelling 100
waiver 100
authoritative 100
fast@@ 100
Bob 100
Guarante@@ 100
akers 100
belonged 100
explanatory 100
rists 100
yi 100
Handbook 100
Method 100
furnished 100
gie 100
risky 100
assembled 100
handsome 100
guez 100
medal 100
var@@ 100
PAs 100
PIC 100
anga 100
lab 100
modal 100
para@@ 100
Sarajevo 100
cheese 100
drives 100
fluorocar@@ 100
gren@@ 100
troop- 100
Tan@@ 100
assess@@ 100
understandings 100
Hussein 100
Provincial 100
Steve 100
gui 100
uk 100
1514 100
pole 100
postpone 100
trans 100
jewel@@ 100
powered 100
transmit@@ 100
bam@@ 100
stors 100
ulative 100
appell@@ 100
forging 100
happily 100
Plant 100
lit 100
notices 100
reti@@ 100
Baltic 100
INGS 100
Mutual 100
Rep@@ 100
eph@@ 100
overnight 100
positioned 100
side@@ 100
---@@ 100
discretionary 100
inland 100
nes@@ 100
Louis 100
SEC@@ 100
bare 100
depletion 100
protections 100
slo@@ 100
DEVELOPMENT 100
ECOSOC 100
anship 100
deton@@ 100
manpower 100
usting 100
NAM 100
congrat@@ 100
disappear 100
impasse 100
memorial 100
spot@@ 100
stries 100
8.3 100
Enhancing 100
eman 100
Muhammad 100
trick 100
Eli@@ 100
nucle@@ 100
reb@@ 100
umber 100
Consolidated 100
Hear@@ 100
Majesty 100
logistic 100
nowhere 100
plug 100
Goldman 100
evalu@@ 100
shaft 100
Such 100
Tunis 100
adop@@ 100
Pel@@ 100
cel 100
declines 100
Off@@ 100
hospit@@ 100
shower 100
IO 100
bre 100
ratifications 100
Supervision 100
dus 100
Ensuring 100
amaz@@ 100
anthropogenic 100
regener@@ 100
sodium 100
survi@@ 100
bilingual 100
ida 100
udge 100
casual 100
meaning@@ 100
pren@@ 100
shine 100
clay 100
contempt 100
depreciation 100
Abra@@ 100
Fem@@ 100
Tre@@ 100
just@@ 100
retaliation 100
Decisions 100
Geo@@ 100
disbursements 100
presumed 100
reason@@ 100
uri@@ 100
commemorate 100
diminish 100
identities 100
ts@@ 100
4, 100
Algiers 100
Tsu@@ 100
bridging 100
consign@@ 100
gain@@ 100
285 100
Yun@@ 100
omen@@ 100
Add.4 100
ester 100
raped 100
Water@@ 100
adhered 100
swiftly 100
toys 100
your@@ 100
001 100
08@@ 100
LCA 100
dismis@@ 100
moisture 100
ascertained 100
siz@@ 100
Democrats 100
crete 100
elegant 100
vie@@ 100
assert 100
bli@@ 100
reson@@ 100
Elections 100
advertisements 100
mined 100
tribes 100
Prohi@@ 100
ffic@@ 100
unwilling 100
UND@@ 100
innocence 100
invari@@ 100
oting 100
256 100
dilem@@ 100
discharging 100
fty 100
weakening 100
Firearms 100
buil@@ 100
dents 100
manifestation 100
matic 100
Vision 100
color@@ 100
consume 100
drawdown 100
ince 100
AV@@ 100
Luis 100
PFOS 100
TP 100
biased 100
denti@@ 100
faith@@ 100
fatal 100
htm 100
slept 100
uma 100
229 100
acious 100
ato 100
door@@ 100
maxim@@ 100
mix@@ 100
stops 100
subsidized 100
ambiguous 100
forged 100
mes@@ 100
pink 100
telecommunication 100
Primary 100
geon 100
right@@ 100
trapped 100
contraception 100
DE 100
Sc@@ 100
indefinite 100
checklist 100
onset 100
spectr@@ 100
5.7 100
esteem 100
thum@@ 100
asbestos 100
grou@@ 100
revitalize 100
Gene@@ 100
Hazardous 100
intermedi@@ 100
races 100
stor 100
292 100
Emp@@ 100
adverti@@ 100
expose 100
jeal@@ 100
soccer 100
ylene 100
cian 100
elders 100
Compar@@ 100
friend@@ 100
infiltr@@ 100
relay 100
rif@@ 100
Class 100
impacted 100
practise 100
.m.@@ 100
domination 100
thed 100
tranet 100
wi 100
Reference 100
chase 100
defect 100
diverted 100
Ibrahim 100
Resul@@ 100
Tha@@ 100
indoor 100
inher@@ 100
washed 100
1962 100
239 100
aids 100
shir@@ 100
Antonio 100
Ever@@ 100
deletion 100
assionate 100
extern@@ 100
harm@@ 100
mists 100
thy@@ 100
Gonz@@ 100
MIC@@ 100
R.@@ 100
allah 100
sali@@ 100
smiling 100
Paulo 100
Yu 100
batteries 100
chiefs 100
isphere 100
itch@@ 100
shop@@ 100
smar@@ 100
arize 100
sediment 100
supervisors 100
avert 100
trusts 100
Shari@@ 100
Vol 100
ample 100
jin 100
will@@ 100
stret@@ 100
tiles 100
Africans 100
Indivi@@ 100
amine 100
backdrop 100
ially 100
proportions 100
scenes 100
torn 100
Labor@@ 100
Mes@@ 100
NL 100
abduc@@ 100
intensifying 100
sements 100
Names 100
SG 100
discer@@ 100
docu@@ 100
implicit 100
power@@ 100
tably 100
tern 100
Annexes 100
Emer@@ 100
accommod@@ 100
alteration 100
bited 100
polymetallic 100
262 100
vain 100
Horn 100
Reque@@ 100
baggage 100
endo@@ 100
utter 100
28,@@ 100
Senator 100
intervie@@ 100
mentoring 100
rupted 100
sth 100
taBDE 100
thickness 100
Reser@@ 100
Dr@@ 100
SECURITY 100
asp@@ 100
Mater@@ 100
Shel@@ 100
winners 100
ematic 100
individu@@ 100
obstetric 100
316 100
outward 100
pain@@ 100
helor 100
mask 100
presidents 100
Inv@@ 100
Telecommunications 100
axis 100
memorandums 100
opa@@ 100
practised 100
prospecting 100
terrestrial 100
wich 100
diameter 100
memor@@ 100
refuses 100
enda 100
iss 100
occasional 100
scared 100
tioner 100
Abkhaz 100
Schools 100
addiction 100
ower 100
OCHA 100
Teaching 100
convincing 100
grandfather 100
spir@@ 100
tops 100
eighteen 100
prevailed 100
sue 100
uation 100
Agencies 100
assassination 100
endarmerie 100
lodge 100
cultivated 100
dressing 100
indices 100
presti@@ 100
Exploration 100
Men@@ 100
Populations 100
Objectives 100
boring 100
EEC 100
Facilities 100
Macau 100
counterfe@@ 100
depressed 100
hotline 100
ogo 100
Juba 100
compiling 100
De 100
Ford 100
Helen 100
Neigh@@ 100
Ok@@ 100
calcul@@ 100
corrosion 100
friction 100
priv@@ 100
stead@@ 100
Digital 100
TT 100
ares 100
differentiation 100
textiles 100
263 100
Raf@@ 100
Roc@@ 100
Victoria 100
ello 100
pig@@ 100
defences 100
omin@@ 100
eases 100
pup@@ 100
atitis 100
wolf 100
Tony 100
Vehic@@ 100
assation 100
overflew 100
quad@@ 100
bei 100
castle 100
decrees 100
obesity 100
obl@@ 100
Bern@@ 100
Caicos 100
DM 100
IK@@ 100
INTERNATIONAL 100
Sp@@ 100
ishments 100
tack@@ 100
collections 100
Sw@@ 100
Twelfth 100
destabilizing 100
manu@@ 100
DAC 100
Import 100
asc@@ 100
judgments 100
ordering 100
pho@@ 100
tours 100
.It 100
fem@@ 100
generational 100
nonlinear 100
pared 100
TC@@ 100
ough 100
snow@@ 100
Achi@@ 100
asion 100
gies 100
pools 100
rewards 100
robo@@ 100
invisible 100
sells 100
272 100
Altern@@ 100
prints 100
suffers 100
devil 100
elle 100
Me 100
IF 100
gical 100
researches 100
IE 100
ssed 100
Est@@ 100
atism 100
tland 100
unjust 100
arly 100
itte@@ 100
technicians 100
23,@@ 100
Dominica 100
RMB 100
affiliation 100
disbursement 100
ials 100
Temporary 100
compliments 100
pater@@ 100
produc@@ 100
Ethnic 100
insights 100
sensors 100
bum 100
call@@ 100
fitness 100
intestin@@ 100
locks 100
spin 100
Bat@@ 100
Migrants 100
eld 100
prepares 100
quake 100
Relationship 100
catering 100
erate 100
testify 100
Initi@@ 100
Kin@@ 100
opho@@ 100
ridical 100
Bab@@ 100
harness 100
Albert 100
commencing 100
imposes 100
4.30 100
Ping 100
mans 100
Jiang@@ 100
MAN 100
Pos@@ 100
Tol@@ 100
gly@@ 100
paintings 100
Councils 100
deaf 100
deformation 100
detriment 100
fisher@@ 100
jar 100
remot@@ 100
vi 100
Tro@@ 100
flour 100
detainee 100
enger 100
specifying 100
Clin@@ 100
Greenland 100
password 100
scholarship 100
temper@@ 100
Organiz@@ 100
atized 100
ratings 100
vatives 100
Clar@@ 100
Interpol 100
yar@@ 100
Certification 100
Partic@@ 100
Pollutants 100
extin@@ 100
inferior 100
contemplated 100
scoring 100
aluminum 100
cus@@ 100
glance 100
intimate 100
secrecy 100
vative 100
GNP 100
pharmac@@ 100
provisionally 100
screw 100
influx 100
serial 100
Star@@ 100
enery 100
permissible 100
tactical 100
whist@@ 100
5.8 100
turbul@@ 100
XVII 100
bonus 100
creatures 100
Shelf 100
Stephen 100
ety 100
intangible 100
vering 100
ym@@ 100
conserv@@ 100
gates 100
possesses 100
html 100
sink 100
sionary 100
HD 100
Jordanian 100
aw 100
calcium 100
Single 100
gotten 100
selectivity 100
stum@@ 100
Barcelona 100
grief 100
illnesses 100
oid 100
shortfalls 100
Edward 100
Secretaries 100
authentic@@ 100
correctional 100
dwellers 100
essay 100
inhe@@ 100
snake 100
realm 100
Federated 100
L.3 100
OPCW 100
age@@ 100
izations 100
qing 100
analy@@ 100
usti@@ 100
Add.1. 100
Amman 100
Cour@@ 100
SI 100
bot@@ 100
gauge 100
BR@@ 100
c. 100
lean 100
omed 100
shap@@ 100
blade 100
ffed 100
guaran@@ 100
Nou@@ 100
dull 100
exempl@@ 100
sculp@@ 100
Database 100
HRI 100
Juan 100
Stocks 100
WE@@ 100
peasant 100
thodox 100
1946 100
bullet 100
oundly 100
Big 100
activis@@ 100
evid@@ 100
fake 100
healing 100
relaxed 100
repository 100
knocked 100
olution 100
resting 100
slau@@ 100
FPA 100
Phar@@ 100
bra 100
ego 100
ier 100
tina 100
Arbitrary 100
beans 100
clud@@ 100
macro@@ 100
translating 100
Econom@@ 100
ary@@ 100
coven@@ 100
delicious 100
cohe@@ 100
endure 100
rants 100
6.8 100
Art. 100
Vic@@ 100
mas 100
EF 100
coding 100
incorrect 100
22,@@ 100
bury 100
fled@@ 100
profession@@ 100
concurrently 100
rhe@@ 100
sunshine 100
tian 100
1,5@@ 100
Alma 100
Consider 100
ackers 100
batch 100
honesty 100
pse 100
Len@@ 100
O. 100
SPEC@@ 100
grandmother 100
reforestation 100
resilient 100
topo@@ 100
Counsel@@ 100
countless 100
educating 100
open@@ 100
promo@@ 100
recruits 100
rele@@ 100
thood 100
Schedule 100
Star 100
cave 100
boyfriend 100
dried 100
neighbor 100
searched 100
Date 100
loyal 100
closures 100
dining 100
motives 100
inclu@@ 100
jurisdictional 100
manipulation 100
sleep@@ 100
summarize 100
Kashmir 100
SNA 100
bless 100
cultivate 100
drow@@ 100
Then 100
abstr@@ 100
donated 100
duce 100
eutenant 100
organizers 100
poet 100
alter@@ 100
depos@@ 100
fined 100
muscles 100
did@@ 100
probe 100
Chairpersons 100
multipli@@ 100
mystery 100
Because 100
Gro@@ 100
UNOSOM 100
omission 100
rod 100
tough@@ 100
21.@@ 100
Benjamin 100
Cooperative 100
austerity 100
entailed 100
• 100
Make 100
anom@@ 100
dependants 100
itch 100
quan@@ 100
Vietnamese 100
bic@@ 100
enforceable 100
miners 100
orous 100
otropic 100
pered 100
pha 100
unsatisfactory 100
Adoles@@ 100
Constitu@@ 100
COM 100
Lima 100
deterrent 100
seemingly 100
succee@@ 100
000@@ 100
crown 100
derness 100
inclined 100
sau@@ 100
standpoint 100
directing 100
Forestry 100
Yuan 100
bienniums 100
butter 100
leakage 100
ploy@@ 100
10.30 100
Hil@@ 100
Transition 100
Ts 100
conspir@@ 100
itentiary 100
nut 100
8.1 100
creature 100
enclosure 100
ferti@@ 100
ridic@@ 100
tour@@ 100
underway 100
Arrangements 100
Kigali 100
criminalized 100
envisages 100
warn 100
Contribu@@ 100
lens 100
retirees 100
Wong 100
endemic 100
History 100
compensated 100
iced 100
march 100
plum@@ 100
Consum@@ 100
Host 100
ICAL 100
Moun@@ 100
abnormal 100
Balk@@ 100
Pic@@ 100
Proce@@ 100
Had@@ 100
cence 100
juncture 100
sunlight 100
7.6 100
breathe 100
ggles 100
iliary 100
nominate 100
WORK 100
forfe@@ 100
funeral 100
arch 100
collapsed 100
AW@@ 100
Innovation 100
Towards 100
appropri@@ 100
corridor 100
ggling 100
het 100
murdered 100
polygam@@ 100
VA 100
stat 100
Collection 100
Request 100
common@@ 100
embark 100
fi 100
histor@@ 100
shit 100
INF.@@ 100
Pop@@ 100
Societies 100
vor@@ 100
Sand@@ 100
lan 100
trainees 100
Guidance 100
Punish 100
purview 100
widows 100
mini 100
ako 100
orphan@@ 100
subsection 100
CRPD 100
Offenders 100
Persistent 100
Proposed 100
Day@@ 100
diar@@ 100
longest 100
petitioners 100
regres@@ 100
treat@@ 100
criminality 100
food@@ 100
gio 100
mp 100
Shabaab 100
columns 100
involuntary 100
nings 100
Village 100
icious 100
Radi@@ 100
stun@@ 100
unlimited 100
Before 100
SAICM 100
jo 100
spray 100
ITIES 100
More 100
unification 100
wholesale 100
Dav@@ 100
Nile 100
ODP 100
envis@@ 100
287 100
oh 100
pulling 100
ér@@ 100
ENT 100
Kel@@ 100
Pearl 100
adjudic@@ 100
authentic 100
bans 100
harn@@ 100
suses 100
thier 100
urity 100
weaken 100
Affec@@ 100
Delivering 100
FP 100
corrobor@@ 100
publicize 100
symbol@@ 100
29,@@ 100
ader 100
1954 100
referen@@ 100
tz 100
Ang@@ 100
backup 100
icon 100
intensification 100
Eleventh 100
aser 100
Abdullah 100
energies 100
yn 100
outdated 100
requ@@ 100
Reduc@@ 100
accords 100
medium@@ 100
substantiate 100
290 100
isc@@ 100
legen@@ 100
palace 100
prim@@ 100
367 100
favourably 100
inspire 100
rich@@ 100
vered 100
CSCE 100
Christians 100
exhibitions 100
functionality 100
alcohol@@ 100
atist 100
cit@@ 100
fraction 100
incre@@ 100
reciprocal 100
286 100
Lt@@ 100
Managing 100
deliver@@ 100
ologies 100
tre 100
onn@@ 100
Avenue 100
Gil@@ 100
incommunicado 100
olds 100
xi@@ 100
0.3 100
aim@@ 100
compromised 100
sper@@ 100
teenagers 100
heated 100
interlocutors 100
luggage 100
unitions 100
Offences 100
induce 100
shy 100
304 100
Eigh@@ 100
Mass 100
suc@@ 100
uli@@ 100
colored 100
earthquakes 100
lenders 100
Claimant 100
achment 100
ava 100
institutionalization 100
otherapy 100
complain@@ 100
golf 100
plaintiff 100
vements 100
expec@@ 100
otive 100
tos 100
5, 100
750 100
drafts 100
gasoline 100
indul@@ 100
itative 100
Aud@@ 100
Kitts 100
massacre 100
rais@@ 100
dens 100
reluctance 100
rene@@ 100
wanting 100
Autom@@ 100
unwanted 100
authorizing 100
delighted 100
repatriated 100
concurred 100
exempted 100
geospatial 100
tailor 100
tarian 100
chee@@ 100
outdoor 100
worries 100
MAT@@ 100
Rac@@ 100
drift 100
genous 100
relic@@ 100
sics 100
281 100
According 100
Substantive 100
bio 100
orbital 100
otes 100
rushed 100
thief 100
brut@@ 100
catalo@@ 100
enumerated 100
fifty@@ 100
267 100
CERs 100
sett@@ 100
Respec@@ 100
cameras 100
prejudices 100
queen 100
summar@@ 100
zinc 100
BT 100
Kon@@ 100
Nevis 100
surfaces 100
weed 100
End 100
UNISFA 100
anese 100
peers 100
wal 100
CR 100
ECO@@ 100
din 100
timeline 100
Improvement 100
Resolutions 100
anism 100
endang@@ 100
formity 100
haul 100
symbolic 100
Railway 100
mass@@ 100
pitch 100
blog 100
phasing 100
ité 100
profiling 100
racks 100
senti@@ 100
Bridge 100
Fal@@ 100
impairment 100
stole 100
Type 100
deepest 100
owns 100
possessing 100
stems 100
strengthens 100
CESCR 100
STAT@@ 100
Stud@@ 100
naked 100
subur@@ 100
uan 100
25,@@ 100
9.5 100
wri@@ 100
FOR@@ 100
24.@@ 100
Angolan 100
clandestine 100
Hus@@ 100
checkpoint 100
ecology 100
demonstrators 100
stim@@ 100
DP@@ 100
elastic 100
ponents 100
sses 100
visions 100
worlds 100
HF 100
hysical 100
particulars 100
versal 100
SSION 100
dairy 100
furnace 100
lately 100
swear 100
talented 100
Zaire 100
broadca@@ 100
uniqu@@ 100
SGB 100
mach@@ 100
node 100
ram 100
425 100
FIR 100
Finnish 100
dialec@@ 100
erical 100
IAL 100
garage 100
Biodiversity 100
EP 100
Hungarian 100
standardi@@ 100
.鈥 100
revert 100
tionist 100
Navy 100
Pollution 100
apples 100
architectural 100
crossings 100
depleted 100
ultra 100
formalities 100
eff@@ 100
mine@@ 100
rant 100
useless 100
validated 100
kilometers 100
registering 100
tories 100
inch 100
streaming 100
Abdul 100
alleg@@ 100
inflic@@ 100
lowered 100
rene 100
responsiveness 100
sque 100
survived 100
Gates 100
dation 100
strife 100
LL 100
PO 100
fibre 100
inefficient 100
ranged 100
verdict 100
Shan 100
algorithms 100
casu@@ 100
consci@@ 100
drying 100
fancy 100
shocked 100
bia 100
damn 100
monial 100
argu@@ 100
betra@@ 100
ege 100
needy 100
recovering 100
strides 100
conden@@ 100
depar@@ 100
eded 100
licenses 100
obey 100
toral 100
.A 100
Kw@@ 100
Republicans 100
eda 100
humor 100
Prisoners 100
Real 100
annotated 100
beli@@ 100
infrared 100
laughing 100
persists 100
radiological 100
statelessness 100
cloning 100
closest 100
seated 100
ét@@ 100
Fire 100
Nigerian 100
nine@@ 100
orium 100
policemen 100
Entebbe 100
arers 100
jan 100
supervising 100
wondering 100
bru@@ 100
mainstreamed 100
prohibitions 100
Ontario 100
Sof@@ 100
Work@@ 100
envelope 100
grouped 100
protesters 100
teor@@ 100
Philippine 100
Supporting 100
gles 100
pets 100
pluralism 100
cock@@ 100
natal 100
erring 100
variances 100
Authorities 100
Hydro@@ 100
advant@@ 100
King@@ 100
Pristina 100
alties 100
fitted 100
justifiable 100
steep 100
aspiration 100
exceptionally 100
Xinjiang 100
alarmed 100
domestically 100
insti@@ 100
odds 100
Little 100
massac@@ 100
Alex@@ 100
Ninth 100
anity 100
consortium 100
fertilizer 100
Archi@@ 100
Broadcasting 100
MAL 100
accep@@ 100
bottlenec@@ 100
comparisons 100
overseeing 100
000,000 100
Observers 100
Virginia 100
anit@@ 100
FROM 100
Requi@@ 100
climbed 100
wool 100
MERCOSUR 100
agon@@ 100
handful 100
invoice 100
sour@@ 100
teness 100
100@@ 100
Tuni@@ 100
bie 100
hopefully 100
reuse 100
satisfying 100
escence 100
exacerbate 100
requisites 100
span@@ 100
contraceptives 100
REP 100
chester 100
cow 100
debated 100
gods 100
herd 100
humili@@ 100
Disappearances 100
Lis@@ 100
spectro@@ 100
Compan@@ 100
boosting 100
favour@@ 100
implication 100
sky@@ 100
Resistance 100
webcast 100
11.30 100
Conditions 100
Havana 100
Referendum 100
ampl@@ 100
blamed 100
collision 100
remo@@ 100
seam@@ 100
mens 100
oes 100
pp. 100
Background 100
gratis 100
lifelong 100
corresponds 100
levi@@ 100
socialism 100
Madam 100
SESSION 100
bench 100
24,@@ 100
Simon 100
profici@@ 100
rement 100
Navi@@ 100
Sarah 100
base@@ 100
fragmented 100
ois 100
Living 100
Spirit 100
Vie@@ 100
abbrevi@@ 100
policeman 100
lod@@ 100
lovers 100
rotary 100
trea@@ 100
verifying 100
3.9 100
Catherine 100
inhabited 100
museums 100
overlooked 100
curtail@@ 100
ellow 100
flown 100
laughed 100
abolishment 100
8.4 100
Pitcairn 100
bod@@ 100
cogniz@@ 100
professors 100
vising 100
8.2 100
ripe 100
78@@ 100
89@@ 100
Milan 100
Nur@@ 100
Respon@@ 100
UNA0@@ 100
auditor 100
mable 100
ployment 100
toy 100
Bound@@ 100
CTION 100
Caucasus 100
az 100
spor@@ 100
9.3 100
CCA 100
blood@@ 100
burnt 100
construc@@ 100
tiger 100
underp@@ 100
endosulfan 100
fixing 100
hopeful 100
kidney 100
lish 100
MYFF 100
attle 100
desirability 100
Aliens 100
illiter@@ 100
learnt 100
neighbour 100
SPIDER 100
broker 100
curious 100
dest 100
electron 100
opponent 100
orates 100
thin@@ 100
vitality 100
BDE 100
repayment 100
Standardi@@ 100
Suppress 100
catastrophe 100
facial 100
Kampala 100
Ugandan 100
adian 100
attacking 100
blocking 100
lessness 100
polio 100
prec@@ 100
sten 100
DER 100
Key 100
Program@@ 100
Vocational 100
authentication 100
blee@@ 100
ik@@ 100
rom@@ 100
cervical 100
disbursed 100
substitution 100
appetite 100
richest 100
sar@@ 100
L.4 100
NAT@@ 100
Stan@@ 100
visitor 100
1244 100
oppression 100
unfounded 100
icating 100
judic@@ 100
kar@@ 100
prioritiz@@ 100
shri@@ 100
unused 100
Banking 100
YO@@ 100
kh@@ 100
Especially 100
aliz@@ 100
mixing 100
ows 100
pirates 100
Indicators 100
Secondary 100
excitement 100
quote 100
surve@@ 100
Jacob 100
esome 100
globalized 100
magistr@@ 100
verage 100
wrapped 100
26.@@ 100
Lin 100
backstopping 100
tireless 100
cruise 100
graphics 100
alleviating 100
climbing 100
delight 100
avoidable 100
nest 100
unpredictable 100
Ten@@ 100
Week 100
axy 100
defeated 100
magnific@@ 100
nar@@ 100
retire 100
Associated 100
cables 100
hn 100
incum@@ 100
misery 100
refining 100
switching 100
Cook 100
IONAL 100
Represents 100
WG 100
Revised 100
touching 100
č@@ 100
goo@@ 100
hall@@ 100
mechanics 100
30,@@ 100
Depos@@ 100
nuts 100
oy@@ 100
victimization 100
XL@@ 100
alternatively 100
CFC 100
Mediation 100
aly 100
bathroom 100
broadcasts 100
loyalty 100
ul 100
Restrictions 100
confession 100
min 100
polis 100
Alber@@ 100
infantry 100
ll@@ 100
publish@@ 100
cellor 100
deep@@ 100
dirt 100
figu@@ 100
sinks 100
unrestricted 100
Alan 100
INF@@ 100
Tong 100
afforestation 100
ake 100
uniformed 100
268 100
additions 100
estim@@ 100
attraction 100
chat 100
enrich 100
enrol@@ 100
sam@@ 100
Dubai 100
Hai@@ 100
demolition 100
exhibits 100
remark 100
Mohammad 100
Valentine 100
XIX 100
bother 100
proxy 100
climatic 100
combines 100
CHA@@ 100
Monrovia 100
Square 100
aunt 100
cyclical 100
stran@@ 100
torch 100
Categ@@ 100
PE 100
dition 100
pervasive 100
proportionate 100
fix@@ 100
mun@@ 100
PLC 100
Partners 100
level@@ 100
Alexander 100
NASA 100
SF 100
ressing 100
HCH 100
plat@@ 100
Mahmoud 100
adata 100
bluepr@@ 100
extor@@ 100
physician 100
spiral 100
Amnesty 100
Marx@@ 100
0.6 100
7.8 100
ASSEMBLY 100
Map 100
computerized 100
dable 100
demobilized 100
diagnosed 100
kins 100
therap@@ 100
LEX 100
Opinion 100
franch@@ 100
wling 100
Civilizations 100
WITH 100
chief@@ 100
dig 100
PH@@ 100
catastrophic 100
organizes 100
2050 100
Kra@@ 100
continents 100
icle 100
sal 100
Clo@@ 100
blat@@ 100
extracted 100
index.@@ 100
Cru@@ 100
does@@ 100
26,@@ 100
DD 100
Debt 100
Pil@@ 100
anticipate 100
existent 100
psycho@@ 100
sensible 100
Hollywood 100
airlines 100
ht@@ 100
· 100
chop@@ 100
keynote 100
wart 100
wasted 100
Cambridge 100
aus@@ 100
generates 100
irrelevant 100
operationalization 100
prototype 100
record@@ 100
widen 100
aquifers 100
guardians 100
picking 100
susceptible 100
tale 100
295 100
agon 100
pockets 100
regain 100
rejec@@ 100
soap 100
Michel@@ 100
ati 100
scor@@ 100
tenders 100
polymer 100
surr@@ 100
Inalienable 100
UNAMIR 100
dissolved 100
sities 100
watch@@ 100
Mid 100
gling 100
320 100
Ceasefire 100
GPS 100
bombar@@ 100
brick 100
inconsistencies 100
pardon 100
Chang@@ 100
weak@@ 100
Friend@@ 100
reciprocity 100
GH@@ 100
Great@@ 100
W.@@ 100
cellular 100
Address 100
alg@@ 100
consensual 100
erous 100
nul@@ 100
paste 100
tra 100
divorced 100
junction 100
motive 100
65@@ 100
Jim@@ 100
XXI 100
intermediary 100
Van 100
eship 100
interpreter 100
needle 100
22.@@ 100
UNCT 100
asser 100
ming@@ 100
Add.5 100
UNISPACE 100
desires 100
pick@@ 100
Deli@@ 100
ERW 100
MEETING 100
adventure 100
cali@@ 100
inous 100
tolerate 100
cats 100
gentlemen 100
ile@@ 100
neighborhood 100
unutilized 100
0.4 100
ITY 100
bitions 100
dispen@@ 100
elic 100
ington 100
pede@@ 100
Sydney 100
butter@@ 100
enhan@@ 100
lateral 100
sulph@@ 100
Av@@ 100
ambitions 100
appliances 100
geneous 100
ferencing 100
Serge@@ 100
desper@@ 100
pati@@ 100
Girls 100
McCain 100
Sami 100
finger@@ 100
math 100
Zi@@ 100
aluminium 100
ander 100
poem 100
referenced 100
shade 100
Mam@@ 100
acker 100
exhi@@ 100
finishing 100
grounded 100
harbour 100
proportionality 100
BiH 100
Identi@@ 100
ML@@ 100
adjour@@ 100
blu@@ 100
contradictory 100
poisoning 100
smugg@@ 100
tians 100
03@@ 100
Burundian 100
Corps 100
Dangerous 100
Engine@@ 100
Kaz@@ 100
disrupt 100
fair@@ 100
manifested 100
dentiary 100
specialization 100
vibrant 100
Frank 100
Taking 100
constra@@ 100
faction 100
ROM 100
aking 100
asph@@ 100
importation 100
troubles 100
Roo@@ 100
ordination 100
pursu@@ 100
rains 100
resolutely 100
restor@@ 100
ustices 100
HAB@@ 100
Stock 100
designers 100
measles 100
oul 100
sensitize 100
tightly 100
vocabulary 100
75@@ 100
VENTION 100
extingu@@ 100
gency 100
racing 100
sph@@ 100
sweat 100
transporting 100
archae@@ 100
codi@@ 100
crip@@ 100
flexi@@ 100
interpreting 100
severance 100
Andrew 100
Encoura@@ 100
GA@@ 100
HCFC 100
brokers 100
cocoa 100
phenyl 100
spontaneous 100
ssing 100
stir@@ 100
Industries 100
deck 100
equations 100
pering 100
stop@@ 100
Chil@@ 100
Effici@@ 100
Institution 100
NS 100
Publications 100
SPLA 100
ane@@ 100
dismant@@ 100
WOR@@ 100
ageous 100
borrowed 100
generously 100
mium 100
through@@ 100
&apos;S 100
Kiribati 100
dero@@ 100
fronts 100
venues 100
KO@@ 100
ateau 100
repres@@ 100
sitive 100
sits 100
spill 100
Officials 100
illustration 100
indivisible 100
Mars 100
achievable 100
uniforms 100
rak@@ 100
temper 100
milestones 100
mountain@@ 100
eternal 100
inviol@@ 100
Dad 100
avian 100
unti@@ 100
Conclusions 100
earnest 100
277 100
Bis@@ 100
ames 100
dentally 100
descen@@ 100
disturbance 100
electromagnetic 100
Insolvency 100
folded 100
glim@@ 100
photoc@@ 100
ria 100
Inju@@ 100
grammar 100
maid 100
slic@@ 100
cliff 100
palm 100
procured 100
velles 100
xenophobic 100
Anim@@ 100
MOG 100
ignoring 100
lane 100
par 100
representations 100
thful 100
Adam 100
Lyn@@ 100
asp 100
centrally 100
region@@ 100
TU@@ 100
atin 100
interruption 100
nou@@ 100
2018 100
Jur@@ 100
Pas@@ 100
drill 100
emperor 100
equip 100
forc@@ 100
surprisingly 100
Harmonized 100
atis 100
cooked 100
zon 100
27,@@ 100
Conc@@ 100
ocaust 100
07@@ 100
Child@@ 100
Europeans 100
Gas 100
IGAD 100
deriving 100
exus 100
vert 100
vial 100
Š@@ 100
.3 100
1,6@@ 100
Vil@@ 100
attribution 100
breeze 100
diagram 100
solicitation 100
ults 100
behave 100
bub@@ 100
confron@@ 100
construed 100
contention 100
spective 100
Concerning 100
Dha@@ 100
Francop@@ 100
cil 100
dominate 100
fish@@ 100
hook 100
uck@@ 100
Most 100
stalemate 100
standby 100
summon@@ 100
uro@@ 100
Princ@@ 100
URE 100
lut@@ 100
speeds 100
teles@@ 100
uded 100
Mac 100
N.@@ 100
cadres 100
endor@@ 100
Ituri 100
channelled 100
pinned 100
stationed 100
Yan@@ 100
circu@@ 100
istically 100
∙ 100
Cou@@ 100
Oxford 100
brains 100
embassy 100
labou@@ 100
stabilizing 100
spic@@ 100
behaviors 100
AU@@ 100
compassion 100
domains 100
gli@@ 100
team@@ 100
279 100
FEREN@@ 100
forese@@ 100
lett 100
researched 100
subtle 100
22nd 100
BIN@@ 100
PROGRA@@ 100
competitions 100
compression 100
confessions 100
fu 100
writes 100
Sect 100
fif@@ 100
Fel@@ 100
assimil@@ 100
tedness 100
Ouagadougou 100
aboard 100
comparatively 100
icing 100
0.8 100
Jakarta 100
Ul@@ 100
detentions 100
23rd 100
Buildings 100
fellowships 100
istics 100
cigarettes 100
presided 100
stre@@ 100
tish 100
Covenants 100
aspora 100
comparability 100
trail 100
1960s 100
88@@ 100
Id 100
Kafr 100
PRC 100
Puntland 100
antibio@@ 100
corrid@@ 100
dient 100
poured 100
sins 100
stagn@@ 100
AGENDA 100
Implementing 100
chool 100
domic@@ 100
vere@@ 100
5.9 100
Not@@ 100
Students 100
alan 100
appealing 100
foolish 100
heal 100
portions 100
tural 100
CGE 100
Yi 100
fas@@ 100
misleading 100
shaking 100
trigg@@ 100
understandable 100
Transportation 100
ateness 100
launches 100
resigned 100
917 100
balls 100
pigs 100
symp@@ 100
282 100
AMI@@ 100
HO 100
anthro@@ 100
ime 100
rally 100
291 100
Distribution 100
PARTIES 100
apest 100
summ@@ 100
ung@@ 100
AI@@ 100
ERS 100
resolu@@ 100
JI 100
PP 100
pie 100
25th 100
Tin@@ 100
quet 100
ask@@ 100
ingredi@@ 100
sac@@ 100
suppor@@ 100
Qi@@ 100
ailing 100
Aug@@ 100
Hawa@@ 100
Specific 100
issile 100
sul 100
tup 100
worm 100
330 100
lay@@ 100
yu@@ 100
Advan@@ 100
manag@@ 100
orus 100
reven@@ 100
Layer 100
Ran@@ 100
Ho 100
Cell 100
Kennedy 100
enship 100
gible 100
Bud@@ 100
WM@@ 100
acher 100
GNSS 100
incl@@ 100
Iraq@@ 100
Isa@@ 100
0.1 100
DDT 100
7.9 100
stell@@ 100
GAN@@ 100
selves 100
2006@@ 100
Hab@@ 100
UNT@@ 100
274 100
dan 100
effec@@ 100
emin@@ 100
Sanit@@ 100
VC 100
duck 100
iti 100
pou@@ 100
wee@@ 100
compli@@ 100
hen 100
John@@ 100
expl@@ 100
habitat 100
partments 100
Chel@@ 100
guardi@@ 100
273 100
7.7 100
Tren@@ 100
bou@@ 100
303 100
Jackson 100
Maz@@ 100
Oz@@ 100
Strength@@ 100
Tex@@ 100
ests 100
feat@@ 100
ordon 100
Cab@@ 100
Hiz@@ 100
Nel@@ 100
Phy@@ 100
nes 100
rad@@ 100
tren@@ 100
Core 100
Discus@@ 100
eventh 100
pam@@ 100
Regul@@ 100
Zhou 100
demo@@ 100
ika 100
SIT@@ 100
hij@@ 100
ifications 100
Ful@@ 100
exacerb@@ 100
90@@ 100
ador 100
contem@@ 100
Crown 100
secu@@ 100
ana@@ 100
ghted 100
iland 100
insula 100
Price 100
acity 100
recip@@ 100
UNF@@ 100
descri@@ 100
Nat@@ 100
Ped@@ 100
....@@ 100
Canal 100
Cant@@ 100
FR@@ 100
GNI 100
ession@@ 100
530 100
attered 100
Ec@@ 100
VIS@@ 100
centage 100
contribu@@ 100
industri@@ 100
iner 100
Cheung 100
Investments 100
1955 100
XVIII 100
stantly 100
Bom@@ 100
UT 100
Chan 100
Fur@@ 100
Wen@@ 100
poin@@ 100
Vladimir 100
uss 100
MIC 100
aud 100
peo@@ 100
ught 100
pdf 100
Hay@@ 100
aret 100
fic 100
immun@@ 100
oke 100
subjec@@ 100
vens 100
pson 100
schem@@ 100
Lum@@ 100
enthusi@@ 100
amy 100
green@@ 100
revie@@ 100
Chur@@ 100
Lu 100
Mou@@ 100
ange 100
empha@@ 100
Shen@@ 100
perform@@ 100
remitt@@ 100
Song 100
asis 100
restruc@@ 100
SM@@ 100
foreig@@ 100
harv@@ 100
compil@@ 100
UNMO@@ 100
sie 100
302 100
Mai 100
Son 100
SMA 100
gic 100
1959 100
2008@@ 100
trade@@ 100
usion 100
Terror@@ 100
Dre@@ 100
POS 100
Perio@@ 100
Source 100
sured 100
worsen@@ 100
figh@@ 100
Fas@@ 100
Ron@@ 100
TEC 100
Dar 100
aj@@ 100
lik@@ 100
301 100
Bay@@ 100
Aar@@ 100
M23 100
cm 100
grow@@ 100
partite 100
IFRS 100
gn 100
63@@ 100
Fat@@ 100
Mir@@ 100
cler@@ 100
Harb@@ 100
refrig@@ 100
ante 100
Estate 100
Go 100
ONUB 100
bay 100
commer@@ 100
theat@@ 100
Post@@ 100
9.1 100
tex 100
uated 100
Cris@@ 100
Guatem@@ 100
MEET@@ 100
TN@@ 100
Tob@@ 100
aga 100
ashi 100
eously 100
299 100
Jacqu@@ 100
Trading 100
tribu@@ 100
FM 100
soo@@ 100
tware 100
Ann 100
Budd@@ 100
emed 100
has@@ 100
m2 100
trage@@ 100
310 100
iding 100
sustain@@ 100
fting 100
impres@@ 100
escap@@ 100
margin@@ 100
essions 100
satisfac@@ 100
scienti@@ 100
197@@ 100
bands 100
perpetr@@ 100
shi 100
Zu@@ 100
rance 100
biom@@ 100
discrepan@@ 100
Nik@@ 100
affir@@ 100
atorial 100
eric 100
ret 100
8.6 100
athan 100
Includ@@ 100
Opportun@@ 100
abe@@ 100
ethn@@ 100
bura 100
Agre@@ 100
Riy@@ 100
clam@@ 100
ken@@ 100
Grant 100
tt 100
Mom@@ 100
ross 100
jer@@ 100
lex 100
oe 100
tment 100
550 100
control@@ 100
Dan 100
reness 100
650 100
OS@@ 100
coura@@ 100
Marg@@ 100
knowled@@ 100
mind@@ 100
NC@@ 100
Sat@@ 100
Wilson 100
geograph@@ 100
anne 100
tilation 100
gered 100
ialism 100
exclud@@ 100
kara 100
278 100
Dun@@ 100
380 100
hman 100
phy 100
UF@@ 100
versary 100
Ras@@ 100
peror 100
reat 100
Memb@@ 100
nesses 100
Colon@@ 100
Develop@@ 100
Mass@@ 100
noti@@ 100
world@@ 100
311 100
clin@@ 100
vised 100
Win@@ 100
9.2 100
ECB 100
Kab@@ 100
brief@@ 100
401 100
ditional 100
Ball@@ 100
had@@ 100
Abbas 100
271 100
Princi@@ 100
cture 100
ndez 100
annex@@ 100
pow@@ 100
hierarch@@ 100
DF 100
cles 100
reasury 100
RAL 100
fall@@ 100
lez 100
pas@@ 100
subsi@@ 100
ESCR 100
adju@@ 100
floo@@ 100
smil@@ 100
9.4 100
Delta 100
VEN@@ 100
mel 100
mic 100
ARD 100
FTA 100
hr 100
ponent 100
vica 100
Francis 100
Sel@@ 100
campaig@@ 100
demol@@ 100
usal 100
Neg@@ 100
finan@@ 100
infec@@ 100
298 100
UT@@ 100
IDA 100
CAR@@ 100
dispu@@ 100
evol@@ 100
obs 100
reless 100
arding 100
gir@@ 100
wei@@ 100
BP 100
E4 100
qi@@ 100
Elim@@ 100
mud@@ 100
Sing@@ 100
brid 100
dedic@@ 100
LT@@ 100
DH 100
azz@@ 100
IPS 100
hone@@ 100
tend@@ 100
Inspec@@ 100
princi@@ 100
oni 100
thres@@ 100
DLDD 100
desp@@ 100
PI 100
promp@@ 100
sors 100
How@@ 100
Mr@@ 100
1957 100
Dol@@ 100
ique 100
manship 100
sives 100
Fernan@@ 100
rane 100
ico 100
strugg@@ 100
AG 100
Sali@@ 100
Gir@@ 100
safeguar@@ 100
NP 100
Nacional 100
ficial 100
leng@@ 100
lingu@@ 100
Jab@@ 100
Arthur 100
Metho@@ 100
ami@@ 100
umes 100
check@@ 100
sche 100
poten@@ 100
Ja@@ 100
concer@@ 100
gradu@@ 100
SY@@ 100
isi 100
culti@@ 100
WS 100
bah 100
station@@ 100
perio@@ 100
Malay@@ 100
Reuters 100
eland 100
Guang@@ 100
Gall@@ 100
achi@@ 100
auc@@ 100
heav@@ 100
sity 100
----------------@@ 100
Gri@@ 100
Nar@@ 100
surance 100
tative 100
disco@@ 100
Steel 100
ei 100
hip 100
lest 100
tell@@ 100
Free@@ 100
1956 100
ghtly 100
Brothers 100
ene@@ 100
atro@@ 100
susp@@ 100
valence 100
Merc@@ 100
Bru@@ 100
297 100
CPR 100
Kun@@ 100
96@@ 100
aster 100
itec@@ 100
xon 100
CH 100
forec@@ 100
mark@@ 100
ources 100
ured 100
jah 100
Abd@@ 100
conven@@ 100
fren@@ 100
Gr@@ 100
itations 100
NT@@ 100
riti@@ 100
Quar@@ 100
Nav@@ 100
1874 100
nd 100
chinese 100
Auth@@ 100
Ele@@ 100
Intern@@ 100
aul 100
chann@@ 100
convic@@ 100
ded@@ 100
HL 100
hamed 100
Marie 100
6.9 100
sensitiz@@ 100
GR@@ 100
Diplom@@ 100
cled 100
olutions 100
discipl@@ 100
Patrick 100
inson 100
raft 100
76@@ 100
ele 100
fea@@ 100
metallic 100
Kas@@ 100
repatri@@ 100
thering 100
Jes@@ 100
cury 100
gery 100
NO 100
Thom@@ 100
birth@@ 100
Dispu@@ 100
Prin@@ 100
nez 100
atures 100
consul@@ 100
fab@@ 100
knoc@@ 100
orm@@ 100
erc@@ 100
moun@@ 100
remark@@ 100
rique 100
APEC 100
ancies 100
Facebook 100
best@@ 100
294 100
Brit@@ 100
fo 100
79@@ 100
sear@@ 100
tol@@ 100
devast@@ 100
99@@ 100
remun@@ 100
ê@@ 100
VO@@ 100
embo@@ 100
institu@@ 100
淭@@ 100
idated 100
檛 100
F.@@ 100
neighb@@ 100
ML 100
Plen@@ 100
AH@@ 100
Lat@@ 100
ord 100
Broad@@ 100
293 100
Christop@@ 100
GGE 100
berculosis 100
315 100
BI 100
oman 100
oth@@ 100
warran@@ 100
adem@@ 100
consen@@ 100
sel 100
communic@@ 100
sensi@@ 100
8.7 100
appor@@ 100
99.@@ 100
NPC 100
mani@@ 100
mately 100
Bulg@@ 100
Pun@@ 100
dos 100
letin 100
Conven@@ 100
persecu@@ 100
step@@ 100
sortium 100
0.2 100
Philip 100
seg@@ 100
Antar@@ 100
Rwand@@ 100
Nas@@ 100
lantic 100
vibr@@ 100
semination 100
Citigroup 100
Son@@ 100
fulf@@ 100
enko 100
1947 100
AA@@ 100
Omar 100
deteri@@ 100
promulg@@ 100
Afgh@@ 100
Ray@@ 100
Tak@@ 100
25.@@ 100
Chris 100
Dur@@ 100
tained 100
MISC@@ 100
beauti@@ 100
ustin 100
SAP 100
plified 100
awi 100
iza 100
BBC 100
Phone 100
Sachs 100
HU@@ 100
Valen@@ 100
Yahoo 100
colli@@ 100
Le 100
adv@@ 100
grading 100
Prac@@ 100
lined 100
execu@@ 100
leum 100
lining 100
timate 100
Rot@@ 100
flec@@ 100
vities 100
fru@@ 100
tance 100
313 100
anna 100
detail@@ 100
Ass@@ 100
Ox@@ 100
stry 100
8.8 100
angular 100
peace@@ 100
0.9 100
06@@ 100
Republ@@ 100
enorm@@ 100
erred 100
las 100
disman@@ 100
bab@@ 100
congres@@ 100
vec@@ 100
Brun@@ 100
Yam@@ 100
[...]
